#version: 0.2
à ¤
Ġ à¤
à ¥
à¤ ¾
à¤ °
à¥ ĩ
à¥ į
à¤ ¿
Ġà¤ ķ
à¤ ¨
à¤ ¤
à¤ ķ
à¤ ²
à¤ ¯
Ġà¤ ¸
à¥ Ģ
à¤ Ĥ
à¤ ¹
à¤ ®
Ġà¤ ª
à¤ µ
à¥ ĭ
à¤ ¸
Ġà¤ ®
Ġà¤ ħ
à¥ ģ
Ġà¤ ľ
à¤ ª
à¤ ¦
Ġà¤ ¨
Ġà¤ Ĩ
Ġà¤ ¬
à¥ ¤
à¥ Ī
Ġà¤ ¹
à¤ Ł
à¤ Ĺ
Ġà¤ µ
Ġà¤ ¦
à¤ ¬
à¥ Ĥ
à¤ §
Ġà¤ ı
à¤ ·
à¤ £
Ġà¤ °
à¤ ģ
Ġà¤ ²
à¤ ¥
à¤ ľ
Ġà¤ Ľ
à¤ Ľ
à¤ ¶
à¤ ļ
à¥ĩ à¤Ĥ
Ġà¤ķ à¤°
Ġà¤ ¤
Ġà¤ħ à¤Ľ
à¤ ¡
Ġà¤ Ĺ
Ġà¤ª à¤°
à¤ ĸ
Ġà¤ Ń
à¤ ı
à¤ Ń
à¤ ĩ
Ġà¤ ī
à¤ķ à¤°
Ġà¤ ¶
Ġà¤ ¯
Ġà¤ ĵ
Ġà¤¨ à¤¹
Ġà¤Ľ à¤²
Ġà¤ ļ
Ġ à¥¤
Ġà¤¸ à¤®
Ġà¤ Ī
à¤ª à¤¨
à¥ĭ à¤Ĥ
Ġà¤ı à¤ķ
à¤¿ à¥¤
à¤ ¼
Ġà¤ §
à¥ ĥ
Ġà¤ ĸ
Ġà¤ı à¤¹
Ġà¤ħ à¤¨
à¤° à¤£
à¤° à¤¤
Ġà¤¬ à¤¨
à¤ Ī
Ġà¤¹ à¤®
à¥ ¥
à¤ «
à¥ĩ à¤ģ
à¥ Į
à¤¹ à¤²
à¤° à¤ķ
Ġà¤ħ à¤§
à¤¯ à¤ķ
à¤¾ à¤ģ
Ġ (
à¤¾ à¤Ĥ
Ġà¤ ĩ
à¤ı à¤²
à¤ Ĩ
Ġà¤¸ à¤ķ
Ġà¤Ĩ à¤µ
à¤¿ à¤Ĥ
à¤¨ à¤ķ
à¤ĩ à¤²
Ġà¤¸ à¤¬
à¤ ł
Ġà¤ħ à¤ªà¤¨
à¥ ī
à¤² à¤¨
Ġà¤ķ à¤¯
à¤¿ ,
Ġà¤ķ à¤ĩà¤²
Ġà¤ «
Ġà¤ Ł
à¤¯ à¤®
à¤° à¤¸
à¤® à¤²
Ġà¤Ľ à¤¥
Ġà¤Ĩ à¤°
Ġà¤ĵ à¤ķà¤°
à¤ª à¤°
à¤² à¤¯
à¤¤ à¤°
Ġà¤° à¤¹
à¤ ĺ
Ġà¤ Ķ
à¤Ĩ à¤°
à¤Ĺ à¤¤
à¤¯ à¤µ
à¤ĩ à¤¤
Ġà¤° à¤¹à¤²
Ġà¤ķ à¤ıà¤²
à¤ ĥ
Ġà¤¹à¤® à¤°
Ġ ;
à¤ Ŀ
à¤¸ à¤¨
Ġà¤ ¡
à¤° à¤®
Ġà¤¸ à¤Ń
Ġà¤Ķ à¤°
à¤µ à¤°
Ġà¤¤ à¤°
Ġà¤ķ à¤¹
Ġà¤ª à¤¹
à¥ĩ ,
Ġà¤ķà¤° à¤¤
à¤ ½
Ġà¤ī à¤ª
Ġà¤ħ à¤ª
à¤£ à¤¯
à¤µ à¤²
à¤¯ à¤¤
Ġà¤ķ à¤¹à¤²
à¤µ à¤¨
Ġà¤¸à¤ķ à¤¤
Ġà¤ ĳ
à¤² à¤ķ
Ġà¤® à¤¹
à¤° à¤¦
à¥Ģ à¤Ĥ
à¥Ī à¤Ĥ
à¤¸ à¤°
Ġà¤ ĺ
Ġà¤ķà¤¯ à¤²
Ġ à¥¥
à¤ ŀ
Ġà¤¸ à¤¹
Ġà¤Ĩ à¤¦
Ġà¤ĵ à¤¹
Ġà¤¬ à¤¹
à¤¦ à¤ķ
Ġà¤ī à¤¤
à¤ķ à¤¯
Ġà¤µ à¤°
Ġà¤ ¥
à¤ľ à¤¨
à¤ĸ à¤¨
à¤¶ à¤¨
Ġà¤ī à¤¦
à¤¦ à¤¨
à¤ ¢
Ġà¤ı à¤«
Ġà¤² à¤Ĺ
Ġ "
à¤ķà¤° à¤£
Ġà¤ħ à¤¹
Ġà¤ħ à¤¸
à¤² à¤¤
Ġà¤® à¤¨
à¤µ à¤¤
à¤® à¤ķ
à¤ ĵ
à¤ ī
à¤¦ à¤°
à¤¨ à¤²
à¤¾ ,
à¥ģ à¤ģ
à¤¯ à¤¨
à¤° à¤Ń
à¥ĩà¤Ĥ ,
à¤¨ à¤ķà¤°
à¤® à¤¤
Ġà¤Ĩ à¤§
à¤· à¤£
Ġà¤ıà¤« à¤¸
à¤ļ à¤¨
Ġà¤ķ à¤®
Ġà¤ķà¤° à¤¬
Ġà¤ħ à¤°
Ġà¤ĩ à¤¸
à¥Ģ à¥¤
Ġà¤Ĩà¤µ à¤¶
Ġà¤ī à¤ļ
Ġà¤ĳ à¤¸
à¤¾ à¥¤
Ġà¤ª à¤ķ
Ġà¤ī à¤²
à¤ķ à¤¨
Ġà¤¸à¤® à¤¯
Ġà¤Ĩ à¤¯
à¤ª à¤¤
à¤° à¤µ
à¤° à¤¯
Ġà¤ķà¤° à¤¨
à¤¼ à¤¾
à¥ §
à¤¨ à¤¨
à¤° à¤¹
à¤Ł à¤°
à¤¬ à¤°
Ġà¤¤ à¤ķ
à¤ıà¤² à¤Ĩà¤°
Ġà¤ľ à¤¹
Ġà¤¤ à¤¥
à¤ ħ
Ġà¤¹ à¤°
à¤° à¤¶
Ġà¤ı à¤Ĺ
à¤ª à¤·
Ġà¤ħ à¤µ
Ġà¤° à¤ĸ
Ġà¤ħ à¤²
à¤Ĺ à¤°
à¤¤ à¤µ
Ġà¤ª à¤¤
Ġà¤Ĩ à¤¬
Ġà¤¤à¤° à¤¹
à¤¹ à¤°
Ġ -
à¤ķ à¤²
Ġà¤ħ à¤Ń
à¤¯ à¤°
Ġ '
Ġ ,
à¤¤ à¤®
Ġà¤ıà¤ķ à¤Ł
à¤® à¤¨
Ġà¤¯ à¤¹
à¤Ĺ à¤²
Ġà¤¸à¤® à¤Ŀ
Ġà¤ıà¤¹ à¤¨
Ġ à¥
Ġà¤Ĩ à¤Ĺ
Ġà¤ľ à¤¬
Ġà¤ħ à¤¤
Ġà¤ľ à¤¨
à¥ĩ à¥¤
à¤¹ à¤¤
Ġà¤§ à¤°
à¤ı à¤¸
à¤¼ à¤¿
à¤¯à¤ķ à¤¤
à¤¯ à¤²
Ġ )
à¤Ł à¤¨
à¤ª à¤ķ
Ġà¤ ł
à¥Ī à¥¤
Ġà¤¸à¤Ń à¤ķ
Ġà¤ı à¤ļ
à¤¿ :
Ġà¤®à¤¹ à¤¤
à¤¤ à¤¨
Ġà¤¯ à¤¦
Ġà¤¸ à¤°
à¤¯ à¤¸
à¤¨ à¤°
à¤Ĩ à¤Ī
Ġà¤ļ à¤²
Ġà¤® à¤§
Ġà¤Ĩ à¤ļ
Ġà¤Ń à¤Ĺ
Ġà¤ı à¤¸
à¤· à¤ķ
à¥§ à¥
à¤¤ à¤¯
Ġà¤Ľ à¤¨
Ġà¤¶ à¤¬
â Ģ
à¤¨ à¤µ
Ġà¤ıà¤ļ à¤¸
Ġà¤¬ à¤²
à¤¹ à¤¨
Ġà¤ī à¤ł
à¤ĸ à¤²
Ġà¤ı à¤ķà¤°
Ġà¤Ĩà¤ļ à¤°à¤£
à¥Ģ ,
Ġà¤ħà¤² à¤Ĺ
Ġà¤¶ à¤°
Ġà¤īà¤ª à¤¯
à¤µ à¤ķ
à¤¸ à¤ķ
Ġà¤¸ à¤¦
à¤° à¤²
à¤ĺ à¤¨
Ġà¤ Ŀ
Ġà¤¶ à¤ķ
Ġà¤ķ à¤¥
à¤² à¤ķà¤°
à¤µ à¤ª
à¤¸ à¤®
Ġà¤ķ à¤¨
à¤¤ à¤ķ
à¤® à¤£
Ġà¤ı à¤¨
Ġà¤ Ĭ
à¥Ī ,
Ġà¤ª à¤¡
Ġà¤Ńà¤Ĺ à¤µ
à¤ĩ à¤¨
à¤µ à¤§
Ġà¤¬ à¤¡
Ġà¤¬ à¤¢
à¤· à¤¤
à¤§ à¤¨
à¤¦ à¤®
Ġà¤µ à¤ķ
à¤¨ à¤¤
Ġà¤ħ à¤¦
Ġà¤ķà¤° à¤¯
Ġ |
Ġà¤ī à¤¨
à¤² à¤¬
Ġà¤¤ à¤ĸà¤¨
Ġà¤ī à¤¨à¤ķà¤°
Ġà¤¸ à¤¤
à¤µ à¤¯
à¤Ń à¤°
à¤® à¤°
Ġà¤ķ à¤¤
Ġà¤ķ à¤²
Ġà¤ľ à¤°
Ġà¤ĩ à¤¨
Ġà¤ĺ à¤°
Ġà¤µ à¤¸
Ġà¤Ń à¤½
Ġà¤® à¤°
Ġà¤¬ à¤ļ
à¤¼ à¥Ģ
à¤¥ à¤¤
à¤ĩ à¤¸à¤¨
Ġà¤ħ à¤¬
à¤¸ à¤²
à¤Ł à¤²
à¤° à¤¬
Ġà¤¸à¤® à¤°
à¤® à¤¸
à¥Ĥ à¤ģ
Ġà¤¬ à¤°
à¤ı à¤ļ
Ġà¤ªà¤° à¤®
à¤ļ à¤°
à¥ ¨
Ġà¤¸à¤¹ à¤®à¤¤
à¥Ģ )
Ġà¤ļ à¤°
à¤° à¤ľ
Ġà¤ķ à¤½
Ġà¤ĳ à¤«
à¤ķ à¤¤
Ġà¤ī à¤¸
à¤² à¤¹
à¤° à¤¨
à¤· à¤¯
Ġà¤¸ à¤¨
Ġà¤¬ à¤¤
Ġà¤Ń à¤²
à¤® à¤ľ
Ġà¤² à¤ķ
à¤ļ à¤²
Ġà¤¤ à¤¹à¤¤
Ġà¤Ĩ à¤¨
à¤ĩ à¤µ
Ġà¤¬ à¤ľ
à¤Ĺ à¤¨
à¤® à¤Ĺ
à¥ģ à¤Ĥ
Ġà¤ħ à¤ªà¤°
à¤° à¤¥
à¤¡ à¤¬
Ġà¤¦ à¤¸
à¤¨ à¤¦
à¤« à¤²
Ġà¤ Ĳ
Ġà¤ª à¤¹à¤²
à¤µ à¤£
à¤¥ à¤¨
Ġà¤ĵ à¤°
Ġà¤ķà¤¯ à¤²à¤¨
à¤¯à¤µ à¤¸
à¤¶ à¤ķ
à¤¨ à¤¸
à¥ ©
Ġà¤Ĺ à¤²à¤¤
Ġà¤¦ à¤°
à¤ı à¤«
Ġà¤Ĩ à¤¶
Ġà¤¤ à¤¤
Ġà¤ķà¤¹à¤² à¤¨
Ġà¤¤ à¤½
à¤¯ à¤¬
à¤ĩ à¤Ł
à¤ Ļ
Ġà¤Ń à¤°
Ġà¤ħ à¤Ĺ
à¤ĩ à¤¸
à¤¹ à¤ķ
à¤ª à¤¸
Ġà¤¨ à¤µ
à¤¦ à¤¯
à¤µ à¤ľ
à¤ª à¤£
à¥ ª
à¤µ à¤¸
Ġà¤Ĺ à¤¯
Ġà¤ľ à¤ĸà¤¨
Ġà¤ ĭ
Ġà¤¹ à¤¨
Ġà¤Ĩ à¤ķ
Ġà¤ª à¤¢
à¤¬ à¤¨
Ġà¤Ĩ à¤¤
à¤¯à¤µ à¤²
Ġà¤ľ à¤²
Ġà¤µ à¤¹
Ġà¤° à¤ĺ
à¤ĵ à¤²
Ġà¤§ à¤¨
à¤¹ à¤°à¤£
Ġà¤ħ à¤ĩà¤¸à¤¨
Ġà¤¤ à¤¬
Ġà¤ı à¤²
Ġà¤ķ à¤ª
Ġà¤® à¤ľ
Ġà¤® à¤¤
à¤Ł à¤ķ
à¤Ń à¤µ
à¤£ à¤¨
à¤¡ à¤®
Ġà¤ĸ à¤°
Ġà¤Ĩ à¤ĩ
à¥¥ à¥¥
à¤¯ à¤£
à¤ķ à¤¦à¤®
Ġà¤Ń à¤ķ
Ġà¤ħ à¤Ĺà¤°
Ġà¤Ĩ à¤ľ
Ġà¤ļ à¤°à¤£
à¤ĩ à¤Ľ
) à¥¤
à¥ «
à¤ķ à¤¸
Ġà¤Ĩ à¤¸
Ġà¤ī à¤¨à¤ķ
Ġà¤¸à¤¦ à¤¸
Ġà¤Ĺ à¤¤
à¤°à¤¦ à¤°
à¤¡ à¤²
Ġà¤¸à¤® à¤¸
Ġà¤ħ à¤ķ
Ġà¤Ĺ à¤ĩà¤²
Ġà¤Ĩ à¤ª
Ġà¤ı à¤ıà¤²à¤Ĩà¤°
Ġà¤Ĩ à¤Ī
Ġà¤ħà¤µ à¤§
Ġà¤ı à¤¤
Ġà¤ķ à¤ł
Ġ âĢ
à¤§ à¤°
à¤Ĺ à¤®
Ġà¤ª à¤¦
à¤ľ à¤°
à¤¿ à¤ĥ
Ġà¤ı à¤®
Ġà¤ķ à¤Ī
à¤ı à¤¤
Ġà¤°à¤ĸ à¤²
Ġà¤¸à¤® à¤ķ
à¤² à¤Ĺ
à¤ľ à¤ķ
à¤² à¤¸
à¤ĸ à¤¤
à¤°à¤ķ à¤Ł
Ġà¤ķà¤ĩà¤² à¤ķ
Ġà¤Ĺ à¤°
à¥ ¬
Ġà¤µ à¤ļà¤¨
Ġ [
à¤¸ à¤Ń
à¥ģ à¤ĥ
à¤¿ .
Ġà¤Ľà¤² à¤¨
à¤¯à¤µ à¤¹
Ġà¤ªà¤¹ à¤ļ
à¥Į à¤Ĥ
Ġà¤ħ à¤®
Ġà¤¨ à¤®
Ġà¤ı à¤µ
à¤¦ à¤²
à¤¤ à¤¤
Ġà¤ĩ à¤¤
à¤ķ à¤¹
à¤ı à¤¨
à¤° à¤ª
Ġà¤Ń à¤¯
Ġà¤°à¤¹ à¤¤
Ġà¤ķà¤¹à¤² à¤ķ
Ġà¤²à¤Ĺ à¤²
Ġà¤Ĳ à¤¸
à¤¬ à¤²
à¤ıà¤¸ à¤¡à¤¬
à¤ª à¤Ł
à¥ Ń
à¤ľ à¤²
à¤¼ à¥Ī
à¥ ¦
à¤¯ à¤ª
Ġà¤ħà¤µ à¤¸à¤°
à¤® à¤ļ
Ġà¤ĩà¤¸ à¤ķ
à¤¡ à¤°
à¤¬ à¤¯
à¤² à¤°
Ġà¤¤ à¤¹
Ġà¤īà¤ª à¤²à¤¬
Ġà¤ĩà¤¸ à¤²
à¤§ à¤ķ
Ġà¤Ń à¤µ
Ġà¤° à¤ķ
à¤« à¤²à¤¤
à¤¼ à¥ĩ
Ġà¤ħ à¤¥
Ġà¤ľ à¤Ĺ
à¤ı à¤ķ
Ġà¤¸ à¤ļ
à¤¡ à¤¨
Ġà¤« à¤²
Ġà¤µ à¤¨
à¤°à¤¸ à¤¨
Ġà¤¦ à¤¹
à¥ ®
Ġà¤¦ à¤²
Ġà¤ľ à¤¯
à¤¨ à¤®
à¤ª à¤¯
à¤® à¤ļà¤¨
Ġà¤° à¤ľ
Ġà¤¸ à¤½
à¤µ à¤°à¤£
à¥ĩà¤Ĥ à¥¤
Ġà¤¬ à¤¸
à¤¾ :
à¤¾ .
à¤Ł à¤®
Ġ à¥§à¥
Ġà¤ĩ à¤ļ
Ġà¤ĩ à¤°
à¥Ĥ à¥¤
à¥ ¯
à¤· à¤¸
à¤ķ à¤ķ
à¤§ à¤¤
à¤ı à¤ıà¤«
à¤Ĺ à¤ķ
Ġà¤ķ à¤µà¤¨
à¤£ à¤ķ
Ġà¤Ĩà¤¯ à¤²
Ġà¤Ĩ à¤ªà¤¨
Ġà¤°à¤ĸ à¤¤
Ġà¤Ń à¤°à¤¤
à¤¤ à¤¹
Ġ :
Ġà¤ ¢
Ġà¤¨ à¤ĩ
Ġà¤ĵ à¤¤à¤¯
Ġà¥ ¨
Ġà¤¦ à¤¯
à¤ī à¤°
Ġà¤°à¤¹ à¤¥
à¤¯ à¤¦
Ġà¤ħ à¤ļ
Ġà¤Ĩ à¤®
Ġà¤¬à¤¨ à¤²
Ġà¤² à¤¯
à¤Ĺ à¤¦
Ġà¤ĺ à¤Łà¤¨
Ġà¤Ĭ à¤ªà¤°
à¤² à¤²
Ġà¤ķà¤¹à¤² à¤ĸ
à¤· à¤®
Ġà¥ Ĳ
Ġà¤īà¤ª à¤¸
à¤¥ à¤®
à¤ł à¤¨
à¥ĩ ;
à¤ĸ à¤¬
à¤ı à¤®
Ġà¤ľ à¤¨à¤ķ
à¤ıà¤ıà¤« à¤¸
Ġà¤¸ à¤ľ
à¤Ł à¤¤
Ġà¤Ĺ à¤ı
Ġà¤² à¤¡
Ġà¤ª à¤¶
à¤² à¤¥
Ġà¤ľ à¤ĩà¤¸
à¤ª à¤®
à¥ĩ :
à¥Į à¤ģ
à¥ĩ )
Ġà¤¬ à¤¦à¤²
Ġà¤ī à¤ªà¤°
Ġà¤¹ à¤¸
Ġà¤ıà¤¨ à¤ıà¤¸à¤¡à¤¬
à¤¿ ;
Ġà¤ı à¤Ł
à¤° à¤ļ
Ġà¤¦ à¤¶
à¤¯ à¤¯
Ġà¤° à¤ĸà¤¨
Ġà¤¶ à¤¤
à¤² à¤ĸ
Ġà¤ļ à¤¨
Ġà¤Ĺ à¤£
Ġà¤Ľà¤² à¤¥
Ġà¤¸à¤ķ à¤²
Ġà¤¨à¤ĩ à¤ĸ
Ġà¤ĭ à¤£
à¤° à¤ľà¤¨
à¤¯ à¤¥
à¤° à¤µà¤°
Ġà¤¤ à¤¨
à¤¾ "
Ġà¤ľ à¤¤
Ġà¤ħ à¤µà¤²
Ġà¤¸à¤¹ à¤¯
Ġà¤ľ à¤®
Ġà¤ķà¤¹ à¤¤
à¤² à¤®
Ġà¤ķ à¤µ
à¤¾ )
âĢ Ļ
à¤ ĳ
à¤¹ à¤®
à¤ª à¤¦
Ġà¤¯ à¤ľ
à¤¬ à¤¦
à¤°à¤¥ à¤®
à¤ľ à¤¨à¤ķ
Ġà¤ķà¤¹ à¤¬
Ġà¤ħà¤¥ à¤µ
à¤¶ à¤²
Ġà¤ķà¤ıà¤² à¤ķ
Ġà¤¬ à¤¯
Ġà¤Ī à¤¶
Ġà¤¸à¤¬ à¤¸
à¤ķ à¤Ł
Ġà¤ı à¤ľ
à¤® à¤¯
Ġà¤® à¤¦
à¤¨ à¤¹
à¤¹ à¤¸
ĠâĢ ĺ
à¤¾ à¥¥
Ġà¤¸ à¤°à¤ķ
à¤¨ à¤¬
Ġà¤¤à¤°à¤¹ à¤ķ
Ġ) à¥¤
Ġà¤¹ à¤²
à¤· à¤®à¤¤
à¤® à¤ļà¤°
à¤ĸ à¤ķ
à¤µ à¤¹
à¤ı à¤¹
à¤ļ à¤¯
Ġà¤®à¤¤ à¤²à¤¬
à¤¡ à¤ķ
Ġà¤¦ à¤ķ
Ġà¤īà¤ª à¤Ń
à¤Ń à¤ķ
à¤µ à¤¦
Ġà¤ķà¤° à¤²
à¥į âĢ
à¥įâĢ į
Ġà¤° à¤ļà¤¨
à¤¿ "
Ġà¤¸à¤¬ à¤Ł
à¥Ģ :
Ġà¤Ĺ à¤µ
à¤ľ à¤Ĺ
Ġà¤Ĩ à¤¹
Ġà¤ı à¤¤à¤¯
Ġà¤¯ à¤¥
à¤ķ à¤µ
à¤µ à¤ľà¤¨
Ġà¤ı à¤ĸà¤¨
à¤Ľ à¤²
Ġà¤¶ à¤°à¤£
Ġà¤ħ à¤¯
Ġà¤ľà¤¬ à¤ķ
à¤ļ à¤ķ
à¥Ģà¤Ĥ à¥¤
Ġà¤¸ à¤²
Ġà¤¸ à¤µ
à¤ª à¤¥
Ġà¤° à¤¦
à¤¥ à¤ľ
Ġà¤īà¤ª à¤ļ
à¤µ à¤Ń
Ġà¤ª à¤µ
à¤µ à¤¶
à¤ħ à¤²à¤Ĺ
Ġà¤ļà¤² à¤²
à¤ľ à¤¯
à¤Ń à¤Ĺ
Ġà¤¨ à¤¯
Ġà¤ķà¤° à¤¯à¤µà¤²
à¤ģ ,
à¤¤ à¤²
à¤ķ à¤¡
Ġà¤¸ à¤«à¤²
à¤Ī à¤¤
à¥Ī :
Ġà¤Ĩà¤Ī à¤ª
à¤ĥ à¥¤
à¤¨ à¤¯
à¤¥ à¤ķ
à¤ª à¤²
à¥ģà¤ģ à¥¤
à¤ħ à¤¨
Ġà¤ķà¤¯ à¤²à¤ķ
à¤ľ à¤¸
Ġà¤² à¤Ĺà¤¤
Ġà¤° à¤¸
Ġà¤°à¤¹ à¤¬
Ġà¤ļ à¤¢
Ġà¤ķà¤¥ à¤¨
Ġà¤ľ à¤Ĺà¤¤
Ġà¤¡ à¤°
Ġà¤ķ à¤¯à¤ķ
à¤ĩ à¤ķ
à¤ī à¤¥
Ġà¤°à¤¹ à¤¨
Ġà¤ī à¤¸à¤ķ
à¤Ĺ à¤£
Ġà¤ľ à¤µà¤¨
Ġà¤ķà¤¤ à¤¹
) ,
à¤® à¤¦
à¤°à¤¹ à¤£
à¤¥ à¤°
à¤® à¤°à¤£
à¤· à¤°
Ġà¤ķà¤° à¤ķ
à¤ł à¤ķ
Ġà¤ķà¤ĩà¤² à¤¨
à¤¤ à¤°à¤£
à¤§ à¤¡
à¤ĺ à¤°
à¤· à¤¦
Ġà¤¸ à¤ĸ
à¤¡ à¤¸
Ġà¤ľà¤Ĺ à¤¹
Ġà¤¶ à¤ªà¤¥
Ġà¤ĩ à¤ķ
à¤¸ à¤¦
Ġà¤¬à¤ľ à¤²
à¥ĭ à¥¤
Ġà¤ķà¤¹ à¤¨
à¤ī à¤¨
Ġà¤ħà¤Ĺ à¤¸
Ġà¤ĭ à¤·
à¤· à¤ľ
à¤¸ à¤°à¤£
à¤ķ à¤¦
à¤ĳ à¤¸
à¤¸ à¤µ
à¤ķ à¤¬
à¥į à¥¤
à¤® à¤¹
Ġà¤ħà¤µ à¤¸
Ġà¤Ĺ à¤Ī
à¤¿ à¥¥
Ġà¤ķ à¤®à¤²
Ġà¤ľ à¤ĩà¤¸à¤¨
Ġà¤ļ à¤ķ
à¤¶à¤¨ à¤²
Ġà¥ ©
Ġà¤°à¤¹ à¤¯
Ġà¤¨ à¤Ĺà¤°
Ġà¤ª à¤ł
Ġà¤ķ à¤Ł
à¤ıà¤¸ à¤¸
Ġà¤ķà¤ıà¤² à¤¨
Ġà¤Ńà¤Ĺ à¤µà¤¤
Ġà¤ľ à¤¤à¤¯
Ġà¤ķà¤° à¤¥
à¤ĩ à¤¬
Ġà¤ħ à¤¶
à¤Łà¤° à¤¨
à¥Ģ -
Ġà¤Ĩ à¤¨à¤¨
Ġà¤²à¤Ĺ à¤Ńà¤Ĺ
Ġà¤ªà¤ķ à¤¡
Ġà¤ļ à¤¤
Ġà¤ħà¤ªà¤¨ à¤¹
à¤ħ à¤ªà¤¨
Ġà¤Ĩà¤ķ à¤²à¤¨
à¤¸ à¤¬
à¤¸ à¤¤
à¤Ĩ à¤¤
à¤ĸ à¤°
à¤² à¤µ
à¤ Ĭ
à¤ľ à¤®
à¤¯à¤® à¤ķ
Ġà¤¤ à¤¦à¤¨
Ġà¤® à¤Ī
Ġà¤ħ à¤ľ
) :
à¤Ĺ à¤¹
à¤° à¤§
Ġà¤ķ à¤¬
Ġà¤ķ à¤¤à¤¯
Ġ( "
à¤¾ '
Ġà¤Ĩ à¤ªà¤°
Ġà¤®à¤ľ à¤¬
Ġà¤ĩ à¤¨à¤ķ
Ġ à¥§
à¤µ à¤µ
Ġà¤ľ à¤µ
Ġà¤ľà¤¨ à¤¤
à¤¾ ;
à¤¥ à¤²
à¥Ģ à¥¥
à¤¤à¤° à¤¦
à¤ıà¤¸ à¤Ĩà¤°
à¤¾ à¤ĥ
Ġà¤¸à¤¬ à¤ķ
Ġà¤ī à¤®
Ġà¤ª à¤¬
Ġà¤ħ à¤īà¤°
Ġà¤µ à¤¶
Ġà¤ķà¤° à¤µ
à¥ĥ à¤Ĥ
à¤ĩ à¤¯
à¤µ à¤®
Ġà¤¨ à¤¦
Ġà¤Ĩ à¤ķà¤°
Ġà¤¸ à¤Ł
Ġà¤ħà¤µ à¤¶
Ġà¤Ń à¤°à¤²
à¤ª à¤ļ
Ġà¤® à¤¸
Ġà¤Ĩ à¤²
Ġà¤¸ à¤ª
à¤² à¤µà¤°
à¤® à¤µ
Ġà¤¸ à¤«à¤²à¤¤
Ġà¤ıà¤ķ à¤®
à¤¡ à¤¬à¤°
Ġà¤« à¤°
à¤ķ à¤¥
Ġà¤ħ à¤¯à¤²
à¤¸ à¤ª
Ġà¤ķà¤¹à¤² à¤¥
à¥§à¥ ¦
Ġà¤ħà¤¸ à¤«à¤²
à¤ľ à¤¹
à¤¡ à¤°à¤²
Ġ( '
à¤ħ à¤ª
Ġà¤Ńà¤°à¤¤ à¤ľ
à¤ı à¤Ł
Ġà¤Ĺ à¤łà¤¨
Ġà¤ķà¤° à¤¦
Ġà¤ĵ à¤¤
Ġà¤¡ à¤¬
à¤Ľ à¤¤
à¤ĩ à¤ľ
Ġà¤¬à¤¨ à¤¬
à¤² à¤Ń
Ġà¤ĩ à¤²
à¥Ģ "
à¥Īà¤Ĥ à¥¤
à¥į à¥¥
à¥ĭ ,
à¥Ģà¤Ĥ ,
Ġà¤ķ à¤ıà¤¨
à¤ĩ à¤¡
Ġà¤ķ à¤Ń
Ġà¤ª à¤¸
Ġà¤ļ à¤²à¤¤
à¤¨ à¤ª
à¤µ à¤¨à¤ķ
Ġà¤ķà¤¹ à¤¯
à¤¦ à¤¹
à¤¾à¤ģ ,
Ġà¤ª à¤Ł
Ġ- ;
à¥§à¥ ¨
Ġà¤¹ à¤ķà¤¦
Ġà¤īà¤ł à¤²
à¤¤ à¤¸
à¤ĸ à¤¯
Ġà¤¦à¤¶ à¤°à¤¥
Ġà¤ı à¤¬
à¤¶ à¤°
à¤ı à¤Ĺ
Ġà¤ĩ à¤®
Ġà¤Ĩ à¤ĵ
Ġà¤ĺ à¤Ł
Ġà¤¸à¤®à¤Ŀ à¤²
à¤¦ à¤¶
Ġà¤Ĩ à¤ªà¤¤
à¤µ à¤¸à¤¨
à¤ī à¤¸
Ġà¤ķ à¤¦à¤®
Ġà¤Ľ à¤¹
Ġà¤ĵ à¤¨
à¤¿ )
à¤ĸ à¤²à¤¨
Ġà¤® à¤²
Ġà¤Ĩà¤¦ à¤°
Ġà¤°à¤ĸ à¤¬
Ġà¥ ª
à¥Ī à¤ģ
Ġà¤ķ à¤ĸà¤¨
à¤®à¤£ à¤ľ
à¤¦ à¤Ń
Ġà¤¨ à¤°
Ġ .
à¤¿ à¤ģ
à¤® à¤®
Ġà¤Ĩ à¤Ń
à¤ħ à¤°
à¤² à¤¯à¤ķ
Ġà¤µ à¤²
à¥ĩà¤Ĥ :
à¤µ à¤¹à¤¨
Ġà¤ī à¤¡
à¤¨ à¤ľ
Ġà¤ı à¤¡à¤®
à¤¥ à¤Ĺ
Ġà¤Ī à¤®
Ġà¤Ĩ à¤īà¤°
à¤ļ à¤®
à¤¬ à¤¹
Ġà¤° à¤¥
Ġà¤¸ à¤°à¤¸
' )
Ġà¤ľ à¤ķà¤°
Ġà¤¤à¤° à¤«
à¤¿ '
à¤¬ à¤ķ
Ġà¤ı à¤ıà¤²
Ġà¤Ĩ à¤ī
Ġà¤§ à¤°à¤¤
Ġà¤ķà¤ĩà¤² à¤¸
Ġà¤ħ à¤«
à¤ľ à¤¦
à¤µ à¤µà¤°
Ġà¤ī à¤Ĺà¤¨
à¤¿à¤Ĥ ,
à¤ĩ à¤ľà¤°
à¤« à¤¨
Ġà¤ķà¤¯ à¤¨
à¤Ł à¤¯
Ġà¤Ľà¤² à¤¹
Ġà¤ıà¤ķ à¤¹
Ġà¤« à¤°à¤µà¤°
à¥Ĥ à¤Ĥ
Ġà¤® à¤£
à¥Ĥ )
à¤§ à¤µ
Ġà¤Ł à¤°
à¤ĩ à¤¥
Ġà¤¬à¤¹ à¤¸
à¤ħ à¤²
Ġà¥ «
" )
à¤° à¤«
Ġà¤¬ à¤¦
Ġà¤¹ à¤µ
à¤ķ à¤ª
à¤¸ à¤¹
à¤Ł à¤¬
Ġà¤¹à¤® à¤¹
à¤ıà¤¨ à¤ıà¤¸à¤¡à¤¬
à¤ķ à¤®
Ġà¤ľ à¤Ł
Ġà¤ķà¤¯à¤² à¤¹
Ġà¤ħ à¤µà¤¤
Ġà¤¹ à¤ľ
Ġà¤ı à¤ıà¤¸
Ġà¤ĸ à¤¸
Ġà¤Ĩà¤° à¤®
à¥ ħ
Ġà¤ı à¤¡
à¤£ à¤¤
Ġà¤ļà¤°à¤£ à¤ķ
Ġà¤ī à¤ªà¤¨
à¥ĩ à¥¥
Ġà¤¨ à¤®à¤¸
Ġà¤¤ à¤¦
Ġà¤¯ à¤¶
Ġà¤ħà¤¨ à¤¨
Ġà¤ĩ à¤¤à¤¨
Ġà¤¹ à¤Ł
Ġà¤² à¤½
Ġà¤ī à¤ľ
Ġà¤ıà¤¸ à¤ľ
à¥§à¥ ©
à¤Ľ à¤¨
à¤¤ à¤ļ
à¤¯ à¤¹
Ġà¤Ĩà¤ĵ à¤°
à¤° à¤ĸ
à¤® à¤¶
à¤¿ à¥¥à¥¥
à¤¤ à¤ķà¤°
Ġà¤ħà¤ª à¤µ
Ġà¤ıà¤² à¤ľ
Ġà¤¤ à¤ªà¤¸
à¤ĩ à¤®
Ġà¤ĩ à¤¹
à¤¯ à¤ľ
Ġà¤° à¤¤
Ġà¤ıà¤¸ à¤ı
à¤¯à¤® à¤¨
à¤¤ à¤ľ
Ġà¤Ĩ à¤ĸ
à¤®à¤¨ à¤µ
à¤¿à¤Ĥ à¥¤
à¥Ģ à¤ĥ
à¤ļ à¤¤
Ġà¤ª à¤²
à¤ľ à¤¤
Ġ $
Ġà¤ĩ à¤¶
Ġà¤ħà¤µ à¤®
à¤¯ à¤¶
Ġà¤ľ à¤¡
Ġà¤¤ à¤¸
Ġà¤ıà¤ķ à¤²
Ġ Â
à¤¯ à¤§
à¤Ĺ à¤łà¤¨
à¤· à¤ª
à¤£à¤¯ à¤ķà¤°
Ġà¤Ĩ à¤½
Ġà¤¹ à¤¦
Ġà¤¤ à¤¯
à¤¿ -
à¤ı à¤¶à¤¨
à¤¼ à¥ĭà¤Ĥ
à¤« à¤°
à¤¯ à¤¡
à¤Ĺ à¤¸
Ġà¤¸à¤® à¤Ĺ
Ġà¤ħà¤²à¤Ĺ à¤ħà¤²à¤Ĺ
à¤¯ à¤¯à¤¨
Ġà¤ħà¤ªà¤¨ à¤ħà¤ªà¤¨
à¤ª à¤¹
à¤Ń à¤µà¤¤
à¤Ŀ à¤²
à¤° à¤ļà¤¨
à¥ĩà¤Ĥ )
à¤® à¤§
Ġà¤ķà¤Ī à¤²
ĠÂ ·
Ġà¤ª à¤¨
Ġà¤¹à¤² à¤«à¤¨
Ġà¤¤ à¤ķà¤°
Ġà¤ħà¤¸ à¤®à¤°
à¤Ĩà¤Ī à¤¸
ĠâĢ ¢
à¤µà¤£ à¤ķ
/ /
Ġà¤¸ à¤Ļ
à¤® à¤ª
à¤Ŀ à¤¬
à¤¹ à¤¤à¤°
Ġà¤ķà¤° à¤®
Ġà¤ĺ à¤°à¤ķ
à¤¯à¤° à¤§
à¤° à¤Ĺ
à¤Ĺ à¤¦à¤°
Ġà¤Ľà¤² à¤ĸ
à¤¬ à¤¤
à¥ĩ "
Ġà¤¬à¤¨ à¤¤
à¤Ĩ à¤µ
Ġà¤īà¤ª à¤§
Ġà¤īà¤ª à¤¦
à¤¨à¤ķ à¤¹
Ġà¤ķ à¤·
Ġà¤ľ à¤¦
à¤Ĺ à¤¬
Ġà¤Ĺ à¤£à¤¨
à¥§à¥ ª
Ġà¤¨ à¤·
à¤ļ à¤¬
à¤°à¤£ à¤ķ
Ġà¥ ¬
à¤¤ à¤ª
à¤ľ à¤¬
à¤¶ à¤¤
à¤ı à¤¬
Ġà¤ł à¤¹à¤°
Ġà¤¶ à¤¹à¤°
à¤ĵ à¤¨
) ;
Ġà¤ľ à¤ª
à¤¬ à¤¸
à¤· à¤¨
Ġà¤¸à¤¬ à¤¹à¤ķ
Ġà¤µ à¤°à¤¦
à¤¡ à¤µ
Ġà¤ķà¤ª à¤Ł
Ġà¤ª à¤µà¤¨
à¤¸ à¤°à¤ķ
à¥Īà¤Ĥ ,
Ġà¤ıà¤¤ à¤¬
Ġ /
Ġà¤Ĩ à¤ªà¤¸
Ġà¤¸à¤¹ à¤ľ
Ġà¤ħ à¤Ł
Ġà¤¦ à¤¬
Ġ: //
Ġà¤ľà¤¨à¤ķ à¤ª
Ġà¤®à¤¦ à¤¦
à¤¸ à¤¸
Ġà¤ĵà¤¹ à¤¨
à¤Ĺ à¤¡
Ġà¤Ĺ à¤®
à¤¡ à¤Ĺ
à¤Łà¤° à¤ª
Ġà¤Ī à¤¹
Ġà¤ķà¤® à¤ľ
Ġ- ,
à¤£ à¤¯à¤ķ
à¤¦ à¤µ
Ġà¤° à¤ļ
Ġà¤Ķ à¤¦
Ġà¤ķà¤ª à¤¡
Ġà¤Ĺ à¤¨
à¤ķ à¤Ń
à¤Ł à¤«
à¤ĩ à¤°
à¥Ģ ;
Ġà¤Ĩ à¤ªà¤ķ
Ġà¤² à¤Ļ
Ġà¤Ń à¤ľà¤¨
à¤ı à¤Ľ
à¤¹ à¤¬
à¤Ń à¤°à¤¤
Ġà¤īà¤ª à¤ķ
Ġà¤ħà¤ª à¤®
Ġà¤ħà¤¸ à¤²
Ġà¤¯ à¤¤
Ġà¤¯ à¤®
Ġà¤ıà¤ıà¤¸ à¤Ĩà¤Īà¤¸
à¥į ,
à¤ĸ à¤¦
à¤¨ à¤Ł
Ġà¤Ĩ à¤ł
à¤°à¤® à¤¶
à¤ħ à¤§
à¤¨ à¤¸à¤¨
Ġà¤¤ à¤ª
Ġà¤Ķ à¤ªà¤ļ
à¤Ĺ à¤®à¤¨
Ġà¤ĸ à¤¡
Ġ) ,
Ġà¤µ à¤§
Ġà¤Ń à¤µà¤¨
à¤° à¤°
Ġà¤¨ à¤ľà¤°
Ġà¤Ĺ à¤ª
Ġà¤ıà¤« à¤ı
Ġà¤Ĩà¤¸ à¤ª
à¥ĭ -
à¤ĥ à¥¥
Ġà¤ľà¤¨ à¤µà¤°
à¤¦ à¤Ĺ
Ġà¤¤ à¤Ń
Ġà¥¥ à¥¥
Ġà¥ Ń
à¤¸ à¤«
Ġà¤¨ à¤ķ
Ġà¤ªà¤° à¤¸
Ġà¤ı à¤ª
Ġà¤Ī à¤Ĩà¤°
à¤°à¤¤ à¤ķ
à¤¾ à¥¥à¥¥
à¤Ĺ à¤¯
Ġà¤Ľ à¤ł
Ġà¤ıà¤ķ à¤¤
Ġà¤¸ à¤ªà¤¨
Ġà¤¦ à¤£
à¥§à¥ «
à¤ Ĳ
à¥Ģ '
à¤¬ à¤¡
Ġà¤ıà¤ķ à¤¦à¤®
Ġà¤ķ à¤¸
Ġà¤¦ à¤¯à¤µà¤²
Ġà¤ī à¤¹
Ġà¤° à¤£
à¤ĩ à¤¨à¤°
à¤¼ à¥ĭ
Ġà¥§à¥ ¦
à¤ģ à¥¤
âĢ Ŀ
Ġà¤ķ à¤µà¤°
Ġà¤ĺ à¤Łà¤ķ
à¤¤ à¤¬
à¤¶ à¤¯
ĠâĢ ľ
Ġà¤¸à¤ķ à¤¯
à¤¹ à¤®à¤°
Ġà¤¤ à¤®
Ġà¤¤à¤ĸà¤¨ à¤¹
Ġà¤ħ à¤ĸ
Ġà¤ı à¤Ĩà¤Ī
à¤¥ à¤Ĺà¤¨
Ġà¤Ĺ à¤²
Ġà¤Ķ à¤ļ
à¤ī à¤¦
à¤ıà¤² à¤¸
à¤°à¤¬ à¤²
à¤Ĩ à¤¯
Ġà¤ıà¤« à¤ıà¤²à¤Ĩà¤°
à¤µ à¤Ł
à¤ª à¤Łà¤¨
à¤°à¤£ à¤¨
Ġà¤¦ à¤°à¤¬
à¤ķà¤°à¤£ à¤ķ
Ġà¤Ĩ à¤ĩà¤²
Ġà¤ĳ à¤²
Ġà¤Ĩà¤ĩ à¤¯
Ġà¤Ĺ à¤¹
à¤¤ à¤¥
à¤¸ à¤ľ
à¥ĭà¤Ĥ ,
à¥ĩ '
Ġà¤¸à¤¹ à¤¸
Ġà¥ ®
à¥Ī ;
à¤µ à¤ļ
à¤ı à¤ı
Ġà¤ĵ à¤¤à¤¹
Ġà¤ıà¤ĸà¤¨ à¤¹
à¤¤ à¤°à¤ķ
à¤Ł à¤µà¤°
Ġà¤Ł à¤ķ
Ġà¤ıà¤« à¤ıà¤®
à¤² à¤¬à¤°
à¤° à¤·
à¤ª à¤Łà¤²
Ġà¤ıà¤ķ à¤¦
Ġà¤°à¤¹ à¤¸
à¤µ à¤¯à¤¨
Ġà¤ľ à¤¨à¤¨
Ġà¤ı à¤ıà¤Ł
à¤£ à¤ªà¤¤
Ġà¤ĺ à¤¨
à¤ķà¤² à¤¸
à¤¸à¤Ń à¤ķ
à¤¯ à¤ķà¤°
à¤µ à¤°à¤ķ
à¤ª à¤°à¤ķ
à¤Ľ à¤ķ
Ġà¤ħà¤¨ à¤¦
Ġà¤®à¤¨ à¤¨
Ġà¤ıà¤ıà¤² à¤¡
Ġà¤² à¤ĺ
à¤ļ à¤°à¤£
Ġà¤ī à¤°
à¤Ŀ à¤¯
Ġà¤Ĩà¤¦ à¤®
Ġà¤¨ à¤¯à¤¨
Ġà¤Ń à¤ľ
à¥§à¥ Ń
Ġà¥¨ à¥¦
à¤¾ -
à¤¸ à¤ĺ
Ġà¤ħà¤¸ à¤¹
à¤Ł à¤¸
à¤ľ à¤ª
Ġà¤ĵ à¤®
Ġà¤ıà¤Ĩà¤Ī à¤ª
à¤¨ à¤Ĺ
Ġà¤¬ à¤°à¤¸
Ġà¤Ĺ à¤¹à¤¨
Ġà¤ĸ à¤¤à¤°
à¥§à¥ ¬
à¥Ĥ ,
Ġà¤Ĺ à¤ł
Ġà¤ķà¤ıà¤² à¤¥
à¤®à¤£ à¤ķ
à¤ļ à¤²à¤¨
à¤ªà¤° à¤µ
à¤ī à¤ļ
Ġà¤īà¤² à¤Ł
à¤¨ à¤²à¤¨
à¤¶ à¤®
Ġà¥ ¯
Ġà¤ķ à¤ı
à¤¯ à¤Ĺ
Ġà¤ļ à¤®à¤ķ
à¤ĺ à¤¨à¤ķ
Ġà¤ī à¤¸à¤¨
Ġà¤²à¤Ĺ à¤²à¤¨
à¤¨ à¤²à¤ķ
à¤¼ à¥ĩà¤Ĥ
Ġà¤ħ à¤Ļ
à¤ª à¤µ
Ġà¤° à¤µ
Ġà¤ıà¤¹ à¤ķà¤°
à¤° à¤ļà¤²
à¤ł à¤Ń
Ġà¤ī à¤ķ
Ġà¤ĺ à¤¡
Ġà¤²à¤Ĺ à¤¬
Ġà¤¹à¤® à¤¨
à¤¦à¤ķ à¤ķ
Ġà¤Ĳ à¤¤
à¤¼ à¥į
Ġà¤¹à¤®à¤° à¤¹
à¤ĵ à¤¹
à¤¦à¤° à¤Ĺ
Ġà¤ķ à¤ķ
à¥§à¥ ®
Ġà¤¦ à¤®
Ġà¤ı à¤°
Ġà¤ķ à¤¦
Ġà¤ķ à¤ķà¤°
Ġà¤® à¤¯
Ġà¤¬à¤² à¤µ
Ġà¤® à¤®
Ġà¤Ń à¤Ł
à¤°à¤® à¤£
à¤ķ à¤²à¤¨
Ġà¤¨ à¤Ĺ
Ġà¤ī à¤¤à¤°
à¤Ĩà¤° à¤ıà¤²
à¤Ĺ à¤ľ
à¤¯à¤ķ à¤¯
Ġà¤ĳ à¤Ł
à¤£ à¤µ
Ġà¤¤ à¤ķà¤¨
Ġà¤Ĺ à¤¦
" à¥¤
Ġà¤ħ à¤®à¤°
Ġà¤¬ à¤ļà¤¨
Ġà¤®à¤¹ à¤°
Ġ &
Ġà¤µ à¤ľà¤¨
à¤ĸ à¤Ń
Ġà¤¸à¤° à¤²
Ġà¤ļà¤°à¤£à¤ķ à¤®à¤²
Ġà¤¸ à¤¸
Ġà¤ħ à¤Ī
à¤¦ à¤°à¤ķ
Ġà¤¹ à¤°à¤£
Ġà¤° à¤®
Ġà¤ķà¤° à¤²à¤ķ
à¤°à¤® à¤ķ
Ġà¤ıà¤¸ à¤¸
Ġ$ ,
- ]
Ġà¤ĳ à¤¨
à¤ī à¤¤
à¤ħ à¤¹
à¤ħ à¤¸
Ġà¤ķà¤ĸà¤¨ à¤¹
Ġà¤Ĩà¤¬ à¤¯
à¤Ł à¤µ
Ġà¤ķ à¤ļ
Ġà¤ªà¤° à¤¨
Ġà¤īà¤ª à¤¹
Ġà¤ĩà¤¸ à¤®
à¥§à¥ ¯
Ġ ]
à¤² à¤ľ
Ġà¤ª à¤ŀ
Ġà¤ļ à¤¯à¤¨
à¤ĵ à¤¤
à¤ļ à¤°à¤²
Ġà¤¸à¤¬ à¤®
à¤¿ ?
à¤µ à¤Ĺ
à¥ģ ,
Ġà¤¹ à¤¤
à¥§ à¥§
Ġà¤ĭ à¤¤
à¤¤ à¤°à¤¤
Ġà¤¨ à¤¤
Ġà¤ ·
à¤ķ à¤Ĺ
Ġà¤® à¤ļ
à¤Ŀ à¤ķà¤°
à¤ī à¤ªà¤°
Ġà¤ľ à¤¤à¤¹
à¤ª à¤¬
à¤Ī à¤¯
à¤« à¤®
Ġà¤¨ à¤Ī
à¤ļ à¤¸
Ġà¤®à¤¨ à¤®
à¤ Ķ
Ġà¤ĳ à¤¯à¤²
à¤¦ à¤¨à¤ķ
Ġà¤ħ à¤·
à¤· à¤§
Ġà¤ļà¤² à¤¬
Ġà¤¦ à¤µ
à¤ĸà¤² à¤¹
à¥¨ à¥¦
Ġà¤ħ à¤¸à¤°
Ġà¤ľ à¤¤à¤¨
Ġà¤Ĩ à¤¸à¤¨
Ġà¤ĳ à¤°
Ġà¤Ĩ à¤°à¤ķ
Ġà¤Ī à¤¸
Ġà¤Ĩà¤° à¤ª
à¤¦à¤ķ à¤¨
Ġ %
à¥ĩ )à¥¤
à¤§ à¤²
Ġà¤ª à¤ļ
Ġà¤¦ à¤°à¤Ń
Ġ( -
Ġà¤¬à¤° à¤ķà¤°
Ġà¤ľà¤¨à¤ķ à¤ľ
à¤¦ à¤¸
Ġà¤ķà¤° à¤¯à¤µ
Ġà¤Ĺ à¤¬
Ġà¤ķà¤ĩà¤² à¤¥
à¤Ĩà¤° à¤Ł
Ġ) ;
à¤² à¤¨à¤ķ
Ġà¤ľ à¤¸
à¥¤ à¥¤
Ġà¤² à¤ľ
à¤Ī à¤¸
Ġà¤¸à¤¹ à¤Ń
à¤ĸ à¤²à¤ķ
Ġà¤ĵ à¤¬
Ġà¤¨à¤µ à¤®
à¤¨ à¤¬à¤°
Ġà¤¸ à¤Ĺ
Ġà¤¬ à¤Ł
Ġà¤¬ à¤ĸ
Ġà¤ķà¤° à¤¹
à¥ĩà¤ģ ,
à¤ķà¤² à¤²
Ġà¤ķà¤ª à¤²
à¤·à¤£ à¤ķ
Ġà¤Ĭ à¤°
Ġà¤ķ à¤¡
à¤¤ à¤Ĺ
- -
Ġà¤µ à¤¨à¤µ
Ġà¤ļ à¤²à¤¯
Ġà¤¸à¤® à¤¯à¤ķ
Ġ[ -]
Ġà¤ħà¤¨ à¤²
à¤Ĩ à¤¨
à¤½ à¤¸
Ġà¤īà¤ª à¤ķà¤°à¤£
Ġà¤®à¤¨ à¤¹
à¥Ģ ]
à¤¥ à¤µ
à¤°à¤ķ à¤¨
à¤ª à¤¶
à¤¦ à¤ª
Ġà¤µ à¤ľ
à¤° à¤²à¤ķ
à¥Ģ à¥¥à¥¥
à¤Ń à¤¨
Ġà¤Ĩà¤Ī à¤Ĩà¤°
Ġà¤ª à¤£
Ġà¤² à¤²
Ġà¤°à¤¹à¤² à¤¨
Ġ â
à¤µ à¤¡
Ġà¤® à¤®à¤¤
à¥ģ à¥¤
Ġà¤ħà¤¸ à¤«à¤²à¤¤
Ġà¤¸à¤®à¤Ŀ à¤¤
Ġà¤¨ à¤ľà¤¦
Ġà¤ĵ à¤µ
Ġà¤ıà¤ıà¤² à¤ľ
à¤² à¤ª
Ġà¤§ à¤¯
Ġà¤Ľ à¤µ
à¤Ī à¤ķ
à¤°à¤¦ à¤ľ
Ġà¤īà¤¨ à¤®
Ġà¤Ĩà¤Ī à¤Ł
à¤Ĥ à¥¤
Ġà¤Ĩ à¤®à¤¤
Ġà¤ı à¤¨à¤°
Ġà¤īà¤¤ à¤¨
à¤® à¤Ń
à¤¦ à¤°à¤¤
Ġà¤¹ à¤Ī
Ġà¤ī à¤§
Ġà¤¨ à¤°à¤ķ
Ġà¤¤ à¤°à¤ķ
à¤µà¤² à¤ªà¤®
à¤ľà¤¨ à¤°à¤²
Ġà¥§ à¥§
" ,
Ġà¤® à¤°à¤£
Ġà¤¨ à¤ľ
Ġà¤ıà¤¹ à¤ķ
à¤Ŀ à¤¨
à¤ĩà¤¨ à¤®
Ġà¤ª à¤¸à¤°
Ġà¤® à¤¹à¤²
à¤Ł à¤ª
à¤¶ à¤¨à¤ķ
à¥Ģà¤Ĥ :
Ġà¤ķà¤® à¤°
Ġà¤ıà¤«à¤ı à¤®à¤¸
à¥ĩà¤Ĥ ;
Ġà¤ķà¤° à¤½
Ġà¤¤ à¤Ł
Ġà¤ıà¤¹ à¤¸
Ġà¤®à¤¹ à¤¸
Ġà¤°à¤ĸ à¤²à¤¨
Ġà¤¬à¤ļ à¤¤
Ġà¥§à¥ ¨
Ġà¤Ĩà¤¯ à¤¬
Ġà¤® à¤Ĺ
Ġà¤® à¤°à¤®
Ġà¤¬ à¤¶à¤°
Ġà¤ķà¤¯à¤² à¤¥
Ġà¤ħ à¤Ĺà¤²
Ġà¤¤ à¤¹à¤¨
à¤Ń à¤ķà¤°
Ġà¤ĩà¤¸ à¤¸
à¤¸à¤® à¤¯
" :
à¤¯ à¤ı
Ġà¤ľ à¤¤à¤ķ
Ġà¤¯ à¤¸
à¤ĺ à¤Łà¤¨
Ġ- à¥¤
à¤§ à¤®
Ġà¤ĸ à¤¸à¤²
Ġà¤¬à¤ļ à¤²
à¤° à¤ªà¤¤
Ġà¤ħ à¤ĩà¤Ľ
Ġà¤¨ à¤ŀ
Ġà¤¹ à¤ł
à¤Ĺ à¤ª
à¤Ĺ à¤µ
à¤ĥ ,
à¤¾ ]
à¥ĩ -
à¤² à¤¦
Ġà¤ª à¤łà¤¨
à¤¶ à¤ľ
à¥ĥ .
Ġà¤ħà¤¸ à¤¤
à¤¸ à¤¯
Ġà¤® à¤¶
à¤Ĺ à¤µà¤¤
à¤£ à¤µà¤¤
à¤Ń à¤¯
Ġà¤ĵ à¤ķ
Ġà¤ĸ à¤²
Ġà¤¸à¤Ń à¤Ł
à¤Łà¤¨ à¤Ĺà¤°
Ġà¤¬à¤¤ à¤¬
Ġà¤ª à¤¥
Ġà¤Ĺ à¤ľ
à¤¹ à¤Ł
à¤£ à¤®
Ġà¤¤ à¤²
Ġà¤ħà¤¸ à¤®
Ġà¤°à¤ĸ à¤²à¤ķ
Ġà¤ľà¤¨ à¤®
Ġà¤ĵà¤¤ à¤¬
à¤° à¤ł
à¤¸ à¤µà¤°
à¥Ī à¤ĥ
à¥ĩà¤Ĥ "
Ġà¤ľà¤¨ à¤¹
à¥¨ à¥©
Ġà¤¦ à¤½
à¤Ľ à¤²à¤¨
à¤ļ à¤µ
Ġà¤ī à¤Ĺ
à¤ł à¤ľ
à¤µà¤¨ à¤®
Ġ- )
Ġà¤¸à¤¤ à¤¤
à¤ķ à¤ľ
à¤ķ à¤¶
à¤ķ à¤¤à¤®
Ġà¤¸ à¤¨à¤ķ
à¤ĩ à¤«
Ġà¤ĸ à¤¬à¤°
à¤Ĩà¤° à¤ıà¤¸
Ġà¤¸à¤®à¤Ŀ à¤¨
Ġà¤ıà¤¨ à¤Ł
Ġà¤ķà¤¤ à¤¬
à¤° à¤Ĺà¤¤
à¥Ģ (
à¥Ģ à¤ģ
Ġà¤¨ à¤¨
Ġà¤ªà¤° à¤¶
Ġà¤ķà¤¹à¤² à¤¹
Ġ" [
Ġà¤¦à¤¶à¤°à¤¥ à¤ľ
à¤µ à¤¥
Ġà¤ķà¤° à¤²à¤¨
Ġà¤§ à¤¯à¤²
Ġà¤Ĩà¤µ à¤¤
à¤·à¤£ à¤ľ
Ġà¤ħà¤¸à¤¹ à¤®à¤¤
à¤ķ à¤²à¤¤
à¤¶ à¤µ
à¤ı à¤°
à¤¿" :
à¤ ĭ
Ġà¤ı à¤¯
Ġà¤īà¤ª à¤µ
à¤²à¤ķ à¤¨
à¤ĵ à¤ķà¤°
Ġà¤ľ à¤ķ
Ġà¤Ķ à¤·à¤§
Ġà¥§à¥ ª
Ġà¤ľà¤¤ à¤ı
à¤° à¤¯à¤¤
Ġà¤¬ à¤§
Ġà¤ı à¤¡à¤¬
à¤ľ à¤§
à¤ī à¤²
à¥¨ à¥ª
Ġà¤¦à¤¶ à¤®
Ġà¤¨ à¤µà¤°
Ġà¤ı à¤ı
à¤ľ à¤µ
Ġà¤Ń à¤°à¤¦
Ġà¤ĩ à¤µ
Ġà¤Ńà¤¯ à¤Ń
Ġà¤® à¤¨à¤ķ
Ġà¤² à¤®
à¤¼ à¥ĩà¤Ĥ,
Ġà¤ıà¤¤ à¤¹
à¤¬ à¤¥
Ġà¤° à¤®à¤£
Ġà¤Ľ à¤¤
à¤°à¤¸ à¤°
à¤°à¤¸ à¤Ń
Ġà¤īà¤ª à¤®
à¥¨ à¥¬
Ġ& ;
à¤¹ à¤¦
à¤µ à¤ķà¤°
Ġà¤¬ à¤°à¤¦
à¤· à¤¯à¤ķ
Ġà¤ĵ à¤²
Ġà¤ĵ à¤µà¤°
Ġà¤ĸ à¤¤
Ġà¤¸à¤ķ à¤¬
Ġà¤¸à¤¹ à¤¨
Ġà¤Ĩà¤¦ à¤°à¤ª
Ġà¤ľà¤¹ à¤¨
Ġà¤Ĩà¤ķ à¤¸
à¥Įà¤Ĥ à¥¤
à¤¹ à¤¯
Ġà¤ª à¤ĩ
à¤Ĺ à¤Łà¤¨
à¤ı à¤¹à¤¨
Ġà¤¶ à¤®
Ġà¤ķà¤¹ à¤¥
à¤ĵ à¤¸
Ġà¤°à¤ĸ à¤°à¤ĸ
à¥¨ à¥Ń
à¥Ģ) à¥¤
Ġà¤ľà¤¤ à¤¬
à¤® à¤¹à¤¤
Ġà¤ªà¤° à¤²
à¤µà¤² à¤ķ
à¤°à¤¦ à¤¸
à¤ħ à¤Ĺà¤°
Ġà¤ħà¤¯à¤² à¤¹
Ġà¤Ĺ à¤¢
à¤ĩ à¤ª
Ġà¤ħà¤¨ à¤ľ
à¤Ĩ à¤Ĺ
Ġà¤īà¤¦ à¤¯
Ġà¤ħà¤¸ à¤Ĺà¤°
à¤ī à¤Ł
à¤°à¤µ à¤£
à¤° à¤²à¤¯
à¤µ à¤ļà¤¨
à¤¦ à¤¬
Ġà¤Ń à¤¸
à¤ı à¤µ
Ġà¤ļ à¤²à¤¨
Ġà¤¸à¤® à¤¨
à¥¨ à¥«
à¤® à¤¬
Ġà¤ı à¤²à¤¨
Ġà¤ı à¤ıà¤®
à¤Ń à¤¦
à¤¯à¤° à¤¨
à¤Ĩà¤Ī à¤Ĩà¤Ī
Ġà¥§à¥ ©
à¤¯ à¤Ł
à¤ª à¤¡
Ġà¤¬ à¤ķ
Ġà¤ı à¤¯à¤°
Ġà¤¶ à¤¨
Ġà¤®à¤¨ à¤¸
Ġà¤ıà¤ļ à¤Ĩà¤°
Ġà¤¬à¤° à¤ĸ
à¤Ĭ à¤ªà¤°
Ġà¤® à¤ĸ
Ġà¤² à¤¯à¤ķà¤¯
Ġà¤ĩ à¤ľ
à¤ī à¤ķ
Ġ' -
à¤Łà¤¨ à¤°
à¥¨ à¥¯
Ġà¥§à¥ «
Ġà¤Ĩà¤ī à¤Ł
à¤¨ à¤µà¤°
à¤¯ à¤Ń
Ġà¤¹ à¤¡
Ġà¤µ à¤¹à¤¨
Ġà¤¸à¤® à¤¤
à¤°à¤¹ à¤°
Ġà¤ľà¤Ĺ à¤¦
Ġà¤¹ à¤ķ
à¤Ń à¤µà¤¨
à¤¼ à¥Ĥ
Ġà¤ĳ à¤ªà¤°
à¤°à¤¦ à¤¤
à¤² à¤ļ
à¤§ à¤¨à¤ķ
à¤¡ à¤¶
à¥¨ à¥®
Ġà¥§à¥ ¬
à¤° à¤²à¤¨
Ġà¤ķ à¤ĩ
Ġà¤ı à¤¶
Ġà¤īà¤ł à¤¤
Ġà¤ħ à¤¡
à¤ª à¤¸à¤¨
à¤¦ à¤¤
à¤ı à¤ª
à¤½ à¤§
Ġà¤ıà¤¨ à¤ıà¤²
à¥© à¥©
Ġà¤ķ à¤¤à¤¨
à¤µ à¤²à¤¨
à¤µ à¤°à¤¸
Ġà¤Ĩ à¤«
à¤Ł à¤¸à¤¨
Ġà¤ıà¤ķ à¤ıà¤ķ
Ġà¤¹à¤® à¤²
à¤¯à¤¤ à¤¯
à¥ĩ) ;
Ġà¤ĭà¤£ à¤¦
ĭ âĢ
à¤° à¤ĺ
Ġà¤ħ à¤ĸà¤¨
Ġà¤Ĩ à¤°à¤¤
Ġà¤ıà¤¹ à¤®
Ġà¤« à¤²à¤¸
Ġà¤ľà¤¬ à¤°à¤¦à¤¸
ĠâĢ ĭâĢ
Ġà¥§à¥ Ń
ĠâĢĭâĢ ĭ
à¤¸ à¤Ł
à¤ķà¤¬ à¤¸à¤¨
à¤¯ à¤¨à¤ķ
à¤¸ à¤¬à¤°
à¤¬ à¤µ
à¤ªà¤° à¤®
Ġà¤ħà¤µ à¤Ĺà¤¤
Ġà¤¬ à¤Ĺ
à¤Ĩ à¤¬
à¤¯à¤¤ à¤¨
à¤ĵ à¤²à¤ķ
Ġà¤¬à¤ļ à¤¬
à¤ķ à¤½
Ġà¤ª à¤Ľ
à¤¦ à¤¯à¤ķ
Ġà¤Ĩ à¤¨à¤²
Ġà¤¤ à¤ľ
Ġà¤Ń à¤ĩà¤²
Ġà¤ĩ à¤¦
à¤ħ à¤¯
Ġà¤¬à¤ľ à¤¬
Ġà¤ıà¤«à¤ı à¤®à¤ľ
' à¥¤
Ġà¤ħ à¤ļà¤²
à¤ª à¤°à¤¤
Ġà¤Ĩ à¤¸à¤ķ
à¥Ģà¤Ĥ à¥¥
Ġà¤ķà¤ªà¤Ł à¤ª
Ġà¤¸ à¤«
Ġà¤ľ à¤ľ
à¤£ à¤°
à¤£ à¤¸
Ġà¤¬à¤¨ à¤¯
à¤°à¤ķ à¤µ
à¤Ŀ à¤ķ
à¤¾) ,
Ġà¤®à¤¦ à¤¤
à¤¯ à¤½
Ġà¤® à¤ķ
Ġà¤¤ à¤¤à¤¯
à¤ĸ à¤¸
à¤ķà¤° à¤¹
Ġà¤Ĩà¤Ĺ à¤®à¤¨
Ġà¤Ĩà¤ļà¤°à¤£ à¤ķ
Ī Ļ
à¤¾ âĢĻ
à¤¤ à¤¦
à¤² à¤¸à¤¨
à¤® à¤µà¤°
à¤Ĺ à¤ķà¤°
Ġà¤µ à¤°à¤ķ
à¤ħ à¤¤
Ġà¤¸à¤®à¤Ŀ à¤¦
Ġà¤ıà¤² à¤°
à¤Ĳ à¤ķ
à¤¨ à¤¥
à¤Ĺ à¤²à¤ķ
Ġà¤¤ à¤²à¤µ
à¤ĸ à¤®
à¤ĺ à¤ķ
à¤ĵ à¤ª
Ġâ ĪĻ
à¤² à¤²à¤ķ
Ġà¤² à¤²à¤ķ
Ġà¤Ĺ à¤¡
Ġà¤ĺ à¤°à¤®
à¥© à¥«
Ġà¤¸ à¤¦à¤°
à¤¸ à¤ļ
Ġà¤¨ à¤µà¤¨
à¤Ĺ à¤¶
à¤¬ à¤¯à¤µà¤²
à¤£ à¤Ĺ
Ġà¤² à¤¹
à¥ĩà¤Ĥ )à¥¤
à¤ĩ à¤Łà¤°
Ġà¤¯ à¤®à¤°
Ġà¤¸à¤® à¤¯à¤®
à¥Ģà¤Ĥ )
à¤¬à¤° à¤²
Ġà¤ıà¤¸ à¤ıà¤¸
Ġà¤ķà¤² à¤¶
Ġà¤īà¤¸ à¤¸
à¥© à¥¦
Ġà¤¸à¤ļ à¤®
Ġà¥§à¥ ®
Ġà¤ħ à¤ł
Ġà¤ħ à¤Łà¤²
Ġà¤ľ à¤¯à¤¤
Ġà¤¨ à¤¬
Ġà¤¬ à¤¸à¤²
à¤Ł à¤°à¤¸à¤¨
Ġà¤¦ à¤¶à¤ķ
Ġà¤Ī à¤°
à¤°à¤¤ à¤®
à¤Ī à¤ĵà¤¸
Ġà¤ªà¤¹ à¤°
Ġà¤¹à¤° à¤·
Ġà¤ľà¤¨ à¤°à¤²
à¥© à¥ª
à¤¨ à¤ļ
à¤Ĺ à¤ł
Ġà¤¶ à¤¹
à¥ī .
à¤°à¤® à¤£à¤ķ
à¤¿" à¥¤
à¤¨ à¤¶
Ġà¤¸ à¤ŀ
à¥Ģ .
Ġà¤¬ à¤¦à¤¨
Ġà¤ı à¤¨à¤µ
Ġà¤¶ à¤ł
à¤ł à¤®
Ġà¤°à¤¹à¤² à¤¹
Ġà¤Ĩà¤¦ à¤°à¤£
à¤ħ à¤Ń
Ġà¤¦ à¤§
à¤ĩ à¤¸à¤ķ
à¤Ī à¤¨
à¥Į à¥¤
Ġà¤Ĩà¤¦ à¤¤
Ġà¤ħà¤° à¤¬
Ġà¤ıà¤¨ à¤¡à¤¬
à¤ıà¤« à¤ıà¤®
Ġà¤ľà¤¨à¤ķ à¤ķ
Ġà¤ıà¤ļà¤Ĩà¤° à¤Īà¤ĵà¤¸
' ,
Ġà¤¬ à¤°à¤¤
à¥Ī à¥¥
Ġà¤Ľ à¤ĩ
Ġà¤ļ à¤¹
Ġà¥¤ à¥¤
Ġà¤§ à¤®à¤ķ
à¤Ī à¤®
Ġ( ,
Ġà¤Ĩà¤ĩ à¤ķ
à¥« à¥¦
Ġà¤ķ à¤¨à¤ķ
à¤¨ à¤Ĺà¤°
à¤Ł à¤¹
à¤§ à¤°à¤£
à¤¥ à¤ª
Ġà¤ĩà¤¨ à¤®
à¥¨ à¥¨
à¥© à¥Ń
Ġà¤¬à¤¦ à¤²à¤¨
à¤² à¤Ł
à¤¯ à¤Łà¤¨
à¤¦ à¤¦
Ġà¤Ĩ à¤®à¤ķ
Ġà¤° à¤ļà¤¯
Ġà¤² à¤ļ
à¤¡ à¤ª
à¤ĸ à¤ª
à¤ı à¤ıà¤¸
Ġà¤¶ à¤°à¤¦
à¤¼ à¥ĩà¥¤
Ġà¤ħà¤§ à¤®
à¤¯à¤µ à¤°
à¤½ à¤ª
Ġ- )à¥¤
à¥© à¥¬
à¥© à¥¯
Ġà¤ªà¤µà¤¨ à¤¸
à¥ĩ ]
Ġà¤ª à¤Ľà¤¤
à¤ļ à¤²à¤ķ
Ġà¤ļ à¤£
à¤®à¤² à¤ķ
à¤Ĺà¤¤ à¤ķ
à¤°à¤® à¤®
Ġ' [
Ġà¤Ńà¤Ĺà¤µ à¤¦
à¥© à¥®
Ġà¤ķ à¤ĩà¤¸
Ġà¤¨ à¤²
à¤ı à¤ķà¤°
Ġà¤ķà¤¹à¤² à¤¸
Ġà¤ĺ à¤®
Ġà¤°à¤ĸ à¤µ
Ġ' '
à¤ıà¤ļ à¤ıà¤²
Ġà¤Ĳ à¤¶
Ġà¥§à¥ ¯
Ġà¤Ĺà¤£ à¤¤
à¤¹ à¤¨à¤ķ
à¤Ł à¤²à¤¨
à¤¶ à¤¦
Ġà¤ªà¤° à¤ª
Ġà¤Ń à¤ı
Ġà¤Ķ à¤¸à¤¤
à¥¨ à¥§
Ġà¤²à¤ķ à¤¡
Ġà¤ıà¤¯ à¤°à¤µ
à¤¨ à¤Ń
à¤¯ à¤ľà¤¨à¤ķ
Ġà¤µ à¤Ĺ
Ġà¤¦ à¤¤
Ġà¤ªà¤° à¤¹
à¤ĸ à¤µ
Ġà¤ī à¤ĸ
à¤« à¤¤
à¤¤à¤° à¤°
à¤ªà¤Ł à¤¤
à¤ĳ à¤«
Ġà¤ªà¤¸à¤° à¤²
Ġà¤¨à¤µà¤¨ à¤µ
Ġà¤¸ à¤¹à¤²
Ġà¤¨ à¤ª
à¤· à¤ľà¤¨à¤ķ
à¤ľ à¤ĩà¤¸
à¤Ľ à¤²à¤ĸ
à¤¶ à¤¸
à¤ĸ à¤¥
Ġà¤ĸ à¤Ĺ
à¤°à¤ķ à¤²
à¤Ĩ à¤°à¤¸
Ġ) :
Ġà¤¬à¤ļ à¤ªà¤¨
à¤¹à¤°à¤£ à¤ķ
Ġà¤®à¤ľ à¤¦
Ġà¤īà¤ªà¤¨ à¤¯à¤¨
Ġ'- '
à¤ķ à¤«
à¤® à¤¸à¤®
à¤ı à¤¡
Ġà¤¶ à¤¬à¤°
Ġà¤īà¤ª à¤ĸ
à¤¯à¤¤ à¤®
Ġà¤®à¤¨ à¤¬
Ġà¤Ĩà¤¯ à¤ķà¤°
à¤ªà¤£ à¤¨
Ġà¤µà¤ļà¤¨ à¤¬à¤¦
Ġà¤ľà¤Ĺ à¤¦à¤®
Ġà¤ľ à¤²à¤¨
Ġà¤¨ à¤ķà¤²
à¥Ī "
Ġà¤² à¤¤
à¤¥ à¤¸
Ġà¤Ń à¤¨
à¤ĩ à¤Łà¤¨
à¥ĭà¤Ĥ "
à¤ł à¤¤
à¤Ĩà¤° à¤ı
à¥Ģà¤Ĥ )à¥¤
à¤ī à¤ª
Ġà¤¸ à¤¡
à¥Ģ /
à¤µ à¤¸à¤®
Ġà¤¹ à¤¥
Ġà¤¦ à¤¨
à¤¶ à¤ª
à¤¶ à¤¬
à¥ĩà¤Ĥ '
Ġà¤Ĺ à¤Ĺà¤¨
à¤ı à¤ľ
Ġà¤Ľà¤² à¤¯
à¤¼ à¥ĩà¤Ĥà¥¤
Ġà¤īà¤ª à¤ľ
à¥Īà¤Ĥ :
à¤ŀ à¤µà¤²
à¤ĸà¤² à¤¥
à¥ª à¥«
Ġà¤°à¤¹ à¤¯à¤µà¤²
à¤°à¤® à¤¨
Ġà¤¸à¤¹ à¤ľà¤¹
Ġ- -
à¥ĩ à¥ĩ
à¤ª à¤¹à¤°
Ġà¤¨ à¤ļ
à¤· à¤§à¤°
à¤Ľ à¤¬
Ġà¤Ń à¤Ĺà¤¤
à¤Ń à¤®
Ġà¤ħà¤¨ à¤°
à¤¯à¤ķ à¤¶
Ġà¤īà¤ł à¤¬
Ġà¤īà¤¨ à¤¸
Ġà¤Ĳ à¤Ĺà¤²
à¥© à¥§
à¥ª à¥¬
à¤¯à¤£ à¤ķ
à¥¦ à¥¦
Ġà¤¦à¤® à¤¨à¤ķ
à¥ĩ à¥¥à¥¥
Ġà¤® à¤¥
Ġà¤¨ à¤Ń
Ġà¤µ à¤ľà¤¹
Ġà¤ªà¤° à¤µ
à¤ŀ à¤¤
à¤ľà¤¨ à¤¨
à¤¨à¤² à¤¹
à¤¨ à¤µà¤¤
à¤Ĥ ,
Ġà¤ľ à¤¯à¤¨
à¤· à¤¬
à¤· à¤¸à¤Ń
à¤Ľ à¤²à¤ķ
Ġà¤ĸ à¤ľ
à¤Ī à¤Īà¤¯
Ġà¤ĩ à¤·
à¤Ĩ à¤ķ
Ġà¤¡ à¤ļ
à¤½ à¤½
à¥ª à¥Ń
à¥« à¥¬
à¤¨ à¤«
à¤¨ à¤°à¤ķ
à¤¤ à¤ķà¤¨
à¤² à¤®à¤¨
Ġà¤ħ à¤ĩ
Ġà¤ĩ à¤Łà¤²
à¥ī ,
à¤ī à¤¨à¤ķà¤°
à¤Łà¤° à¤²
à¥© à¥¨
Ġà¤ıà¤® à¤Ĩà¤°à¤Ł
à¤¾ ?
à¤² à¤²à¤¨
à¤ª à¤ª
Ġà¤¨ à¤¶
Ġà¤µ à¤¤
Ġà¤Ľ à¤¬
à¤¡ à¤°à¤¸à¤¨
Ġà¤Ĺ à¤®à¤¨
Ġà¤ªà¤° à¤¤
Ġà¤ªà¤° à¤¦
à¤ı à¤®à¤¸
à¤Ĩ à¤¦
à¤ĺ à¤¨à¤ķà¤°
à¤°à¤¦ à¤ķ
à¤¸à¤ķ à¤¤
à¥ª à¥¯
à¥« à¥®
Ġà¤Ĺà¤£ à¤ªà¤¤
à¤¹ à¤µ
à¤¹ à¤ª
Ġà¤® à¤ķà¤°
Ġà¤® à¤Ľà¤²
Ġà¤Ĩ à¤ĩà¤¤
à¤§ à¤ª
à¤£ à¤ª
Ġà¤ķà¤° à¤²à¤¥
Ġà¤Ń à¤Łà¤ķ
à¤ı à¤®à¤ľ
à¤« à¤¹à¤®
à¤Ĩ à¤īà¤Ł
à¤ħ à¤¦
Ġà¤¨à¤µ à¤µ
à¥ª à¥¦
à¤°à¤ļ à¤²à¤¨
Ġà¤ķ à¤£
à¤¨ à¤¤à¤®
Ġà¤ª à¤½
à¤ª à¤ķà¤°
Ġà¤µ à¤¯
Ġà¤² à¤¹à¤°
à¤ľ à¤Ł
à¤Ĩ à¤§
Ġà¤« à¤Ĺ
Ġà¤ĺ à¤¬à¤°
à¤¦à¤° à¤²
à¤·à¤£ à¤¹
Ġà¤ħà¤µ à¤ľ
Ġà¤ķà¤² à¤®
à¥ª à¥§
Ġà¤¸à¤®à¤ķ à¤ķ
à¤¨ à¤Ĺà¤¤
à¤¤ à¤¨à¤ķ
Ġà¤¸ à¤ľà¤²
Ġà¤ª à¤Łà¤¨
à¥ĭ à¤ģ
à¤· à¤¹
Ġà¤¶ à¤¯à¤¨
Ġà¤¶ à¤Ļ
Ġà¤ļ à¤Ł
à¤¤à¤° à¤¹
à¤¤à¤µ à¤®
Ġà¤ľà¤¨ à¤¸
à¥« à¥Ń
Ġà¤¤à¤¦à¤¨ à¤¨
à¤® à¤ł
à¤¸ à¤¨à¤ķ
Ġà¤ľ à¤²à¤ķ
à¤ı à¤ıà¤²
à¤ıà¤² à¤ª
Ġà¤ħà¤¤ à¤ıà¤µ
à¤¸à¤² à¤°
Ġà¤Ĺà¤²à¤¤ à¤«à¤¹à¤®
Ġà¤®à¤¤ à¤Ń
Ġà¤ľà¤Ĺ à¤ľ
Ġà¤Ĺà¤£ à¤°
Ġà¤¨à¤Ĺ à¤°à¤ķ
à¥ĭ à¥¥
à¤Ľ à¤°
Ġà¤¤ à¤µ
à¤ķà¤° à¤ľ
Ġà¤¶ à¤¶
Ġà¤ıà¤ķ à¤ľ
à¤¼ à¥ĩ,
Ġà¤§ à¤°à¤£
à¤Ī à¤²
Ġà¤¸à¤Ń à¤¸
à¤ī à¤¡
Ġà¤Ĩà¤ļ à¤®à¤¨
à¤ĩà¤¨ à¤¬à¤°
à¤¸à¤² à¤®
Ġà¤ıà¤¸à¤ı à¤ıà¤¸à¤Ĩà¤°
à¥į :
à¤¿ ),
Ġà¤® à¤°à¤²
Ġà¤¦ à¤¹à¤²
Ġà¤Ľ à¤ª
à¤ļ à¤ķà¤°
à¤¡ à¤µà¤¤
à¥ĩà¤ģ à¥¤
à¤Ĩ à¤µà¤ľ
à¤½ à¤¹
Ġà¤ĳ à¤ķ
Ġà¤ıà¤¸ à¤ĵà¤ª
Ġà¤Ŀ à¤Ĺà¤¡
Ġà¤®à¤° à¤¬
à¥ª à¥®
Ġà¤ľà¤ĸà¤¨ à¤¹
Ġà¤Ĩà¤ľ à¤ķà¤²
à¤ıà¤ķ à¤Ł
Ġà¤Ĩà¤ĵ à¤¤
à¤ĭ à¤£
à¤¾ à¤ĥà¥¤
Ġà¤ķ à¤¶
à¤¤ à¤¶
Ġà¤¸ à¤Ĺà¤°
à¤Ĥ à¥¥
Ġà¤ª à¤Ļ
Ġà¤Ĩ à¤¡
Ġà¤Ĩ à¤ıà¤²
Ġà¤¬ à¤Ĺà¤²
à¤Ĺ à¤ļ
à¤Ĺ à¤°à¤£
à¤ļ à¤¦
à¤¡ à¤¤
Ġà¤Ī à¤ª
Ġà¤ħà¤§ à¤°
Ġà¤ĩ à¤ķà¤Ł
à¤ıà¤² à¤¨
Ġà¤Ł à¤ķà¤°
à¤µà¤¨ à¤¸
à¤¶à¤¨ à¤°
à¤ĵ à¤²à¤¨
à¥ª à¥¨
Ġà¤ıà¤® à¤ıà¤«
Ġà¥¨ à¥ª
Ġà¤ķà¤µ à¤ļ
- ,
à¤° à¤ķà¤°
Ġà¤ħ à¤ķà¤°
Ġà¤¨ à¤Ł
Ġà¤¹ à¤°à¤¦
à¤ľ à¤¸à¤¨
Ġà¤¤ à¤®à¤¸
Ġà¤¬à¤¨ à¤¨
Ġà¤ĵà¤ķà¤° à¤¹
Ġà¤°à¤¹à¤² à¤¥
à¤½ à¤¨
Ġà¤ħà¤µ à¤Ĺ
Ġà¤¬à¤¢ à¤²
à¤ıà¤¨ à¤Ł
Ġà¤¢ à¤ķ
à¤° à¤ªà¤°
à¤° à¤ķà¤°à¤£
à¤ķ à¤Łà¤¤
Ġà¤¨ à¤ı
à¤Ł à¤¦
Ġà¤Ń à¤¦
à¤Ĩ à¤ª
Ġà¤ķà¤ĩà¤² à¤ĸ
Ġà¤¸à¤Ń à¤®
Ġà¤ĺ à¤°à¤µ
Ġà¤¬à¤¹ à¤¯
à¤ī à¤ªà¤¯
Ġà¤ªà¤ķ à¤µ
à¤°à¤¹ à¤ķ
à¤°à¤¶ à¤¸
Ġ, -,
à¤·à¤ķ à¤ķ
à¤¨à¤¸ à¤Ń
Ġà¤ľà¤² à¤¸
à¥¬ à¥Ń
à¤¿' à¥¤
à¤¾ )à¥¤
à¤¿ )à¥¤
à¤¹ à¤¹
à¤¹ à¤°à¤ķ
Ġà¤ľ à¤¯à¤®
Ġà¤Ĩ à¤ĩà¤¸
à¤§ à¤¯
Ġà¤° à¤Ļ
Ġà¤² à¤¬
à¤Ľ à¤µ
à¤ĸ à¤¯à¤µà¤²
Ġà¤Ń à¤¤
à¤ĩ à¤¶
à¤ªà¤¨ à¤ķ
Ġà¤ĩ à¤¦à¤®
à¤°à¤¸ à¤®
à¤ĺ à¤²
à¤ŀ à¤ķ
Ġà¤²à¤Ĺ à¤¨
à¤®à¤ķ à¤¥
à¤°à¤¹ à¤®
Ġà¤Ĩà¤¬ à¤¥
Ġà¤Ĩà¤ĩ à¤Ĺ
Ġà¤ıà¤µ à¤®
Ġà¤· à¤·
à¤° à¤Ł
à¤¿ âĢĻ
Ġà¤¸ à¤¶à¤ķ
Ġà¤Ĩ à¤¯à¤¤
à¤Ĺ à¤Ń
à¤· à¤µ
à¤· à¤¸à¤ķ
à¤Ń à¤¸
Ġà¤ļ à¤®
Ġà¤ħà¤¨ à¤¸
à¤µà¤¨ à¤¶
Ġà¤¤à¤ķ à¤²
Ġà¤īà¤ł à¤µà¤²
Ġà¤ĺà¤° à¤¬
Ġà¤ªà¤°à¤® à¤ª
à¥« à¥§
à¥¬ à¥¦
à¤ıà¤® à¤ı
Ġà¤¬à¤¦à¤² à¤²
à¤Ńà¤Ĺ à¤µ
Ġà¤ľ à¤ĩà¤¤
à¤¦ à¤¸à¤Ń
Ġà¤¹ à¤µà¤¨
à¤Ł à¤°à¤¸
à¤¥ à¤¹
à¤Ľ à¤¯
à¤¡ à¤ĵ
Ġà¤¥ à¤°
à¤¸à¤® à¤Ŀ
Ġà¤ıà¤¨ à¤ľ
à¥ª à¥©
Ġà¤ľà¤² à¤§
à¥« à¥¨
à¥« à¥«
à¥¬ à¥®
à¤°à¤ļ à¤£
Ġà¤ıà¤¸à¤ı à¤ıà¤ª
à¤Ķ à¤¦
à¤² à¤Ŀ
à¤Ĺ à¤²à¤¨
à¤¬ à¤Ī
à¤§ à¤¸
Ġà¤Ľ à¤¯
à¤ĸ à¤¹
à¤ĸ à¤£
Ġà¤Ń à¤µà¤¸
Ġà¤§ à¤¨à¤°
Ġà¤ħà¤¨ à¤®
à¤°à¤£ à¤¤
à¤Ĩ à¤¹
à¤ĵ à¤°
Ġà¤Ĭ à¤¨
Ġà¤Ĩà¤¨ à¤¬
à¥ª à¥ª
à¥« à¥©
Ġà¤ıà¤® à¤Ĩà¤°
Ġà¥¨ à¥§
Ġà¤¸à¤ªà¤¨ à¤¹
Ġà¤¨à¤ľ à¤°à¤¬
Ġà¤¨ à¤µà¤ķ
Ġà¤¬ à¤°à¤ķ
à¤Ł à¤Ĺ
Ġà¤ı à¤·
Ġà¤Ĺ à¤ļ
Ġà¤Ĺ à¤¹à¤°
Ġà¤Ľà¤² à¤ķ
Ġà¤Ī à¤¯à¤°
Ġà¤ħà¤¨ à¤Ĺ
à¤Ĩ à¤®
Ġà¤Ĩà¤° à¤Ĩà¤°à¤Ł
à¥Ģà¤Ĥ ;
à¤¦à¤¨ à¤¶
Ġà¤ł à¤ķ
âĢ Ķ
à¤ıà¤ļ à¤¸
à¥« à¥ª
à¥« à¥¯
à¤¨ à¤¸à¤°
à¤¨ à¤¯à¤¨
à¤¨ à¤¯à¤µà¤²
à¤² à¤¡
à¤² à¤«
Ġà¤® à¤Ĺà¤¨
à¤¦ à¤ľ
Ġà¤¦ à¤¯à¤µ
Ġà¤° à¤¯
à¤¥ à¤¶
à¤ļ à¤¡
Ġà¤ĸ à¤¨à¤¨
à¤¹à¤² à¤ķ
Ġà¤īà¤ª à¤¸à¤®
Ġà¤¬à¤¹ à¤°
à¤Łà¤° à¤µà¤°
à¤¬à¤° à¤«
à¤ħ à¤ªà¤°
à¤¯à¤¸ à¤Ń
Ġà¤ĭ à¤Ĺ
à¤ĳ à¤ªà¤°
Ġà¤ķ à¤²à¤ķ
à¤¤ à¤ľà¤¨
à¤¤ à¤¶à¤¤
à¤¯ à¤²à¤ķ
Ġà¤¸ à¤¯
Ġà¤ħ à¤°à¤£
Ġà¤¨ à¤ĸ
à¤Ĺ à¤°à¤ķ
à¤ģ )
à¤Ľ à¤¡
à¤ļ à¤®à¤¨
à¤ĸ à¤ķà¤°
à¤ĩ à¤ªà¤°à¤ķ
Ġà¤Ī à¤¬
Ġà¤ĸ à¤Ł
à¤¾à¤ģ à¥¤
à¤µà¤° à¤ª
à¤ħ à¤¬
Ġà¤ľà¤¨ à¤¬
Ġà¤ªà¤¢ à¤²
Ġà¤ªà¤¢ à¤¬
Ġà¤ķà¤Ī à¤²à¤ķ
Ġà¤°à¤ķ à¤®
Ġà¤Ńà¤°à¤¤ à¤ķ
Ġà¤· à¤¡
à¤° à¤Ĺà¤°
à¤° à¤ĸà¤°
à¤¨ à¤ľà¤¨à¤ķ
Ġà¤¨ à¤¸
Ġà¤¨ à¤®à¤¨
Ġà¤¹ à¤ı
Ġà¤¹ à¤¯à¤¤
à¤Ĺ à¤¢
Ġà¤µ à¤¸à¤¨
Ġà¤¦ à¤ĩà¤²
à¤¶ à¤ķà¤¨
à¤¡ à¤ľ
Ġà¤Ĺ à¤°à¤®
Ġà¤Ĺ à¤°à¤ľ
Ġà¤ªà¤° à¤ŀ
à¤Ń à¤²
à¤ĩ à¤¸à¤²
Ġà¤ĸ à¤¨
à¤ľà¤¨ à¤®
à¥Ģ) (
Ġà¤ıà¤¡ à¤µà¤°
Ġà¤ªà¤µà¤¨ à¤ª
Ġà¤¦à¤°à¤¬ à¤ľ
Ġà¤ıà¤ı à¤Ĩà¤°
Ġà¤ĵà¤µà¤° à¤Łà¤¨
Ġà¤¹à¤°à¤¦ à¤®
) (
à¤¯ à¤°à¤¤
à¤® à¤ªà¤°
à¤¸ à¤ķà¤°
à¤¸ à¤µà¤ķ
à¤Ĺ à¤°à¤®
à¤Ĺ à¤£à¤ķ
à¥Ĥ à¥¥
Ġà¤¯ à¤ķ
Ġà¤ļ à¤°à¤®
à¤¿à¥¤ âĢĻ
à¤¼ à¥ģ
Ġà¤§ à¤ķ
Ġà¤Ł à¤Ĺ
à¤¤à¤° à¤«
Ġà¤¥ à¤ķ
à¤Łà¤° à¤Ł
Ġà¤¤à¤°à¤¹ à¤¤à¤°à¤¹
à¤¯à¤° à¤«
à¤ıà¤¸ à¤ľ
Ġà¤ıà¤ıà¤® à¤Ĩà¤°à¤ıà¤¸
à¤ıà¤«à¤ıà¤® à¤Īà¤¯
à¤¾ à¥ħ
à¤ķ à¤£
à¤¯ à¤¡à¤¨
à¤¹ à¤£
Ġà¤ª à¤²à¤ķ
Ġà¤ª à¤Łà¤ķ
à¤µ à¤°à¤®
Ġà¤ħ à¤ĺ
à¥Ī )
Ġà¤ı à¤¤à¤¨
à¤ľ à¤ĸà¤¨
Ġà¤¶ à¤¸
Ġà¤ĵ à¤¸
à¤¼ à¤Ĥ
Ġà¤¸à¤¬ à¤¹
Ġà¤ĳ à¤¡
Ġà¤¹à¤° à¤ĸ
Ġà¤Ĳ à¤¨
Ġà¤Ńà¤° à¤ª
Ġà¤ħà¤Ĺ à¤¹à¤¨
Ġà¤®à¤¤ à¤¦
à¥¬ à¥§
à¥Ń à¥¦
à¤ıà¤® à¤Ĩà¤Ī
Ġà¤°à¤£ à¤§
) )
à¤° à¤§à¤°
Ġà¤ķ à¤Łà¤ķ
à¤¤ à¤¦à¤¨
à¤² à¤¶
à¤¯ à¤¸à¤¨
à¤® à¤ķà¤°à¤£
à¥ģ à¥¥
Ġà¤¨ à¤ķà¤¦
Ġà¤¬ à¤°à¤¹
à¤Ł à¤Ń
Ġà¤ı à¤®à¤ľ
à¤· à¤¯à¤®
Ġà¤° à¤¨
Ġà¤² à¤µ
à¤ľ à¤¯à¤ķ
à¤ľ à¤°à¤¨
à¤ļ à¤¹
Ġà¤ī à¤¸à¤®
à¤Ī à¤ª
à¤ł à¤°
Ġà¤¡ à¤¨
à¤°à¤® à¤°
à¤°à¤² à¤¹
à¤ıà¤ļ à¤¡
à¥¬ à¥¯
Ġà¤ķà¤®à¤² à¤ķ
Ġà¤¨à¤Ĺà¤° à¤ª
Ġ(- )
Ġà¤ļà¤²à¤¯ à¤µà¤²
à¤ķ à¤¥à¤¨
à¤® à¤°à¤¸
à¤¸ à¤§
à¤¸ à¤Ļ
Ġà¤¨ à¤Łà¤°
Ġà¤Ĩ à¤²à¤¸
Ġà¤¬ à¤¬
Ġà¤¦ à¤®à¤¨
à¤· à¤¯à¤µà¤¸
Ġà¤Ľ à¤ķ
Ġà¤ķà¤° à¤²à¤ĸ
Ġà¤¤ à¤¡
Ġà¤¯ à¤¯
à¤°à¤¤ à¤µà¤°
Ġà¤ĩ à¤¸à¤¨
à¤²à¤ķ à¤¯
à¤µà¤¤ à¤¨
Ġà¤¹à¤° à¤¬
Ġà¤Ŀ à¤Ł
Ġà¤ĺà¤° à¤ĺà¤°
Ġà¤ħà¤¬ à¤¸
à¤Łà¤ķ à¤ķ
Ġà¤Ĩà¤Ī à¤¸
à¥¬ à¥ª
Ġà¥¨ à¥¨
Ġà¥¨ à¥©
à¥ĩ) ,
Ġ(" ")
Ġà¤ĩà¤¨à¤ķ à¤®
Ġ/ )
Ĺ ı
à¥ĩ .
à¤¯ à¤ľà¤¨
à¥Ģ âĢĻ
Ġà¤ħ à¤¹à¤²
Ġà¤ħ à¤¯à¤¬
Ġà¤² à¤Ľ
à¤¶ à¤¹
Ġà¤ķà¤° à¤£
à¤ĩ à¤µà¤°
Ġà¤ĵ à¤ª
Ġà¤ļ à¤ª
à¤°à¤£ à¤®
Ġà¤Ķ à¤°à¤¤
à¤¨à¤° à¤°
à¤¨à¤µ à¤ķ
Ġà¤ıà¤¨ à¤Īà¤¸
à¤ıà¤ļ à¤ª
Ġà¤Ĳ à¤ķ
Ġà¤¨à¤µ à¤¦
Ġà¤ľà¤² à¤ª
) )à¥¤
à¤° à¤¨à¤ķ
à¤® à¤«à¤²
Ġà¤ħ à¤ľà¤¨
Ġà¤ľ à¤Ĺà¤¨
Ġà¤ľ à¤¯à¤¬
à¥Ī à¥Ī
Ġà¤ı à¤®à¤ķ
Ġà¤ı à¤®à¤¸
à¤£ à¤¹
Ġà¤° à¤ļà¤²
à¤ļ à¤Ĺ
Ġà¤Ń à¤µà¤¤
à¤¼ à¥Į
à¤°à¤ķ à¤¤
à¤ĺ à¤®
à¤Ĺà¤¤ à¤¤
Ġà¤ķà¤¹à¤² à¤ķà¤¨
Ġà¤ķà¤¯à¤² à¤ĸ
Ġà¤¹à¤° à¤¯à¤µà¤²
à¤ªà¤ķ à¤¤
à¤¹à¤¨ à¤¤
Ġà¤ķà¤¥ à¤®à¤ª
Ġà¤ĭ à¤£à¤ķ
à¥¬ à¥«
Ġà¤¤à¤¨ à¤¯
Ġà¤¦à¤¶à¤°à¤¥ à¤ķ
Ġà¤Ľà¤ł à¤®
Ġâ Ĺı
à¤° à¤¬à¤°
à¤¨ à¤ªà¤°
à¤ķ à¤¤à¤°
à¤² à¤¹à¤°
Ġà¤ħ à¤®à¤²
Ġà¤Ĩ à¤ı
à¤Ĺ à¤«à¤²
Ġà¤µ à¤°à¤£
à¤¬ à¤½
à¤§ à¤ķà¤°
Ġà¤ı à¤²à¤¹
à¤£ à¤¦
Ġà¤² à¤Ł
Ġà¤ī à¤¬
Ġà¤ĵ à¤¤à¤¨
Ġà¤ļ à¤®à¤¤
Ġà¤ħà¤¨ à¤¬
Ġà¤ĩ à¤¤à¤°
Ġà¤ĩ à¤¨à¤²
à¤Ĩ à¤¶
Ġà¤« à¤Ł
à¤¤à¤° à¤®
à¤£à¤¯ à¤¨
à¤µà¤² à¤®
Ġà¤ĺ à¤°à¤¹
à¤ľà¤¨ à¤¶
à¤ī à¤¨à¤ķ
Ġà¤ľà¤¨ à¤ľ
à¤ıà¤¸ à¤¡
Ġà¤Ĭ à¤ķà¤°
à¥Ģ) ,
à¤ļà¤² à¤¥
Ġà¤ıà¤® à¤µ
à¥¬ à¥©
Ġà¤īà¤® à¤¡
à¤¸à¤¹ à¤¯
Ġà¤¤à¤°à¤ķ à¤¸
Ġà¤ıà¤®à¤ıà¤« à¤ıà¤²à¤ª
" ),
à¤¨ à¤¸à¤®
à¤¤ à¤ĸà¤¨
Ġà¤ħ à¤¦à¤°
Ġà¤ľ à¤Ĺà¤²
Ġà¤µ à¤Ł
Ġà¤µ à¤¨à¤¸
à¤§ à¤¬
à¤· à¤Ń
Ġà¤² à¤¯à¤²
à¤ľ à¤ķà¤°
à¤ĩ à¤¹
Ġà¤ī à¤ķà¤¸
à¤ķà¤° à¤ķ
Ġà¤¸à¤® à¤§
Ġà¤§ à¤¨à¤ķ
à¤Ĩ à¤ªà¤ķ
Ġà¤¸à¤ķ à¤²à¤¹
à¤¯à¤® à¤¯
à¤ªà¤° à¤ıà¤¨
Ġà¤ķà¤¯à¤² à¤¸
Ġà¤ħà¤¹ à¤®
Ġà¤Ĩà¤¯ à¤°à¤¨
à¤°à¤¹ à¤µ
à¤Łà¤° à¤«
Ġà¤ľà¤¹ à¤°
Ġà¤¬à¤¢ à¤¬
à¥Ĥà¤ģ à¥¤
Ġà¤Ĩà¤¨ à¤¯
à¤¡à¤² à¤Łà¤¨
à¥¬ à¥¨
à¥Ń à¥§
à¥Ń à¥®
à¤ĩà¤¬ à¤¹
à¤¸à¤¬ à¤¸
Ġà¤ķ à¤Łà¤²
Ġà¤¸ à¤¤à¤°
à¤¹ à¤¬à¤°
à¤® à¤®à¤°à¤£
à¥ĭ à¤ĥ
Ġà¤ħ à¤ĵà¤¤
à¤ª à¤²à¤¬
Ġà¤Ĩ à¤¸à¤®
Ġà¤¬ à¤Łà¤°à¤µà¤°
à¥Ĥ "
à¥Ĥ à¤ĥ
Ġà¤ı à¤£
Ġà¤ı à¤ıà¤«
à¤£ à¤¤à¤¯
Ġà¤² à¤ª
Ġà¤Ľ à¤Ł
à¤ļ à¤Ń
à¤ĩ à¤Ĺ
à¤ķà¤° à¤ª
à¤¼ à¥ī
Ġà¤ħà¤¨ à¤¦à¤°
à¤¹à¤² à¤¨
à¤ıà¤² à¤ľ
à¤ıà¤² à¤¡
à¤ł à¤²
Ġà¤Ķ à¤¤
Ġà¤¥ à¤²
à¤°à¤¹ à¤ķà¤°
Ġà¤ªà¤¤ à¤¨
à¤Ĩà¤Ī à¤Ł
à¤¯à¤¬ à¤²
Ġà¤«à¤² à¤¦
à¤°à¤Ĺ à¤Ł
Ġà¤ķ à¤Ľ
à¤¤ à¤¸à¤Ń
Ġà¤¸ à¤°à¤¯
Ġà¤¬ à¤ķà¤²
à¤Ł à¤Ľ
Ġà¤ı à¤¡à¤¨
Ġà¤² à¤Łà¤ķ
Ġà¤ĵ à¤¢
à¤¼ à¤¿à¤Ĥ
à¤¯à¤ķ à¤¨
Ġà¤¸à¤ķ à¤¨
à¤ĩà¤¤ à¤¯
à¤ŀ à¤ª
Ġà¤ıà¤ļ à¤ķ
Ġà¤ıà¤¸ à¤¡
Ġà¤ıà¤¨ à¤¸
Ġà¤ıà¤¨ à¤ı
à¤Łà¤² à¤®
à¤¡à¤² à¤°
à¥Ń à¥ª
à¥® à¥§
Ġà¥¨ à¥¬
à¤° à¤Ŀ
Ġà¤ª à¤¤à¤µ
Ġà¤® à¤ķà¤¸
Ġà¤¬ à¤®
Ġà¤µ à¤ļ
à¤¬ à¤ļ
à¤Ľ à¤²à¤¥
Ġà¤Ĺ à¤¦à¤¹
Ġà¤Ń à¤°à¤¨
Ġà¤ĵ à¤ł
Ġà¤ıà¤ķ à¤¸
Ġà¤¹à¤® à¤¸à¤¬
à¤ĺ à¤µ
à¥§ à¥§à¥¨
Ġà¤Ĩà¤¬ à¤ķ
à¤ıà¤¸ à¤Ł
Ġà¤¸à¤° à¤²à¤¤
Ġà¤Ŀ à¤°à¤¨
à¤®à¤° à¤¨
à¤Łà¤² à¤°
Ġà¤¬à¤° à¤ļ
à¤ĩà¤Ł à¤ķ
à¥¬ à¥¬
Ġà¥¨ à¥«
Ġà¤®à¤ķà¤¸ à¤¦
à¤¿ ]
à¤¨ à¤°à¤Ń
à¤ķ à¤ªà¤°
à¤² à¤ļà¤¸
à¤¯ à¤²à¤¨
à¥ĭ "
à¤¸ à¤°à¤¸
Ġà¤ľ à¤°à¤²
à¤ª à¤Ń
à¤ª à¤¹à¤²
à¤¦ à¤§
à¤¦ à¤ľà¤¨à¤ķ
Ġà¤Ĩ à¤¯à¤ķ
Ġà¤Ĩ à¤ĩà¤Ł
à¤· à¤¹à¤°
Ġà¤° à¤ľà¤¨
à¤ģ "
à¤Ľ à¤²à¤¹
à¤¡ à¤°à¤¬
à¤ĸ à¤¡
Ġà¤Ī à¤¡à¤¬
Ġà¤¡ à¤®à¤°
Ġà¤ĺ à¤Łà¤²
à¤ī à¤ľ
à¥Ģ) )
à¥Ģ) :
à¤µà¤ľ à¤ķ
à¥Ń à¥¨
à¥Ń à¥©
Ġà¤¬à¤¦ à¤²à¤¤
à¤¯ à¤°à¤ķ
à¤Ĥ .
à¤¹ à¤¸à¤Ń
Ġà¤Ĩ à¤ĩà¤¨
Ġà¤Ĩ à¤¡à¤®
Ġà¤µ à¤«
à¤ľ à¤Ĺà¤°
à¥ĩà¤Ĥ ),
Ġà¤ªà¤° à¤«
à¤ı à¤¦
à¤ı à¤¨à¤¸
à¤ĩ à¤ı
Ġà¤ī à¤Ń
Ġà¤ļ à¤ķà¤µ
à¤Ī à¤Ĩà¤°
à¥Į ,
à¤ıà¤² à¤ķ
Ġà¤Ĩà¤µ à¤§
à¤²à¤ķ à¤ķ
Ġà¤¸à¤¹ à¤ľà¤¤
à¤·à¤£ à¤®
à¤Łà¤° à¤¡
Ġà¤ħà¤µ à¤¯à¤µ
à¤ıà¤¸ à¤ı
à¤¤à¤¨ à¤¶
Ġà¤Ńà¤Ĺ à¤µà¤¨
Ġà¤ıà¤¸ à¤Ĩà¤°
Ġà¤ħà¤Ĺ à¤®
Ġà¤ıà¤² à¤Ĩà¤°
à¥Ń à¥¯
à¥® à¥¦
à¤Ķ à¤°
à¤° à¤µà¤²
à¤² à¤«à¤²
à¤® à¤ķà¤°
Ġà¤ª à¤ĸ
Ġà¤ħ à¤£
Ġà¤Ĩ à¤°à¤£
à¤Ĺ à¤£à¤¨
Ġà¤¦ à¤°à¤µ
Ġà¤¦ à¤¹à¤¨
à¤· à¤ķà¤¨
Ġà¤Ń à¤°à¤¬
à¤ı à¤¡à¤®
à¤ĩ à¤ĸ
à¤ĩ à¤ķà¤²
à¤ĩ à¤®à¤¨
Ġà¤ī à¤µ
Ġà¤¶ à¤¯
à¤Ī à¤Ľ
Ġà¤Ĩà¤µ à¤°à¤£
Ġà¤Ĩà¤° à¤ľ
Ġà¤¸à¤Ń à¤¹à¤ķ
Ġà¤®à¤¨ à¤Ĺà¤¢
Ġà¤ħà¤µ à¤¤à¤°
Ġà¤ħà¤Ń à¤¯
Ġà¤ıà¤¨ à¤¬
Ġà¤¸à¤¤ à¤¹
ĠâĢ Ķ
à¤ªà¤Ł à¤¬
à¥Ń à¥«
à¥Ń à¥¬
à¥Ń à¥Ń
à¥® à¥¨
Ġà¤ľà¤¨à¤ķ à¤¸
Ġà¤¦à¤¶ à¤Ń
Ġà¤¶à¤ªà¤¥ à¤ªà¤¤
Ġà¤Ĩà¤ł à¤®
-- -
Ġà¤ĵà¤µ à¤°à¤¸
Ġ ?
à¤µ à¤Ĺà¤£
à¤¸ à¤²à¤¯
à¤¦ à¤°à¤¸
à¥Ī ?
Ġà¤¦ à¤¦
à¤¥ à¤ªà¤°
à¤ľ à¤¬à¤ķ
à¤¡ à¤«
à¤¼ à¥Ģà¥¤
Ġà¤§ à¤¡
Ġà¤¹à¤® à¤ħà¤¹
Ġà¤ĩ à¤¥
Ġà¤ħà¤ª à¤ķ
à¤¸à¤° à¤²
à¤µà¤¤ à¤ķ
Ġà¤ħà¤µ à¤¹à¤Ł
à¤®à¤¨ à¤µà¤®
Ġà¤¯à¤¹ à¤¨
à¤Ĺà¤² à¤®à¤¯
Ġà¤Ĩà¤Ĺ à¤®
à¤ıà¤¸ à¤ª
à¤¨à¤° à¤Łà¤¨
Ġà¤Ĩà¤¶ à¤¯
Ġà¤¨à¤µ à¤Ĺ
Ġà¤ıà¤® à¤¡à¤¬
Ġà¤¬à¤¸ à¤¹
à¤° à¤µà¤¤
à¤² à¤ªà¤¤
à¤¯ à¤ļà¤ķ
Ġà¤¸ à¤¶à¤°
à¤® à¤µà¤¶
Ġà¤ª à¤¯
à¥ĭ '
à¥ĭ :
Ġà¤® à¤Ł
Ġà¤® à¤°à¤¤
Ġà¤® à¤Ĺà¤¹
Ġà¤¨ à¤°à¤¨
Ġà¤Ĩ à¤ĩà¤µ
à¥Ī '
à¥Ī ":
à¤Ĺ à¤µà¤¶
à¤£ à¤§
à¤£ à¤®à¤¯
Ġà¤² à¤ªà¤Ł
Ġà¤ķà¤° à¤ı
à¤¡ à¤¸à¤°
Ġà¤ĵ à¤ķà¤¬
Ġà¤Ī à¤¨
Ġà¤ıà¤ķ à¤¤à¤°à¤«
Ġà¤ĸ à¤¬
Ġà¤īà¤ª à¤ª
Ġà¤ĺ à¤£
Ġà¤¸à¤¹ à¤°à¤¸
à¤ī à¤®
à¤°à¤¹ à¤¸
Ġà¤Ĩà¤¬ à¤¯à¤µà¤²
Ġà¤§à¤° à¤¬
à¤¯à¤¸ à¤®
à¤°à¤² à¤¯à¤ķ
à¥Ĥà¤ģ ,
Ġà¤Ĳ à¤Ľ
Ġà¤ªà¤ł à¤¬
à¤¾à¤ĥ à¥¥
Ġà¤ħà¤ĸ à¤£
à¤° à¤Ĺà¤£
à¥ĩ ')
à¤¯ à¤¹à¤®
à¤¹ à¤¥
à¤® à¤Ł
à¥ĭ )
Ġà¤ħ à¤µà¤¨
à¥ģ à¥ģ
Ġà¤¬ à¤¹à¤²
à¤Ĺ à¤®à¤¤
à¤£ à¤¶
à¤£ à¤¸à¤®
Ġà¤° à¤Ł
à¤Ľ à¤ª
à¤Ń à¤¤
à¤ĩ à¤¨à¤²
Ġà¤Ī à¤Łà¤¨
à¤¼ à¥Ģ,
Ġà¤ĸ à¤£
Ġà¤« à¤°à¤ķ
Ġà¤°à¤¹ à¤ı
à¤Ĩà¤° à¤Ĩà¤Ī
à¤°à¤® à¤¹
à¤µà¤° à¤¨
Ġà¤ķà¤¹ à¤¬à¤¨
à¤¯à¤¤ à¤ķ
Ġà¤ıà¤« à¤ıà¤«
Ġà¤²à¤Ĺ à¤²à¤¹
Ġà¤ĳà¤« à¤¸
à¤¨à¤¦ à¤¯
à¤ıà¤« à¤ıà¤Ł
à¥® à¥©
à¤¾" à¥¤
à¥§à¥¦ à¥ª
Ġà¤ıà¤¡ à¤µ
Ġà¤ķà¤ĩ à¤ıà¤ķ
Ġà¤ķà¤²à¤ķ à¤¤
à¤° à¤¹à¤²
à¤° à¤ŀ
à¥ĩ à¥ħ
à¤¤ à¤µà¤¤
à¤¹ à¤µà¤°
à¤¹ à¤ķà¤¨
à¤® à¤ĺ
à¤® à¤®à¤¯
à¤µ à¤¸à¤°
à¤µ à¤¸à¤ķ
Ġà¤® à¤Ľà¤°
Ġà¤ľ à¤ĩ
Ġà¤¬ à¤¸à¤¨
à¤Ĺ à¤²à¤¤
Ġà¤ı à¤¥
Ġà¤° à¤¬
Ġà¤² à¤²à¤¨
à¤¥ à¤ķà¤¤
à¤¡ à¤°à¤ľ
Ġà¤ªà¤° à¤¬
Ġà¤ī à¤Ńà¤°
Ġà¤ī à¤Ńà¤°à¤¤
Ġà¤ĵ à¤Ŀ
Ġà¤ĵ à¤¨à¤°
Ġà¤ĩ à¤¨à¤°
à¤ıà¤² à¤ı
Ġà¤¸à¤ķ à¤ĩà¤¤
Ġà¤« à¤¸à¤²
Ġà¤Ĩà¤° à¤¡
à¤ĺ à¤Ł
Ġà¤ķà¤¹ à¤ĩà¤¤
Ġà¤ĳ à¤¨à¤²
à¤²à¤ķ à¤®
à¤®à¤ķ à¤¤
à¤°à¤µ à¤ķ
à¤ıà¤¸ à¤ıà¤¸à¤Ĩà¤°
Ġà¤ĩà¤¨ à¤¸
Ġà¤ħà¤¬ à¤²
à¤Ĺà¤¨ à¤®
à¤ªà¤£ à¤ķ
Ġà¤Ĩà¤ĩ à¤ı
Ġà¤Ĩà¤Ī à¤ıà¤ļà¤¡
à¤µà¤°à¤£ à¤ķ
à¥§à¥¦ à¥¦
à¥Ģ" )
à¤¿' ,
Ġà¤°à¤£ à¤Ń
Ġà¤īà¤¤à¤° à¤²
Ġ$, ,
Ġà¤¬à¤°à¤¤ à¤¨
Ġà¤īà¤Ń à¤°à¤²
à¤¨ à¤¡
à¤® à¤¸à¤¨
à¤µ à¤°à¤¤
Ġà¤® à¤¡
à¤¦ à¤¯à¤®
Ġà¤¬ à¤ľà¤¨
Ġà¤¬ à¤¦à¤®
à¤Ĺ à¤Ł
Ġà¤µ à¤¯à¤¸
Ġà¤¦ à¤¯à¤ķà¤¯
Ġà¤° à¤£à¤¨
à¤ļ à¤¤à¤®
à¤ĸ à¤¨à¤ķ
à¤ı à¤Ĩà¤°
à¤Ń à¤Ł
à¤ĩ à¤ļ
Ġà¤ĵ à¤Ī
Ġà¤¸à¤® à¤µà¤°
à¤ªà¤¨ à¤®
à¤ªà¤¨ à¤ĸ
Ġà¤ĸ à¤¦
Ġà¤¬à¤¨ à¤µ
Ġà¤¸à¤ķ à¤¥
à¤½ à¤Ń
Ġà¤īà¤ª à¤¸à¤°
à¤ĵ à¤µ
Ġà¤ħà¤° à¤µ
Ġà¤¸à¤®à¤¯ à¤¸à¤®à¤¯
à¥§ à¥§à¥©
à¥§ à¥§à¥ª
Ġà¤ľà¤¹ à¤®
Ġà¤¹à¤° à¤²
Ġ, ,
Ġà¤ıà¤ķà¤Ł à¤ķ
Ġà¤§à¤° à¤²
Ġà¤ıà¤¸ à¤ª
Ġà¤¬à¤² à¤¬
Ġà¤Ĳ à¤²
à¤ıà¤¨ à¤ľ
à¥® à¥«
à¥¯ à¥¦
Ġà¤¸à¤ľ à¤Ĺ
à¥§à¥¦ à¥©
à¥§à¥¨ à¥¨
') ;
à¤° à¤¨à¤²
à¤° à¤§à¤¨
à¤¨ à¤ļà¤°
à¤¤ à¤Ń
à¤² à¤¯à¤®
à¤¹ à¤µà¤¶
Ġà¤® à¤Ĺà¤°
Ġà¤® à¤Ļ
à¤ª à¤¢
à¤Ĺ à¤§
à¤¬ à¤Ł
à¥Ĥ à¥¥à¥¥
à¤· à¤ªà¤°
Ġà¤° à¤Ĺ
à¥ĩà¤Ĥ ]
Ġà¤Ĺ à¤Ļ
Ġà¤ªà¤° à¤ķ
à¤ĩ à¤ªà¤°
Ġà¤ī à¤ĺ
à¤ķà¤° à¤®
Ġà¤¯ à¤¨
Ġà¤Ī à¤ķ
à¤¼ à¥Ģà¤Ĥ
à¤¿à¤Ĥ :
Ġà¤« à¤²à¤ķ
Ġà¤ħà¤ª à¤¹à¤°à¤£
à¤¯à¤¤ à¤ķà¤°
Ġà¤®à¤¹ à¤¨
Ġà¤¸à¤¹ à¤°
Ġà¤¸à¤¹ à¤ķ
Ġà¤¬à¤¹ à¤¨
à¤²à¤¤ à¤ķ
à¤ī à¤ł
à¥§ à¥§à¥«
à¤¬à¤° à¤°
Ġà¤ıà¤ļ à¤ıà¤«à¤ıà¤Ł
à¤µà¤§ à¤¨
à¤²à¤¬ à¤²
Ġà¤ľà¤° à¤¬
Ġà¤ļà¤° à¤¨
Ġà¤¸à¤¨ à¤¸
à¤°à¤¥ à¤°
Ġà¤Ĳ à¤ª
à¤¯à¤¬ à¤¹
Ġà¤Ĩà¤ª à¤¦
Ġà¤ħà¤¥ à¤°
Ġà¤ķà¤¬ à¤¹
Ġà¤ıà¤¸à¤ı à¤ıà¤¸à¤¸
à¤¹ à¤Ĺ
à¤® à¤ĺà¤°
Ġà¤ª à¤ª
Ġà¤ª à¤¬à¤¨
Ġà¤® à¤¤à¤µ
à¤· à¤Ł
à¤ľ à¤µà¤¨
à¤ı à¤¶
Ġà¤¶ à¤®à¤¨
Ġà¤ĵ à¤ĩ
Ġà¤ħà¤¨ à¤ķ
à¤°à¤ķ à¤ķ
à¤ıà¤² à¤¯
à¤²à¤¨ à¤ª
Ġà¤Ł à¤¹à¤²
à¤Ŀ à¤¤
à¤Ŀ à¤²à¤¨
à¤Ŀ à¤²à¤¹
à¤ħ à¤ļ
Ġà¤ħà¤µ à¤¹
à¤Ĺà¤² à¤¸
Ġà¤ľà¤¨ à¤Ĺà¤£à¤¨
à¤Ĩà¤Ī à¤ĵ
à¤¼à¥Ģ -
Ġà¤Ĩà¤Ī à¤ıà¤²à¤¯
Ġà¤²à¤Ĺà¤² à¤ĸ
à¥® à¥¯
à¥¯ à¥ª
à¤ıà¤® à¤ª
à¤¾" ,
à¤ľà¤® à¤¹à¤²
à¥§à¥¦ à¥§
Ġà¤ĵà¤¤ à¤ª
à¥§à¥§ à¥§
Ġà¤ ½
à¤° à¤Ľ
à¤° à¤µà¤¨
à¥ĩ âĢĻ
à¤¨ à¤¹à¤¨
à¤¯ à¤°à¤¸
à¥Ģ ')
Ġà¤ħ à¤Łà¤ķ
Ġà¤ľ à¤°à¤¯
à¤ª à¤ŀ
à¤¦ à¤£
à¥¤ âĢĻ
Ġà¤µ à¤¦
Ġà¤µ à¤¨à¤ķ
à¤¬ à¤ı
à¤¬ à¤¯à¤µ
Ġà¤ı à¤Łà¤²
à¤ľ à¤ķà¤¨
à¤¶ à¤²à¤ķ
à¤ļ à¤¤à¤°
à¥ĩà¤Ĥ à¤ģ
Ġà¤ķà¤° à¤¯à¤ķ
à¤ı à¤Ĩà¤Ī
à¤Ń à¤¬
Ġà¤Ī à¤Ĺà¤²
à¤¼ à¤¾à¥¤
Ġà¤§ à¤¨à¤µ
Ġà¤ĸ à¤°à¤¦
Ġà¤ħà¤¨ à¤²à¤¹
Ġ( âĢ
à¤Ĩ à¤¸
à¤Ĩ à¤µà¤¶
à¤ł à¤¸
à¤²à¤¨ à¤¯à¤¨
Ġà¤īà¤ª à¤µà¤¨
à¤²à¤ķ à¤²
Ġà¤²à¤Ĺ à¤µà¤²
à¤®à¤ķ à¤²
à¤ĵ à¤ķ
à¤ĵ à¤®
à¥§ à¥§à¥®
Ġà¤¹à¤° à¤¨
Ġà¤ľà¤¨ à¤ľà¤¨
à¤Ĩà¤Ī à¤¡
Ġà¤ļà¤² à¤²à¤¹
Ġà¤Ĭ à¤ķ
Ġà¤®à¤° à¤¨
Ġà¤Ĳ à¤¹
à¥® à¥Ń
à¤¾" :
Ġà¤ľà¤¤ à¤½
Ġà¤ļà¤¢ à¤²
Ġà¥© à¥¦
Ġà¤ħà¤« à¤¸
Ġà¤Ĩà¤ł à¤µ
Ġà¤¨à¤ľà¤° à¤ħ
Ġà¤ľà¤ĩà¤¤ à¤¨
à¥ Ĳ
à¤¿ à¤¼
Ġà¤ķ à¤¸à¤¨
Ġà¤¸ à¤ªà¤°
Ġà¤ª à¤Łà¤²
à¤µ à¤¤à¤°
à¤µ à¤¦à¤¨
Ġà¤Ĩ à¤ĺ
à¤Ł à¤ķà¤°
à¤Ł à¤°à¤ķ
à¤Ĺ à¤¡à¤®
Ġà¤² à¤ĸà¤¨
à¤¶ à¤²à¤¤
à¤ļ à¤²à¤¤
à¤ļ à¤µà¤Ł
Ġà¤ķà¤° à¤®à¤ķ
à¤ĸ à¤¶
Ġà¤ıà¤ķ à¤®à¤¤
à¤« à¤°à¤²
à¤¾à¤ģ :
Ġà¤ĩ à¤¬
Ġà¤Ĩà¤µ à¤°
Ġà¤« à¤°à¤®
à¤°à¤¸ à¤¤
à¤Ĩà¤° à¤Ĩà¤°à¤Ł
à¤Ŀ à¤²à¤ķ
à¤½ à¤¤
à¤µà¤² à¤¥
à¥Īà¤Ĥ ;
Ġà¤¬à¤¹ à¤¬
Ġà¤®à¤¨ à¤°
à¥§ à¥§à¥¦
à¥§ à¥§à¥Ń
à¥§ à¥§à¥¬
Ġ' "
Ġ' à¥¤
à¤Ĺà¤² à¤®
Ġà¤Ŀ à¤ªà¤Ł
à¤¤à¤ķ à¤ķ
à¤¤à¤ķ à¤¥
à¤¨à¤¤ à¤¦
Ġà¤¤à¤¤ à¤¬
à¤°à¤ª à¤¦
à¥® à¥ª
à¥¯ à¥¬
Ġà¥¨ à¥®
à¤ĳ à¤°
à¥§à¥¦ à¥«
à¥§à¥¦ à¥Ń
à¥§à¥¨ à¥¬
Ġà¤ĸà¤¤à¤° à¤¨
Ġà¤ıà¤¯à¤° à¤²
à¤¾ âĢĿ
à¤¤ à¤²à¤¤
à¤ķ à¤ł
à¤¹ à¤«
à¤® à¤Ī
à¤µ à¤ªà¤¤
à¤¸ à¤Ĺ
à¤¸ à¤¡
Ġà¤® à¤ķà¤¹
Ġà¤¬ à¤ķà¤µ
Ġà¤¹ à¤«
Ġà¤¦ à¤Ĺ
à¤¬ à¤¸à¤¨
Ġà¤ı à¤µà¤ľ
à¤¥ à¤¡
à¤ľ à¤¥
à¥ĩà¤Ĥ âĢĿ
à¤¡ à¤²à¤ķ
Ġà¤Ĺ à¤ıà¤²
Ġà¤ªà¤° à¤Ľ
à¤ĩ à¤¬à¤°
à¥ĭà¤Ĥ '
à¤°à¤£ à¤¤à¤¯
à¤°à¤¤ à¤§
à¤Ī à¤ľ
à¤« à¤°à¤ľ
à¤« à¤°à¤¸à¤¨
à¤Ĩ à¤°à¤ķ
à¤Ĩ à¤ļà¤°à¤£
à¤¨à¤ķ à¤¨
à¤ĺ à¤ª
Ġà¤ķà¤¹ à¤¹
Ġà¤ĵà¤¹ à¤®
Ġà¤īà¤¦ à¤¯à¤¨
à¥§ à¥§à¥¯
à¤¹à¤° à¤ĵà¤®
à¤Ĺà¤² à¤ĸ
à¥ĩà¥¤ à¥¤
Ġà¤§à¤° à¤¨
Ġà¤īà¤ł à¤¯
à¤¸à¤® à¤¸
à¤®à¤£ à¤µ
Ġà¤ªà¤°à¤® à¤§
Ġà¤¬à¤ľ à¤°
Ġà¤Ĳ à¤¤à¤°
à¤ĩà¤¸ à¤¡
Ġà¤¨à¤µ à¤µà¤°
Ġà¤ħà¤µà¤§ à¤ª
à¥Įà¤Ĥ ,
à¥® à¥®
à¥¯ à¥§
à¥¯ à¥¨
à¥¯ à¥Ń
à¥¯ à¥®
Ġà¥¨ à¥Ń
Ġà¤ľà¤¨à¤¤ à¤¬
à¥§à¥¦ à¥¨
à¥§à¥¦ à¥¯
à¥ĩ" :
à¤Ĳ à¤Ł
Ġà¤Ĺà¤¦ à¤Ĺà¤¦
à¤ķ à¤ķà¤°
à¤ķ à¤¨à¤ķà¤°
à¤® à¤Ńà¤ķ
Ġà¤ª à¤§
à¤¸ à¤²à¤ķ
Ġà¤ľ à¤¯à¤ķ
Ġà¤¬ à¤ķà¤°
à¤Ł à¤°à¤µ
à¤Ĺ à¤¦à¤ķ
Ġà¤ı à¤ĩà¤¸à¤¨
Ġà¤ı à¤¡à¤¸
Ġà¤² à¤ĩà¤²
à¤ľ à¤ľ
Ġà¤¤ à¤ĩà¤¯
Ġà¤Ń à¤Ļ
Ġà¤Ń à¤ıà¤ķ
à¤ı à¤ıà¤¸à¤¸
à¤ĩ à¤Łà¤²
à¤ĩ à¤Ĩà¤Ĺ
Ġà¤¶ à¤Ĺ
Ġà¤ĵ à¤Ĩà¤°à¤ıà¤¸
Ġà¤ĸ à¤°à¤®
Ġà¤ĸ à¤¸à¤¬
à¤Ĩ à¤ľ
Ġà¤¸à¤¬ à¤°
Ġà¤¸à¤¬ à¤ªà¤°
Ġà¤« à¤¡
Ġà¤« à¤¹à¤°
à¤®à¤² à¤¤
à¤ĺ à¤Łà¤ķ
Ġà¤°à¤¹à¤² à¤ķ
Ġà¤ĳ à¤ª
Ġ" )
à¥Ģà¥¤ à¥¤
Ġà¤Ńà¤Ĺ à¤ľ
à¤µà¤§ à¤°
Ġà¤ªà¤°à¤® à¤Ĺà¤¤
Ġà¤ĳà¤« à¤°
ĠâĢ ĵ
à¥® à¥¬
à¥¯ à¥©
à¥¯ à¥«
à¥¯ à¥¯
à¤¿" ,
à¥§à¥¦ à¥¬
à¥§à¥¦ à¥®
à¤Ĳ à¤¨
Ġà¤ĺà¤¨ à¤ĺ
Ġà¤ķ à¤ĩà¤¨
à¤ķ à¤ĩ
à¤ķ à¤®à¤¹
Ġà¤ª à¤ľ
à¥ĭ ;
Ġà¤® à¤ł
Ġà¤ħ à¤µà¤°
Ġà¤ħ à¤ĸà¤¬
Ġà¤ľ à¤¨à¤²
à¤ª à¤§
à¤¦ à¤ĺà¤¨
Ġà¤¨ à¤µà¤¤
Ġà¤¨ à¤Ĺà¤£
à¥Ī "à¥¤
à¤Ĺ à¤¯à¤µà¤²
Ġà¤¦ à¤¸à¤®
à¤¬ à¤°à¤ķ
à¤¶ à¤°à¤£
à¤¡ à¤µà¤°
à¤ĸ à¤¬à¤¯
Ġà¤¸à¤® à¤µ
Ġà¤§ à¤¯à¤ķà¤¯
Ġà¤ıà¤¹ à¤¨à¤ķà¤°
à¤°à¤£ à¤¸à¤Ń
à¤Ī à¤¡
à¤Ī à¤¬à¤¹
Ġà¤¸à¤¬ à¤ª
Ġà¤¡ à¤°à¤ķ
Ġà¤ħà¤ª à¤¯à¤¶
à¤ī à¤¶
à¤¨à¤² à¤ĸ
à¤¾à¥¤ à¥¤
à¤°à¤µ à¤ļà¤¨
à¤ħ à¤®
à¤ħ à¤ªà¤®
Ġà¤ľà¤¨ à¤µ
Ġà¤ıà¤¸ à¤ıà¤«
Ġà¤ıà¤¸ à¤Ĩà¤°à¤¸
à¤¦à¤® à¤¯
Ġà¤Ĩà¤Ī à¤¡
Ġà¤ıà¤µ à¤®à¤¸
à¤¡à¤¨ à¤¹
Ġà¤ľà¤¯ à¤ľà¤¯
Ġà¤ľà¤¯ à¤ľà¤¯à¤ķ
Ġà¤ľà¤¨à¤ķ à¤¨à¤¨
Ġà¤¹à¤² à¤ļà¤²
Ġà¤ķà¤°à¤ķ à¤®à¤²
à¥§à¥¨ à¥§
à¥§à¥¨ à¥«
à¥§à¥¨ à¥¦
à¥§à¥¨ à¥®
Ġà¤ıà¤¸à¤ı à¤ıà¤¸
Ġà¤Ĺà¤ª à¤¶à¤ª
# ;
à¤° à¤¯à¤µà¤²
à¤¨ à¤¯à¤µ
à¤¨ à¤§à¤°
à¤¨ à¤ľà¤°
à¤ķ à¤ĩà¤²
à¤ķ à¤¨à¤²
à¤¯ à¤ªà¤°
à¤¹ à¤°à¤¤
à¤® à¤¨à¤¨
à¤µ à¤¬
à¤µ à¤¶à¤ķ
Ġà¤® à¤°à¤¯
Ġà¤® à¤ļà¤²
à¤Ł à¤¯à¤µà¤²
à¤¬ à¤ľ
Ġà¤ı à¤ıà¤¨à¤ľ
à¤£ à¤ľ
Ġà¤° à¤Ĺà¤¡
Ġà¤² à¤ı
à¤ľ à¤¸à¤Ń
à¤Ľ à¤¥
Ġà¤ķà¤° à¤ĩà¤¤
Ġà¤Ľà¤² à¤ª
Ġà¤¸à¤® à¤¦
Ġà¤¬à¤¨ à¤¬à¤¯
Ġà¤ĩ à¤¯
à¤ł à¤¶
Ġà¤« à¤Łà¤ķ
à¤°à¤¸ à¤®à¤£
Ġà¤Ĩà¤° à¤ıà¤«
à¤¦à¤ķ à¤¸à¤Ń
Ġ" "
à¤ĵ à¤Ĩ
à¥ģà¤ģ à¥¥
à¤Łà¤° à¤°
à¤ħ à¤ķ
à¤¤à¤® à¤®
à¤®à¤¨ à¤¸
Ġà¤ľà¤¬ à¤¸
à¤¹à¤¤ à¤ķ
à¤ĸà¤² à¤ĸ
Ġà¤ķà¤² à¤¹
Ġà¤ªà¤¢ à¤¨
Ġà¤ıà¤® à¤¬
Ġà¤²à¤Ĺà¤² à¤¥
à¤¡à¤° à¤µà¤°
Ġà¤µà¤¨ à¤®
Ġà¥¨ à¥¯
à¤¡à¤ķ à¤µà¤¨
à¥§à¥¨ à¥Ń
Ġà¤¤à¤¦ à¤ª
à¥§à¥© à¥¦
Ġà¤ıà¤ıà¤« à¤ª
? ---
à¤¤ à¤Ł
à¤¤ à¤½
à¤ķ à¤¨à¤ķ
Ġà¤¸ à¤¦à¤¨
à¤® à¤¡
Ġà¤ª à¤Ĺ
Ġà¤® à¤Łà¤ķ
Ġà¤µ à¤¦à¤¨
Ġà¤¦ à¤²à¤ķ
Ġà¤¦ à¤¸à¤ķ
Ġà¤ı à¤µà¤°
Ġà¤ı à¤¥à¤¨
à¤· à¤¸à¤Ńà¤ķ
Ġà¤Ĺ à¤ľà¤°
Ġà¤Ĺ à¤ľà¤²
à¤ĸ à¤®à¤¯
à¤Ń à¤¹
Ġà¤¶ à¤°à¤Ń
Ġà¤¯ à¤½
Ġà¤ĵ à¤Ĺ
Ġà¤Ī à¤¥à¤°
Ġà¤ĸ à¤¤à¤®
Ġà¤ħà¤¨ à¤²à¤ķ
à¤°à¤¤ à¤°
à¤« à¤Ł
Ġà¤ĩ à¤ıà¤¹
Ġà¤¸à¤¬ à¤²
Ġà¤ķà¤ıà¤² à¤ĸ
Ġà¤¡ à¤Ĺ
Ġà¤¡ à¤°à¤ª
à¤°à¤® à¤¸
à¤¯à¤¤ à¤¤à¤¯
Ġà¤ķà¤¯à¤² à¤ľ
Ġà¤¸à¤¹ à¤¤
Ġà¤¥ à¤°à¤¥à¤°
Ġà¤īà¤¦ à¤°
Ġà¤ħà¤¹ à¤®à¤¦
Ġà¤ķà¤® à¤²à¤¨à¤¯à¤¨
à¤ħ à¤Ļ
à¤Ĺà¤² à¤Ĺ
Ġà¥ ł
Ġà¤ľà¤¨ à¤¸à¤®
à¤Łà¤¨ à¤Ĺà¤°à¤ķ
à¤¹à¤¨ à¤®
à¤µà¤ķ à¤ķ
à¤¿à¤ĥ à¥¤
Ġà¤ıà¤® à¤ıà¤²
Ġà¤ıà¤® à¤ıà¤¨
Ġà¤µà¤¨ à¤Ĺà¤®à¤¨
à¤ķà¤ķ à¤µà¤°
Ġà¤ľà¤¤ à¤¯à¤¤à¤¤à¤¯
à¤Ńà¤Ĺ à¤µà¤¦
à¥§à¥¨ à¥ª
Ġà¤Łà¤ķ à¤Łà¤ķ
Ġà¤¨à¤Ĺ à¤°à¤µ
> >
Ġ >>
Ġà¤ķ à¤¢
Ġà¤ķ à¤īà¤¨
Ġà¤ķ à¤ĩà¤¯
à¤¨ à¤¸à¤ķ
à¤¤ à¤°à¤¸
à¤² à¤ī
à¤µ à¤¯à¤®
à¤µ à¤Ńà¤ķ
à¤¸ à¤°à¤¤
Ġà¤® à¤²à¤ķ
Ġà¤® à¤²à¤®
Ġà¤ħ à¤¸à¤¨
Ġà¤ľ à¤¬à¤°
à¤ª à¤ľ
Ġà¤¨ à¤¬à¤ķ
Ġà¤Ĩ à¤Ĺà¤¤
à¤Ĺ à¤¸à¤¨
à¤¬ à¤Ĺ
à¤ľ à¤«
à¤ļ à¤¢
Ġà¤¤ à¤Łà¤¬
à¤¡ à¤¦
Ġà¤ĵ à¤Ł
Ġà¤ħà¤¨ à¤µà¤°à¤¤
à¤°à¤£ à¤¸
à¤« à¤¡
à¤ĩà¤² à¤ķ
Ġà¤« à¤£
à¤¯à¤µ à¤¶
Ġà¤¡ à¤ķ
Ġà¤¤à¤° à¤¬
à¤½ à¤¯
Ġà¤īà¤ª à¤µà¤°
Ġà¤ĳ à¤²à¤¸
à¤²à¤ķ à¤®à¤²
à¤¸à¤° à¤¬
Ġà¤Ĩà¤¯ à¤°
Ġà¤°à¤ĸ à¤¯
à¤ķà¤² à¤¬
à¤ªà¤ķ à¤¡
Ġà¤ł à¤Ĺ
Ġà¤Ŀ à¤²à¤ķ
Ġà¤¬à¤° à¤¨
Ġà¤¬à¤° à¤ĸà¤ķ
Ġà¤ľà¤² à¤ľ
Ġà¤§à¤¨ à¤¸à¤®
Ġà¤ħà¤® à¤°à¤¤
Ġà¤¨à¤® à¤¬
Ġà¤ħà¤¥ à¤ķ
Ġà¤¦à¤¶ à¤ķà¤¨
à¥§à¥¨ à¥©
Ġà¤¬à¤¦ à¤²à¤¯
à¥§à¥© à¥§
Ġà¤µà¤ļ à¤¨à¤ķ
: -
à¤ ³
à¤¤ à¤ħà¤¨
à¤ķ à¤§
à¤ķ à¤ı
à¤² à¤°à¤ķ
à¤¯ à¤ħ
Ġà¤¸ à¤ľà¤¨
à¤® à¤°à¤ķ
à¤® à¤¬à¤²
Ġà¤® à¤¦à¤¨
Ġà¤ħ à¤ľà¤°
Ġà¤¨ à¤µà¤¯
Ġà¤Ĩ à¤¨à¤ķ
Ġà¤¹ à¤°à¤®à¤¨
Ġà¤µ à¤£
Ġà¤µ à¤Łà¤µ
à¤· à¤¶
à¤ģ '
à¤ľ à¤¤à¤¯
Ġà¤Ľ à¤¦
à¤Ľ à¤®
à¤ĸ à¤ķà¤ķ
Ġà¤Ń à¤ĩà¤¯
à¤Ń à¤µà¤ķ
Ġà¤ĵ à¤Ľ
Ġà¤¸à¤® à¤¦à¤°
Ġà¤ħà¤¨ à¤Ń
à¤°à¤£ à¤ª
à¤« à¤ķ
à¤¹à¤² à¤¹
à¤¾à¤ģ "
à¤¨à¤ķ à¤ķ
à¤¯à¤® à¤ª
Ġà¤Ķ à¤ľ
Ġà¤ħà¤ª à¤µà¤°
Ġà¤ħà¤ª à¤¶à¤ķ
à¤¯à¤¤ à¤¨à¤¦
Ġà¤ĳ à¤ĩà¤²
à¤ī à¤Ĺ
à¤ī à¤¸à¤¨
Ġà¤ħà¤µ à¤ķ
Ġà¤Ĩà¤¬ à¤¹
Ġà¤§à¤° à¤²à¤ķ
à¤Ĩà¤Ī à¤ľ
à¤¸à¤ķ à¤ķ
Ġà¤ķà¤¨ à¤ĩà¤¤
à¤²à¤¬ à¤ļ
Ġà¤¸à¤¨ à¤®
à¤ıà¤« à¤¸
Ġà¤®à¤ľ à¤Ĺ
Ġà¤ıà¤¤ à¤¬à¤¹
Ġà¤ķà¤Ī à¤Ł
à¤ıà¤¨ à¤ª
à¤¯à¤¯ à¤¨à¤ķ
à¤¾) ;
Ġà¤ħà¤¯ à¤²à¤¨
Ġà¤ªà¤µ à¤¨à¤ķ
à¤Ĭ à¤¶
Ġà¤¬à¤¦ à¤²à¤¬
Ġà¤ĸà¤¸ à¤¯
à¥§à¥© à¥¨
Ġà¤ĺà¤¨ à¤¶
Ġà¤ļà¤®à¤ķ à¤¦
Ġà¤¸à¤¹à¤¨ à¤¶
à¤ıà¤«à¤ıà¤® à¤ı
Ġà¤ķà¤Łà¤ķ à¤Ł
Ġà¤Ľà¤Ł à¤ªà¤Ł
Ġà¤ķ à¤ĩà¤¸à¤¨
à¤¤ à¤µà¤¨
à¤ķ à¤¹à¤²
à¤ķ à¤Ĺà¤£
à¤ķ à¤¶à¤°
à¤² à¤ªà¤ķ
à¤¯ à¤ļ
à¤¯ à¤°à¤®
à¤Ĥ )
à¤¹ à¤¡
à¤¹ à¤°à¤®
à¤® à¤ªà¤¤
Ġà¤ª à¤¦à¤ķ
à¤¸ à¤ķà¤¯
Ġà¤ħ à¤¢
Ġà¤ħ à¤ķà¤²
à¤Ĺ à¤Ĺ
à¤Ĺ à¤¨à¤ķ
Ġà¤ı à¤Łà¤ķ
Ġà¤ı à¤ıà¤«à¤ıà¤®à¤ı
Ġà¤² à¤ĸ
à¤ľ à¤¸à¤®
à¤¡ à¤¸à¤¨
à¤¡ à¤¡à¤¬
Ġà¤Ĺ à¤§
Ġà¤Ĺ à¤°à¤¦
à¤ĸ à¤§
à¤ĸ à¤¸à¤®
Ġà¤Ń à¤ľà¤¨à¤ķ
à¤Ń à¤Ĺà¤¤
à¤ĩ à¤ªà¤²
Ġà¤ī à¤·
Ġà¤ĵ à¤¶à¤¨
Ġà¤ĵ à¤ıà¤®à¤Ĩà¤Ī
Ġà¤Ī à¤·
Ġà¤Ī à¤ı
Ġà¤Ī à¤¸à¤°
Ġà¤Ī à¤ıà¤¸
Ġà¤ıà¤ķ à¤¬
à¤¼ à¤¼
Ġà¤ħà¤¨ à¤ª
à¤« à¤¸
Ġà¤ħà¤§ à¤²
à¤¯à¤® à¤¸
à¤°à¤¸ à¤µ
à¤ªà¤° à¤¹
Ġà¤ķà¤ıà¤² à¤Ĺà¤²
à¤Ŀ à¤®
Ġà¤ķà¤¹ à¤°
Ġà¤ķà¤¹ à¤µ
Ġà¤ķà¤¹ à¤ķà¤°
à¤½ à¤°
à¤½ à¤µ
à¤µà¤¨ à¤¦
Ġà¤µà¤° à¤µà¤§
Ġà¤²à¤Ĺ à¤µ
à¤ķà¤°à¤£ à¤ķà¤°
Ġà¤®à¤¨ à¤ļ
à¤ī à¤°à¤ķ
à¤ī à¤¨à¤²
à¤ķà¤¨ à¤°
Ġà¤¤à¤ķ à¤¬
à¤¹à¤° à¤¬
à¤Ĺà¤² à¤¹
à¤¨à¤µ à¤¶
à¤®à¤£ à¤¸à¤¹
à¤ĩà¤¨ à¤¬
à¤°à¤¬ à¤¨
Ġà¤¦à¤¸ à¤¶
Ġà¤ľà¤² à¤®
à¤ĵà¤² à¤¥
à¤ķà¤¸ à¤Ń
à¤Ĺà¤® à¤¨à¤ķ
à¤¿à¤ĥ à¥¥
à¤§à¤ķ à¤§
Ġà¤«à¤² à¤®
à¤ªà¤® à¤¯
Ġà¤ļà¤ķ à¤ĩ
à¤Ĳ à¤¸
Ġà¤īà¤¤à¤° à¤¬
Ġà¤®à¤Ĺ à¤§
à¤ĭ à¤¤
à¤ĭ à¤·
Ġà¤Ĩà¤°à¤ıà¤« à¤ı
Ġà¤¡à¤Ĺ à¤®à¤Ĺ
? '
à¤¨ à¤ªà¤¨
à¤¨ à¤°à¤®
à¤¨ à¤µà¤²
à¤¨ à¤®à¤¸
à¤¤ à¤ĺ
à¤¤ à¤ķà¤²
à¤¤ à¤¬à¤²
à¤ķ à¤ķà¤²
à¤¯ à¤Ĺà¤°
Ġà¤¸ à¤ł
à¤® à¤ľà¤¨
à¤µ à¤Ĺà¤¤
à¤µ à¤µà¤¤
à¤¸ à¤¹à¤°
Ġà¤ħ à¤ıà¤²
Ġà¤ħ à¤²à¤ķ
Ġà¤ľ à¤ľà¤®
Ġà¤¨ à¤°à¤¸
Ġà¤¨ à¤®à¤ķ
Ġà¤Ĩ à¤ĵà¤²
Ġà¤¹ à¤Łà¤¨
Ġà¤¦ à¤°à¤¸
à¤¬ à¤ª
à¤¬ à¤¬
à¤¬ à¤µà¤¤
à¤£ à¤ķà¤°
Ġà¤° à¤§
Ġà¤² à¤°
à¤ľ à¤¶
à¤ľ à¤Ń
à¤Ľ à¤¹
à¤ļ à¤¥
Ġà¤ķà¤° à¤ī
à¤ĩ à¤¦
Ġà¤¶ à¤¹à¤¨
Ġà¤ĵ à¤¶à¤²
Ġà¤ļ à¤ļ
Ġà¤ĸ à¤²à¤¬à¤²
Ġà¤« à¤¨
Ġà¤°à¤¹ à¤®
à¤¯à¤µ à¤§
à¤ĩà¤¤ à¤¹
Ġà¤¹à¤®à¤° à¤ħà¤¹
Ġà¤¸à¤Ń à¤¹
à¤µà¤¨ à¤¨
à¥Ģà¤Ĥ "
à¤¸à¤° à¤¨
à¤ľà¤¨ à¤ķà¤°
Ġà¤īà¤² à¤Łà¤²
à¤ħ à¤µà¤¸à¤°
à¤¤à¤® à¤¨
à¤Ĺà¤² à¤ª
à¤Łà¤¨ à¤Ĺà¤°à¤®
Ġà¤ıà¤ļ à¤Ł
Ġà¤¬à¤² à¤°
à¤¸à¤® à¤°
Ġà¤¬à¤¢ à¤¤
à¤§à¤¨ à¤¤
Ġà¤ķà¤¤ à¤Ī
à¤°à¤¬ à¤²à¤¤
Ġà¤¬à¤° à¤·
Ġà¤ħà¤Ĺ à¤£
Ġà¤ľà¤ĸà¤¨ à¤ľà¤ĸà¤¨
Ġà¤Ĩà¤ĩ à¤¬
à¤¯à¤£ à¤®
Ġà¤ªà¤¦ à¤ļ
à¤§à¤ķ à¤ķ
Ġà¤ħà¤µà¤² à¤®
à¥§à¥¨ à¥¯
à¤¸à¤¹ à¤®à¤¤
à¥§à¥© à¥©
à¥§à¥© à¥ª
à¥ĩà¤Ĥ) ;
Ġà¤®à¤¦à¤¦ à¤Ĺ
à¥Ģ' ,
Ġà¥§à¥¦ à¥¦
Ġà¤ĵà¤µà¤° à¤²
Ġ(âĢ ĺ
. .
Ġà¤ ¾
à¤° à¤¡
à¤° à¤¯à¤¨
Ġà¤ķ à¤¤à¤°
à¤¤ à¤¸à¤®
à¤ķ à¤ĸà¤¨
à¤¯ à¤¯à¤ķ
Ġà¤¸ à¤¶à¤¸
à¤® à¤ı
à¤® à¤µà¤²
à¤® à¤¢
Ġà¤ª à¤ĩà¤¨
à¤¸ à¤«à¤²à¤¤
à¤¸ à¤ĳà¤°
Ġà¤ħ à¤ļà¤°
Ġà¤ħ à¤ľà¤¯
à¤ª à¤²à¤¨
à¤¦ à¤¯à¤¸
Ġà¤¬ à¤°à¤µ
à¤¬ à¤®
à¥Ĥ -
Ġà¤ı à¤¨à¤ķ
Ġà¤° à¤¥à¤ķ
à¤ģ :
à¤¥ à¤¯
à¤ľ à¤²à¤¨
à¤ľ à¤°à¤²
à¤¶ à¤Ĺ
à¤ļ à¤Ł
à¤ļ à¤°à¤¤
Ġà¤ķà¤° à¤Ī
à¤ĸ à¤½
à¤ĩ à¤ł
à¤ĩ à¤®à¤°
Ġà¤ī à¤ĭà¤£
Ġà¤¶ à¤ŀ
Ġà¤ĵ à¤ľ
Ġà¤ļ à¤°à¤¬
à¤¼ à¥ĩà¤Ĥ:
à¤°à¤¤ à¤¤
à¥Į à¥¥
à¤Ĩ à¤ĩ
à¤°à¤¸ à¤¹
à¤°à¤¸ à¤Ńà¤ķ
à¤²à¤¯ à¤¸à¤Ń
Ġà¤°à¤¹ à¤Ī
à¤Ŀ à¤Ł
à¤¸à¤° à¤¹
Ġà¤¸à¤¹ à¤¬
Ġà¤ıà¤« à¤ķ
à¤¤à¤® à¤¯
Ġà¤ļà¤² à¤¹
Ġà¤ļà¤² à¤²à¤¨
Ġà¤ªà¤¡ à¤²
à¤§à¤¨ à¤®
Ġà¤ĺà¤° à¤ªà¤°
à¤°à¤¬ à¤¦
à¤·à¤¯ à¤ľ
à¤ļà¤² à¤®
Ġà¤¬à¤ľ à¤¤
Ġà¤¦à¤¸ à¤µ
Ġà¤ħà¤Ĺ à¤¬
Ġà¤ªà¤¢ à¤²à¤²
Ġà¤ļà¤°à¤£ à¤¨
à¤ªà¤Ł à¤²à¤¨
à¤¼à¥ĩ :
Ġà¤Ĩà¤® à¤ľà¤¨
Ġà¤Ĺà¤£ à¤®
Ġà¤°à¤¸ à¤Ĺ
Ġà¤°à¤¸ à¤ĸ
Ġà¤ıà¤¬ à¤¨à¤°
à¤¦à¤¶ à¤®
Ġà¤¯à¤¶ à¤¸
à¥§à¥© à¥®
à¥§à¥ª à¥©
à¥ĩ' à¥¤
Ġ& #;
Ġà¤ıà¤¯ à¤°à¤ķ
Ġà¤Ĩà¤īà¤Ł à¤Ĺ
Ġà¤Ĩà¤« à¤¦
à¤µà¤¸à¤® à¤°
Ġà¤²à¤Ł à¤ķà¤²
Ġà¤Ĩà¤ĩà¤Ł à¤®
Ġà¤ļà¤®à¤ķà¤¦ à¤®à¤ķ
" )à¥¤
Ġ #
à¤° à¤¨à¤¤
à¥į à¥¥à¥¥
à¤¨ à¤¬à¤¨
à¤¤ à¤¡
à¤¤ à¤ļà¤°
à¤² à¤®à¤°
à¤¯ à¤ħà¤¨
Ġà¤¸ à¤¨à¤¤
à¤¹ à¤ľ
à¤® à¤ĸ
à¤¸ à¤ªà¤°
à¤¸ à¤Łà¤°
Ġà¤® à¤Ŀ
Ġà¤® à¤°à¤¦
Ġà¤ħ à¤¯à¤¨
à¤¦ à¤®à¤¨
Ġà¤¨ à¤µà¤ª
Ġà¤Ĩ à¤®à¤¨
Ġà¤Ĩ à¤¹à¤¤
à¤Ĺ à¤Ĩà¤°
à¤Ĺ à¤®à¤ķ
Ġà¤¦ à¤Ī
à¤· à¤¦à¤ķ
à¤ľ à¤ªà¤°
à¤¶ à¤§
à¤¶ à¤Ļ
Ġà¤¤ à¤ļ
Ġà¤Ĺ à¤µà¤¯
Ġà¤ªà¤° à¤®à¤¸
à¤Ń à¤°à¤£
Ġà¤ī à¤Ĺà¤²
à¤ķà¤° à¤¤
Ġà¤¸à¤® à¤²
Ġà¤§ à¤°à¤¹à¤°
à¤Ī à¤ıà¤²
à¤« à¤°à¤ª
à¤°à¤ķ à¤¯
à¤Ĩ à¤²
à¤Ĩ à¤ĩà¤¤
Ġà¤¸à¤ķ à¤²à¤¨
Ġà¤¸à¤ķ à¤²à¤¥
à¤¿à¤Ĥ à¥¥
à¤ł à¤ļà¤¨
Ġà¤Ł à¤Łà¤ķ
à¤ªà¤° à¤ª
à¤²à¤¯ à¤¨
Ġà¤Ķ à¤Ŀà¤ķ
à¤¯à¤µ à¤¤
à¤Ŀ à¤¸
Ġà¤¸à¤Ń à¤¯
Ġà¤ķà¤°à¤¤ à¤¯
Ġà¤īà¤ª à¤²à¤ķ
à¤µà¤¨ à¤¯
Ġà¤ĵà¤¹ à¤ķà¤°
Ġà¤ıà¤« à¤ª
Ġà¤®à¤¨ à¤®à¤¸
à¤¦à¤° à¤¬
à¤ħ à¤¶
Ġà¤ħà¤µ à¤ļ
à¤Ĺà¤² à¤¥
Ġà¤ıà¤ķà¤° à¤¹
Ġà¤Ŀ à¤ķ
Ġà¤ıà¤¨ à¤«
Ġà¤ıà¤¨ à¤ıà¤¸
Ġà¤Ĭ à¤¸à¤°
Ġà¤ķà¤¤ à¤ı
Ġà¤ħà¤¬ à¤§
Ġà¤ħà¤¬ à¤ĩà¤¤
à¤Łà¤² à¤¥
à¥Ģ) ;
Ġà¤¬à¤ľ à¤²à¤¨
à¥ģà¤Ĥ à¥¤
Ġà¤ħà¤Ĺ à¤µ
Ġà¤ıà¤² à¤Ł
à¤Łà¤ķ à¤®
Ġà¤Ĩà¤ĩ à¤¡
Ġà¤ıà¤® à¤Ĩà¤Ī
Ġà¤«à¤² à¤«
à¤¨à¤® à¤¯
Ġà¤¬à¤¸ à¤¤
Ġà¤¨à¤ĩ à¤ĸà¤¨
à¤µà¤¦ à¤¤
à¤¾' )
à¤¾' ,
à¥Ģ" à¥¤
Ġà¥ª à¥¦
à¥§à¥© à¥«
à¥§à¥© à¥¬
à¥ĩ" à¥¤
Ġà¤ħà¤Ł à¤ķà¤²
Ġà¤°à¤ļ à¤²à¤¨
Ġà¤ķà¤ķà¤° à¤¹
Ġà¤· à¤Ł
Ġà¤ıà¤ļà¤Ĩà¤° à¤ı
Ġà¤¬à¤°à¤¤ à¤²
à¤ıà¤ıà¤² à¤Ĩà¤°à¤¸
à¤° à¤ħ
à¥ĩ à¤ĥ
à¤¿ à¤ģ,
à¤¿ ):
Ġà¤ķ à¤¬à¤¨
à¤¨ à¤°à¤¹
à¤¤ à¤ªà¤°
à¤¤ à¤¯à¤µà¤²
à¤ķ à¤Ī
à¤² à¤§
à¤² à¤ĺ
à¤¯ à¤Ĩà¤°
à¤¹ à¤ķà¤°
à¤® à¤¨à¤ķ
à¤® à¤¹à¤°
Ġà¤ª à¤ıà¤°
à¤µ à¤®à¤¯
à¤¸ à¤¦à¤ķ
à¤¸ à¤ıà¤ķ
Ġà¤® à¤¸à¤²
Ġà¤ľ à¤°à¤¤
Ġà¤¨ à¤°à¤®
Ġà¤¨ à¤µà¤²
à¥Ī à¤ĥà¥¤
à¥Ī ',
à¤Ł à¤ªà¤°
à¤Ł à¤ĺ
à¤Ĺ à¤ªà¤°
Ġà¤µ à¤ıà¤¹
Ġà¤¦ à¤ıà¤²
à¤¬ à¤²à¤¤
à¥Ĥ ;
à¤§ à¤ľ
à¤· à¤¸à¤°
Ġà¤° à¤¬à¤°
Ġà¤° à¤®à¤¨
à¤ľ à¤Ńà¤µà¤¨
Ġà¤Ľ à¤¡
à¤¶ à¤¶
à¤¶ à¤²à¤®
à¤¡ à¤Ł
Ġà¤ªà¤° à¤ĸ
Ġà¤Ń à¤ķà¤¯
à¤Ń à¤ª
à¤ĩ à¤ıà¤Ĺ
Ġà¤¯ à¤¸à¤ķ
Ġà¤Ī à¤¡
Ġà¤Ī à¤¶à¤ķ
à¤¿à¥¤ à¥¤
Ġà¤ħà¤¨ à¤ķà¤°
à¤Ī à¤°
à¤¯à¤ķ à¤²
Ġà¤ĩ à¤ª
Ġà¤ĩ à¤Ł
à¤Ĩ à¤ıà¤²
à¤Ĩ à¤ķà¤²à¤¨
à¤ł à¤¹
Ġà¤« à¤°à¤¸
Ġà¤Ł à¤²
Ġà¤Ł à¤ª
Ġà¤ĵà¤ķà¤° à¤¨
Ġà¤°à¤¹ à¤¹
Ġà¤°à¤¹ à¤¬à¤¯
à¤Ŀ à¤¥
à¤¸à¤¨ à¤²
à¤¸à¤¨ à¤¸
Ġà¤¡ à¤²
Ġà¤¡ à¤Ĺà¤²à¤¸
à¤µà¤° à¤¦
Ġà¤ªà¤¹ à¤¨
à¤²à¤ķ à¤£
à¥Ģà¤Ĥ ),
à¥Īà¤Ĥ à¥¥à¥¥
à¤ŀ à¤¸
Ġà¤īà¤¤ à¤ª
Ġà¤µà¤° à¤¨
Ġà¤¥ à¤ª
Ġà¤īà¤¦ à¤§
Ġà¤®à¤¨ à¤µ
à¤ĵ à¤ĺ
à¤ĵ à¤¤à¤¯
à¤ī à¤Ĩ
à¤ī à¤®à¤¨
Ġà¤¸à¤®à¤¯ à¤¸
à¤°à¤µ à¤¸
à¤°à¤¯ à¤ļ
à¤ħ à¤ľ
Ġà¤°à¤ĸ à¤²à¤¹
à¤¯à¤° à¤¨à¤¨
à¤¤à¤¨ à¤¯
Ġà¤¬à¤² à¤¸
Ġà¤Ŀ à¤®
Ġà¤Ĭ à¤²
à¤²à¤¬ à¤¦
à¤ļà¤° à¤¨
à¤ķà¤¤ à¤¹
Ġà¤ĭ à¤¦
Ġà¤ªà¤¢ à¤¤
Ġà¤ľà¤² à¤ĸ
Ġà¤ıà¤² à¤ĸ
Ġà¤Ĩà¤Ī à¤¡à¤¬
Ġà¤ľà¤¯ à¤¦
Ġà¤¬à¤¸ à¤¯
à¤ıà¤ıà¤« à¤Ĩà¤Īà¤¸
à¤ıà¤® à¤¡à¤¬
à¤¾" )
à¤ľà¤¨à¤ķ à¤ª
à¤µà¤¶ à¤¤
Ġà¥© à¥«
Ġà¤ķà¤Ł à¤¹à¤°
à¥§à¥© à¥Ń
à¥§à¥© à¥¯
Ġà¤ªà¤² à¤Ł
à¥§à¥ª à¥¦
Ġà¤ħà¤Ī à¤Ľ
Ġ] ,
Ġà¤¹à¤ł à¤ª
Ġà¤ıà¤ıà¤® à¤Ĩà¤Ī
Ġà¤ĩà¤¦ à¤®à¤¨
Ġà¤¶à¤¹ à¤°à¤ķ
Ġà¤Ĩà¤Ĺà¤® à¤¨à¤ķ
Ġà¤ĵà¤Ŀ à¤°
à¤¤ à¤«
à¤¤ à¤µà¤°
à¤¤ à¤ķà¤°à¤£
à¤ķ à¤ļ
à¤ķ à¤Łà¤¨
Ġà¤¸ à¤²à¤¹
Ġà¤¸ à¤§à¤µ
à¤¹ à¤ı
à¤¹ à¤°à¤¹
à¤® à¤¹à¤¨
à¤® à¤¬à¤¨
à¤µ à¤½
à¥ĭ /
à¤¸ à¤®à¤ķ
à¤¸ à¤Ĩà¤Ī
Ġà¤® à¤µ
Ġà¤ħ à¤¶à¤¨
à¤ª à¤µà¤°
à¤¦ à¤¯à¤¤
à¤¦ à¤¹à¤¨
à¥Ī à¥¥à¥¥
Ġà¤µ à¤°à¤®
Ġà¤µ à¤Łà¤¸
à¤£ à¤§à¤°
Ġà¤² à¤µà¤²
à¤¥ à¤¸à¤Ń
à¤Ľ à¤¸
Ġà¤ķà¤° à¤ĩ
Ġà¤Ĺ à¤®à¤¹
Ġà¤Ń à¤£
Ġà¤Ń à¤¡
à¤ı à¤¯à¤°
à¤ĩ à¤Ń
à¤ĩ à¤µà¤²
à¥ĭà¤Ĥ à¥¤
Ġà¤ĸ à¤®
Ġà¤ıà¤¹ à¤¸à¤¨
à¤Ī à¤Ł
à¤Ī à¤¬
à¤« à¤Ĺ
à¤Ĩ à¤ªà¤°
à¤Ĩ à¤¯à¤²
à¤ĩà¤² à¤µà¤°
à¤ł à¤ķà¤ķ
Ġà¤Ĩà¤° à¤Ł
à¤¤à¤° à¤ª
à¤¸à¤¨ à¤®
Ġà¤¡ à¤®
à¤ŀ à¤¶
Ġà¤Ĩà¤¦ à¤°à¤ķ
Ġà¤µà¤° à¤ªà¤ķ
Ġà¤¥ à¤®
à¤¢ à¤¤
Ġà¤²à¤Ĺ à¤¬à¤¯
à¤µà¤¤ à¤®
à¤°à¤Ń à¤°
à¤®à¤¤ à¤¤
Ġà¤ķà¤® à¤¨
Ġà¤¤à¤ķ à¤ķ
à¤ħ à¤ĩà¤¸à¤¨
Ġà¤¹à¤° à¤ª
Ġ- ),
à¤¯à¤° à¤²
à¤¤à¤¨ à¤®à¤¯
Ġà¤¸à¤° à¤ª
à¤¨à¤° à¤²
Ġà¤ļà¤² à¤¥
Ġà¤ļà¤² à¤²à¤¥
Ġà¤ıà¤¸ à¤ıà¤ıà¤«
Ġà¤ķà¤¥ à¤¨à¤ķ
à¤®à¤£ à¤¹
Ġà¤ıà¤¨ à¤ıà¤¬
Ġà¤īà¤¨ à¤ļ
Ġà¤ªà¤°à¤® à¤¶
à¤°à¤ľ à¤²
Ġà¤¬à¤ľ à¤Ł
Ġà¤Ĳ à¤¹à¤¨
à¤¨à¤¸ à¤«
à¤µà¤¸ à¤Ń
Ġà¤ªà¤¢ à¤¯
Ġà¤ľà¤² à¤ļà¤°
Ġà¤§à¤¨ à¤§
Ġà¤ıà¤² à¤¸
à¥ģà¤ĥ à¥¤
à¤ıà¤¨ à¤ı
Ġà¥© à¥§
Ġà¤ľà¤¤à¤¯ à¤ľà¤¤à¤¯
à¤Ĭ à¤°
à¤¿) ;
à¤¿' :
à¥§à¥ª à¥¨
à¥§à¥ª à¥¬
Ġà¤ıà¤ª à¤¬
Ġà¥§à¥¦ à¥¦à¥¦
à¤Ķ à¤¨
Ġà¤²à¤¹ à¤ł
' )à¥¤
] à¥¤
à¥į à¤ģ
Ġà¤ķ à¤ŀ
Ġà¤ķ à¤¨à¤²
Ġà¤ķ à¤ıà¤ķ
à¤¨ à¤ıà¤¹
à¤¤ à¤¯à¤®
à¤¤ à¤®à¤ķ
à¤¤ à¤ī
à¤¤ à¤¨à¤¨
à¤¤ à¤ļà¤²
à¤ķ à¤¬à¤°
à¤ķ à¤ĳà¤«
à¤² à¤ªà¤°
à¤¹ à¤ªà¤°
à¤® à¤®à¤Ĺ
à¤ª à¤Łà¤ķ
à¤¦ à¤¯à¤°
à¤¦ à¤§à¤¤
Ġà¤¨ à¤¨à¤¦
à¤Ł à¤¡
à¤Ł à¤²à¤ķ
à¤Ĺ à¤¥
Ġà¤µ à¤°à¤ķà¤¨
Ġà¤¦ à¤°à¤ķ
à¤¬ à¤ĩà¤¤
à¤§ à¤Ń
Ġà¤ı à¤ĸ
Ġà¤ı à¤īà¤Ł
à¤£ à¤ªà¤ķ
à¤ľ à¤ĩà¤¸à¤¨
à¤ľ à¤Ĺà¤¦
à¤¶ à¤ļ
à¤ļ à¤²à¤¹
Ġà¤ªà¤° à¤¸à¤²
à¤ĸ à¤°à¤®
Ġà¤Ń à¤¯à¤ķ
Ġà¤Ń à¤°à¤®
à¤ĩ à¤¨à¤ķ
Ġà¤ī à¤Ľ
Ġà¤¶ à¤µ
Ġà¤¶ à¤ĸ
Ġà¤ĵ à¤¨à¤¸
Ġà¤ļ à¤®à¤ļ
Ġà¥¤ âĢĻ
Ġà¤ıà¤ķ à¤¸à¤°
Ġà¤ıà¤ķ à¤¸à¤®
Ġà¤§ à¤®
Ġà¤ħà¤¨ à¤¹
Ġà¤ħà¤¨ à¤²à¤¨
à¤°à¤¤ à¤¨
à¤°à¤¤ à¤¹
Ġ( :
à¤ł à¤ľà¤¨
Ġà¤Ĩà¤° à¤¬
à¤ĺ à¤¸
à¤Ĩà¤° à¤ĵ
à¤°à¤® à¤¦
à¤½ à¤®
à¤°à¤¦ à¤¯
à¥Ģà¤Ĥ à¥¥à¥¥
Ġà¤¸à¤¹ à¤µ
Ġà¤µà¤° à¤°
à¤¶à¤¨ à¤¶
Ġà¤ıà¤« à¤¡à¤¬
Ġà¤ħà¤¹ à¤¸
Ġà¤®à¤¨ à¤²
à¤ĵ à¤ıà¤¸
à¤ī à¤ªà¤¨
à¤¬à¤° à¤§à¤°
Ġà¤ıà¤Ĺ à¤«
Ġ- ):
à¤¤à¤® à¤¹
à¤¯à¤² à¤¹
à¤Ĩà¤Ī à¤ıà¤®
Ġà¤ıà¤¸ à¤¬
à¤¨à¤µ à¤ľ
Ġà¤¬à¤² à¤¶
Ġà¤īà¤ł à¤ĵà¤²
Ġà¤ķà¤¨ à¤¬
Ġà¤ıà¤¨ à¤¡
Ġà¤ªà¤¡ à¤¤
Ġà¤¬à¤¢ à¤¯
Ġà¤ķà¤¤ à¤½
Ġà¤ħà¤¬ à¤¹
à¤®à¤¸ à¤¹
Ġà¤ªà¤°à¤® à¤ªà¤¦
Ġà¤¬à¤¤ à¤¹
Ġà¤Ĳ à¤°
à¤Ńà¤µ à¤®
ĠâĢ Ļ
Ġà¤ħà¤µà¤¸à¤° à¤ªà¤°
Ġà¤¬à¤¸ à¤¥
à¤·à¤¸ à¤Ĺà¤£
à¤ıà¤® à¤¬
à¤ıà¤® à¤ıà¤®
Ġà¤¸à¤ľ à¤Ĺà¤¤
Ġà¤¦à¤¶ à¤Ĺ
à¤°à¤ľà¤¨ à¤¨
âĢĻ à¥¤
à¤¶à¤² à¤ª
à¤ľà¤¯ à¤ķà¤°
Ġà¥© à¥©
Ġà¥© à¥¬
à¤Ĭ à¤ľ
Ġà¤²à¤½ à¤Ĺ
à¥§à¥ª à¥ª
-- "
à¤¯à¤Ń à¤Ł
Ġà¤¹à¤¡ à¤¸à¤¨
' ),
_ _
Ġ //
Ġà¤ ¿
à¤° à¤°à¤¹
à¤¿ âĢĿ
à¤¨ à¤§
à¤¤ à¤Ĺà¤£
à¤ķ à¤²à¤¯
à¤ķ à¤ľà¤®
à¤² à¤Ī
à¤² à¤µà¤¶
à¤¯ à¤¯à¤®
à¤¯ à¤Ļ
à¤¯ à¤Ńà¤ķ
Ġà¤¸ à¤ķà¤°
à¥Ģ à¤ģ,
à¤® à¤¥
Ġà¤ª à¤®
Ġà¤ª à¤ķà¤°
Ġà¤ª à¤¯à¤°
à¤¸ à¤¶
à¤¸ à¤ł
à¤¸ à¤²à¤¨
à¤¸ à¤°à¤®
à¤¸ à¤Łà¤¨
Ġà¤ħ à¤ŀ
Ġà¤ħ à¤¶à¤ķ
Ġà¤ľ à¤¥
Ġà¤ľ à¤¯à¤µ
à¤ª à¤¸à¤®
à¤¦ à¤µà¤ķ
Ġà¤¨ à¤¡
Ġà¤¨ à¤Ĺà¤¦
Ġà¤Ĩ à¤Ľ
Ġà¤Ĩ à¤¨à¤°
à¥¤ "
Ġà¤¹ à¤¬
Ġà¤¹ à¤°à¤¤
Ġà¤¹ à¤°à¤ķà¤¤
à¤Ł à¤¥
à¤Ł à¤ļ
à¤Ł à¤µà¤²
à¤Ĺ à¤µà¤²
à¤Ĺ à¤¬à¤²
Ġà¤µ à¤ĩà¤¸
Ġà¤¦ à¤¤à¤®
à¤¬ à¤ī
à¥Ĥ .
à¤§ à¤¦
à¤§ à¤ªà¤¤
à¤£ à¤ļà¤¨
Ġà¤° à¤«
Ġà¤² à¤µà¤£
à¤ľ à¤¤à¤¨
Ġà¤Ľ à¤Ī
à¥ĩà¤Ĥ âĢĻ
à¤¡ à¤°à¤µ
Ġà¤Ĺ à¤µà¤°
Ġà¤Ĺ à¤°à¤²
Ġà¤Ń à¤¨à¤¸
Ġà¤ī à¤®à¤°
Ġà¤ī à¤ľà¤°
à¤ķà¤° à¤¯
Ġà¤¯ à¤ļ
Ġà¤ĵ à¤¡
Ġà¤ļ à¤ŀ
à¥ĭà¤Ĥ ]
Ġà¤ıà¤ķ à¤¨
à¤¼ à¥Ĥà¥¤
Ġà¤ĸ à¤§
Ġà¤ĸ à¤¯à¤¬
à¤Ī à¤¹
à¤Ī à¤ļ
à¤« à¤µ
Ġà¤ĩ à¤¹à¤²
Ġà¤ĩ à¤¹à¤¤
Ġà¤Ĩà¤µ à¤²
à¤ĩà¤² à¤ĸ
Ġà¤¸à¤¬ à¤¦
à¥ī à¤ģ
Ġà¤Ł à¤¨
à¤ªà¤° à¤¨
Ġà¤°à¤¹ à¤µ
Ġà¤¡ à¤¨à¤«
à¤µà¤° à¤µ
Ġà¤īà¤ª à¤ľà¤²
Ġà¤ĺ à¤¬à¤¡
à¤ŀ à¤®
Ġà¤¬à¤¹ à¤¤
Ġà¤īà¤¤ à¤ªà¤¤
à¤ĸà¤¨ à¤¹
à¤ĵ à¤Ĩà¤°à¤Ĩà¤Ī
à¤¨à¤² à¤¥
à¤ħ à¤Ĺ
à¤ħ à¤¨à¤¨
à¤ħ à¤¥à¤µ
à¤°à¤¶ à¤ķ
Ġ, 'à¥¤
Ġà¤ľà¤¨ à¤®à¤²
à¤¨à¤µ à¤®
à¤¨à¤µ à¤µ
Ġà¤īà¤ł à¤¨
Ġà¤Ŀ à¤¡
à¤¦à¤® à¤Ĺ
Ġà¤¸à¤¤ à¤¸
à¤¸à¤² à¤ªà¤¤
à¤·à¤¯ à¤Ń
Ġà¤ĭ à¤ļ
Ġà¤ľà¤² à¤¦
Ġà¤Ĩà¤Ī à¤Ĩà¤°à¤¸
Ġà¤ķà¤Ī à¤²à¤¸
à¤¿. ,
à¥Įà¤Ĥ :
à¤²à¤² à¤¥
à¤ıà¤® à¤ıà¤¸
à¤ıà¤® à¤ıà¤ļ
Ġà¤ľà¤¤ à¤ķà¤°
âĢĻ )
à¤ľà¤Ĺ à¤¹
Ġà¤¶à¤°à¤£ à¤®
à¤Ńà¤Ĺ à¤µà¤¤
à¤ĥà¥¤ à¥¤
à¤¤à¤°à¤£ à¤ķ
à¤¸à¤µ à¤®
Ġà¥© à¥¨
Ġà¥© à¥ª
Ġà¥© à¥¯
à¤¾' à¥¤
à¤ĩà¤ľ à¤°à¤ķ
à¥Ģ" ,
à¤¨à¤ľ à¤°à¤¬
à¥Ĥà¤Ĥ à¥¤
Ġà¤łà¤¹à¤° à¤²
Ġà¤ĺà¤Łà¤ķ à¤ķ
Ġà¤¬à¤°à¤¸ à¤¯
Ġà¤ıà¤¯à¤° à¤ª
Ġà¤ıà¤®à¤ıà¤« à¤ıà¤²
" ;
à¤° à¤¯à¤®
à¤° à¤½
Ġà¤ķ à¤ľ
à¤¤ à¤ĸ
à¤ķ à¤ªà¤Ł
à¤ķ à¤Łà¤®
à¤² à¤µà¤¤
à¤² à¤¹à¤¨
à¤¯ à¤ĸ
à¤¯ à¤ŀ
à¤¯ à¤«à¤²
Ġà¤¸ à¤¶
Ġà¤¸ à¤Łà¤²
à¤¹ à¤¸à¤®
à¤® à¤®à¤¤
à¤® à¤¬à¤°
Ġà¤ª à¤Łà¤°
Ġà¤ª à¤ĩà¤¸
à¤µ à¤¯à¤µ
à¥ĭ à¥¥à¥¥
à¤¸ à¤½
Ġà¤® à¤ĩ
Ġà¤® à¤¤à¤®
Ġà¤ľ à¤ªà¤¤
Ġà¤ľ à¤Ļ
à¤¦ à¤¡
Ġà¤¨ à¤²à¤¸
Ġà¤¬ à¤Ļ
Ġà¤¬ à¤ĩà¤¸
Ġà¤¬ à¤Łà¤²à¤°
Ġà¤¹ à¤¨à¤¨
à¤Ł à¤§
à¤Ł à¤ľ
Ġà¤¦ à¤¸à¤¨
à¤§ à¤ļà¤¨
Ġà¤ı à¤®à¤°
à¤· à¤®à¤¸
à¤ľ à¤¡
à¤ľ à¤²à¤ķ
à¤ľ à¤¦à¤°à¤¬
à¤ļ à¤°à¤®
Ġà¤ªà¤° à¤§à¤°
à¤ĸ à¤ĩà¤¤
à¤ı à¤¥
à¤ı à¤ķà¤¤
à¤ı à¤ıà¤Ł
Ġà¤¯ à¤µ
Ġà¤¯ à¤®à¤¦
Ġà¤ļ à¤¹à¤²
Ġà¤ļ à¤ªà¤²
Ġà¤Ī à¤ķà¤°
à¥ĭà¤Ĥ )
Ġà¤ıà¤ķ à¤Ĺ
Ġà¤ħà¤¨ à¤§
Ġà¤¬à¤¨ à¤²à¤¹
Ġà¤¹à¤® à¤ķà¤°
à¤¯à¤ķ à¤ķ
à¤¾à¤Ĥ ,
Ġà¤ĩ à¤®à¤°
à¤Ĩ à¤¦à¤°
à¤¿à¤Ĥ )
à¤¿à¤Ĥ ;
à¤¨à¤ķ à¤¤
à¤¨à¤ķ à¤¸
Ġà¤¸à¤¬ à¤Ĺ
à¤ł à¤Ĺà¤°
à¤²à¤¨ à¤®
Ġà¤« à¤¤
Ġà¤Ł à¤ļ
à¤¯à¤® à¤µà¤°
à¤¯à¤® à¤¸à¤Ń
à¤¤à¤° à¤²
à¤Ŀ à¤°
à¤°à¤® à¤¤
à¤½ à¤Ńà¤µà¤¤
Ġà¤¸à¤ķà¤¤ à¤¯
à¤¦à¤ķ à¤¸
à¤ľà¤¨ à¤ª
à¤ľà¤¨ à¤ľ
Ġà¤īà¤¦ à¤¯à¤ķ
à¤¢ à¤ķ
Ġà¤ħà¤¸ à¤®à¤¯
Ġà¤®à¤¨ à¤Ń
à¤¦à¤° à¤¹
à¤®à¤¤ à¤ķ
Ġà¤ĳà¤¸ à¤²
Ġà¤īà¤² à¤Ŀ
à¤°à¤µ à¤§
Ġà¤¤à¤ķ à¤²à¤ķ
à¤ħ à¤µ
Ġà¤ħà¤Ń à¤Ļ
à¤Ĺà¤² à¤¦
Ġà¤ł à¤¹
à¤¤à¤¨ à¤Ń
à¤¯à¤¸ à¤Ńà¤ķ
Ġà¤īà¤ł à¤²à¤¨
Ġà¤¤à¤ĸà¤¨ à¤¤à¤ĸà¤¨
Ġà¤¸à¤¤ à¤Ń
à¤¸à¤² à¤¹
à¤®à¤¸ à¤Ń
Ġà¤¬à¤° à¤Ĺà¤¦
Ġà¤¬à¤° à¤Ĺà¤¦à¤ķ
Ġà¤Ĳ à¤ļ
à¤¯à¤£ à¤°
Ġà¤Ĩà¤ľ à¤ķ
Ġà¤Ĩà¤Ī à¤¬
Ġà¤°à¤ĸà¤² à¤¥
Ġà¤°à¤ĸà¤² à¤ĸ
à¤²à¤Ĺ à¤£
à¤²à¤Ĺ à¤Ńà¤Ĺ
Ġ[ à¥¤
Ġà¤¨à¤® à¤¹à¤°
à¤§à¤ķ à¤¦
à¥ĩ) :
Ġà¤¦à¤¶ à¤¶
Ġà¤¦à¤¶ à¤¹à¤°
à¤ĳ à¤¨à¤²
Ġà¤ľà¤Ĺà¤¹ à¤ľà¤Ĺà¤¹
Ġà¤ªà¤¸ à¤°à¤¤
Ġà¤¬à¤¦ à¤¤à¤°
à¥§à¥ª à¥§
à¥§à¥ª à¥Ń
Ġà¤Ĺà¤ª à¤Ĺà¤ª
Ġà¤ıà¤Ĩà¤Ī à¤ıà¤«
à¥ĩ' ,
Ġà¥¨à¥¦ à¥¦
Ġà¥¨à¥¦ à¥§à¥Ń
Ġ] ;
Ġà¤¹à¤¤ à¤Ń
à¤Ķ à¤·à¤§
Ġà¤¤à¤Ł à¤ªà¤°
Ġà¤®à¤¶ à¤¹
à¤Ĺà¤ł à¤¨à¤ķ
à¤ıà¤ıà¤¸ à¤Ĩà¤Īà¤¸
à¤®à¤¸à¤® à¤°
Ġà¤Ĺà¤°à¤¦ à¤¨
' :
Ġ à¥į
à¥ĩ ?
à¤¨ à¤½
à¤¨ à¤ªà¤¤
à¤¤ à¤²à¤¹
à¤ķ à¤ľà¤¨
à¤ķ à¤«à¤°
à¤² à¤ı
à¤² à¤½
à¤² à¤ľà¤¨
à¤² à¤®à¤£
à¤² à¤§à¤°
à¤¯ à¤·
à¤¯ à¤ªà¤¤
à¤¯ à¤¹à¤°
Ġà¤¸ à¤°à¤¦
Ġà¤¸ à¤ıà¤¹
à¤® à¤¯à¤µ
à¤® à¤Ńà¤°
Ġà¤ª à¤¦à¤®
Ġà¤ª à¤Ĺà¤¡
à¤µ à¤¯à¤µà¤²
à¤¸ à¤ĸ
à¤¸ à¤®à¤¨
à¤¸ à¤«à¤°
Ġà¤® à¤ŀ
à¥ģ -
Ġà¤ľ à¤²à¤¯
à¤ª à¤²à¤ķ
à¤ª à¤¶à¤¨
à¤ª à¤®à¤¤
Ġà¤Ĩ à¤·
à¥Ī ]
à¥Ī à¤ĥà¥¥
à¤Ĺ à¤ħ
à¤Ĺ à¤¨à¤°
Ġà¤µ à¤ŀ
Ġà¤µ à¤¨à¤¦
Ġà¤¦ à¤¯à¤¨
à¤¬ à¤§
à¤§ à¤µà¤ķ
à¤· à¤¯à¤µ
à¤· à¤°à¤¹
à¤· à¤¤à¤®
à¤£ à¤²
Ġà¤² à¤Ń
Ġà¤² à¤ıà¤²
Ġà¤² à¤¹à¤²à¤¹
à¤¥ à¤¨à¤ķ
à¤¥ à¤²à¤ķ
à¤ľ à¤§à¤°
Ġà¤Ľ à¤ªà¤²
à¤ļ à¤°à¤ķ
Ġà¤¤ à¤°à¤£
Ġà¤¤ à¤Łà¤¸
à¤¡ à¤ıà¤ķ
Ġà¤Ĺ à¤¸
Ġà¤Ĺ à¤ŀ
à¤ĸ à¤¯à¤ķ
à¤Ń à¤ľ
à¤Ń à¤¶
à¤ĩ à¤§
Ġà¤ī à¤Ńà¤¯
Ġà¤¶ à¤ļ
Ġà¤¯ à¤ľà¤¨
Ġà¤¸à¤® à¤°à¤¸à¤¤
Ġà¤Ī à¤²
Ġà¤Ī à¤ľ
Ġà¤ħà¤¨ à¤ĺ
à¤°à¤£ à¤µ
à¤°à¤£ à¤¶
à¤°à¤¤ à¤µ
à¤Ī à¤¥
à¤Ī à¤ĵ
à¤« à¤£
à¤¾à¤ģ )
à¤ıà¤² à¤¬
à¤Ĩ à¤ļ
Ġà¤¸à¤ķ à¤²à¤ķà¤²
à¤²à¤¨ à¤¹
à¤¤à¤° à¤ľ
à¤¤à¤° à¤¹à¤ķ
à¤ĺ à¤ľ
à¤ĺ à¤¡
Ġà¤Ķ à¤ķ
à¤Ĩà¤° à¤Īà¤¸
à¤ĩà¤¤ à¤¨
Ġà¤ķà¤ıà¤² à¤ķà¤¨
à¤Ŀ à¤¬à¤¯
Ġà¤¡ à¤«
Ġà¤¡ à¤Łà¤²
à¤µà¤° à¤«
Ġà¤ķà¤¹ à¤ķ
Ġà¤īà¤ª à¤¬
Ġà¤īà¤ª à¤°à¤ķ
Ġà¤īà¤ª à¤®à¤¹
à¤µà¤¨ à¤ļà¤°
Ġà¤®à¤¹ à¤¦
Ġà¤®à¤¹ à¤Ĺ
Ġà¤Ĩà¤¦ à¤°à¤¸à¤¤
à¤¶à¤¨ à¤µ
à¤ĵ à¤Ĩà¤°
à¤ī à¤¡à¤°
à¤·à¤£ à¤Ń
Ġà¤ķà¤® à¤ł
Ġà¤ķà¤°à¤¬ à¤¯
Ġà¤īà¤ļ à¤ķ
à¤ķà¤¨ à¤¨
Ġà¤¤à¤ķ à¤²à¤¨
à¤¤à¤µ à¤¸
à¤ķà¤² à¤¹
Ġ' )
Ġà¤¸à¤®à¤Ŀ à¤²à¤ķ
Ġà¤ıà¤¹à¤¨ à¤¹
Ġà¤ł à¤ł
à¤Ĩà¤Ī à¤ª
à¤¨à¤µ à¤¦
Ġà¤¬à¤² à¤µà¤¤
à¤°à¤² à¤ĸ
Ġà¤Ŀ à¤Łà¤ķ
à¤®à¤£ à¤¸
Ġà¤Ĭ à¤·
à¤¶à¤ķ à¤¶
Ġà¤¨à¤µ à¤¸
à¤µà¤¸ à¤¹
Ġà¤Ĩà¤ª à¤¸à¤®
Ġà¤Ĩà¤Ī à¤ķ
Ġà¤Ĩà¤Ī à¤µ
Ġà¤ıà¤® à¤¡
Ġà¤ıà¤® à¤ı
Ġà¤Ńà¤¯ à¤Ļ
à¤¬à¤² à¤Łà¤¨
Ġà¤ľà¤Ĺ à¤¬
Ġà¤¬à¤¸ à¤¬
à¤ķà¤ķ à¤¥
à¤ķà¤Ł à¤¤à¤®
Ġà¤ķà¤¯à¤ķ à¤¯
Ġà¥© à¥Ń
Ġà¥© à¥®
Ġà¤ĵà¤¤ à¤ı
à¥Ģ" :
Ġà¥ª à¥©
Ġà¤Ĩà¤ī à¤Łà¤²
Ġà¤Ĩà¤ī à¤Łà¤¸
Ġà¤ħà¤« à¤µ
Ġà¤īà¤ľ à¤¡
à¥§à¥ª à¥«
Ġ[-] )
Ġà¤²à¤² à¤ļ
Ġà¤ıà¤ı à¤ª
à¥¦à¥¦ à¥¦
Ġà¤ľà¤¯à¤¬ à¤¹
Ġà¤ĵà¤ł à¤Ĺà¤¨
Ġà¤ľà¤ĩ à¤ķà¤¨
Ġà¥ł à¤·
à¤¾ à¥Ī
à¤° à¤Ĺà¤¨
à¥ĩ --
à¤¨ à¤·
à¤¨ à¤ľà¤¨
à¤¨ à¤¹à¤°
à¤¨ à¤®à¤°
à¤¨ à¤¬à¤¯
à¤¤ à¤Ļ
à¤¤ à¤¬à¤¹
à¤ķ à¤¸à¤®
à¤² à¤ªà¤¨
à¤² à¤ļà¤¨
à¤² à¤§à¤¨
à¤² à¤ľà¤²
à¤¯ à¤Łà¤®
Ġà¤¸ à¤¸à¤°
Ġà¤¸ à¤°à¤µ
Ġà¤¸ à¤§à¤¨
à¥Ģ ?
à¤¹ à¤Ń
à¤® à¤·
à¤® à¤Ŀ
à¤¸ à¤¥
Ġà¤ħ à¤ķà¤°à¤£
à¥ģ à¥į
Ġà¤ľ à¤ĺà¤¨
Ġà¤ľ à¤ķà¤¡
Ġà¤ľ à¤ıà¤¬
à¤ª à¤¯à¤¨
à¤¦ à¤°à¤®
Ġà¤¨ à¤µà¤§
Ġà¤¨ à¤ĵà¤¤
Ġà¤¬ à¤²à¤ķ
à¥Ī ),
Ġà¤¹ à¤ļ
Ġà¤¹ à¤Łà¤¬
à¤Ł à¤Ł
à¤Ł à¤¶
à¤Ł à¤¤à¤¨
à¤Ł à¤ªà¤¦
à¤Ł à¤Ĩà¤īà¤Ł
à¤Ĺ à¤¸à¤Ń
à¤Ĺ à¤°à¤£à¤ķ
Ġà¤µ à¤¡
Ġà¤¦ à¤²à¤¨
Ġà¤¦ à¤°à¤®
à¤¬ à¤¢
à¥Ĥ /
Ġà¤ı à¤¬à¤°
à¤· à¤Ĺ
à¤· à¤°à¤¤
à¤· à¤¸à¤¨
Ġà¤° à¤¶à¤¬
à¤ģ à¥¥
Ġà¤² à¤¦
Ġà¤² à¤¯à¤¬
à¤¥ à¤¦
à¤¶ à¤ķà¤°
à¤ļ à¤ª
à¤ļ à¤¨à¤ķ
à¤ļ à¤°à¤£à¤ķ
à¤¡ à¤ıà¤«
Ġà¤ªà¤° à¤¤à¤°
Ġà¤Ń à¤ľà¤¤
Ġà¤Ń à¤°à¤£à¤ª
Ġà¤ĵ à¤¯
Ġà¤ĵ à¤ıà¤¹
Ġà¤ĵ à¤ıà¤¨à¤ı
Ġà¤Ī à¤¤
à¤ªà¤¨ à¤¸
Ġà¤§ à¤°à¤¯
Ġà¤§ à¤¨à¤¤
Ġà¤ĸ à¤ļ
à¤°à¤£ à¤ķà¤¨
à¤Ī à¤ı
à¤Ī à¤ıà¤ıà¤²
Ġà¤¹à¤® à¤¸à¤Ń
à¤« à¤²à¤ķ
à¤¿à¤Ĥ à¥¥à¥¥
à¤ł à¤ª
à¤ł à¤¦
à¤ł à¤¬
Ġà¤ħà¤ªà¤¨ à¤¤
à¤¯à¤® à¤¸à¤¨
à¤²à¤¯ à¤¥
Ġà¤°à¤¹ à¤¤à¤¨
à¤ĺ à¤°à¤®
Ġà¤Ķ à¤²
à¤Ĩà¤° à¤ıà¤®à¤ı
à¤°à¤® à¤¯
à¤µà¤° à¤ľ
Ġà¤¤à¤° à¤²
à¤µà¤² à¤¸
à¤ŀ à¤ķà¤°
à¤¢ à¤¤à¤®
à¤¦à¤° à¤¨
à¤°à¤µ à¤ª
à¤°à¤µ à¤¶
Ġà¤¤à¤ķ à¤ĩà¤¤
Ġà¤ľà¤¹ à¤µ
à¤ħ à¤·
à¤ħ à¤Ľ
Ġà¤°à¤ĸ à¤ķà¤°
Ġà¤ħà¤² à¤Ļ
Ġà¤ªà¤¤ à¤²
Ġà¤ħà¤Ń à¤¦
Ġ, ]
à¤¤à¤® à¤¸
à¤¯à¤² à¤Ł
Ġà¤¸à¤° à¤¨
Ġà¤¸à¤° à¤¬
Ġà¤¬à¤² à¤ª
Ġà¤¬à¤² à¤ľ
à¤¹à¤¨ à¤¬
Ġà¤ıà¤ķà¤° à¤¸
Ġà¤Ŀ à¤°
Ġà¤Ĭ à¤²à¤µà¤°
Ġà¤ķà¤² à¤ª
à¤Łà¤² à¤Ĩà¤Īà¤Ĩà¤Ī
Ġà¤¬à¤° à¤Ľ
à¤ıà¤ļ à¤Ĩà¤Ī
Ġà¤Ĩà¤¨ à¤Ĩà¤¨
à¤°à¤¥ à¤®à¤¤
à¤µà¤£ à¤µà¤ļà¤¨
à¤¶à¤ķ à¤ķ
à¤¨à¤¸ à¤ª
à¤ıà¤« à¤ľ
Ġà¤¤à¤¤ à¤¹
à¤ĩà¤Ł à¤¹
Ġà¤ªà¤¢ à¤²à¤¹
à¤¯à¤£ à¤¤
Ġà¤ħà¤ķ à¤¥à¤¨
Ġà¤ıà¤¤ à¤ı
à¤ıà¤¨ à¤¡à¤¬
à¤°à¤ª à¤ŀ
Ġà¤Ńà¤°à¤¤ à¤µ
Ġà¤Ĩà¤® à¤¦à¤¨
à¤Ĺà¤¦ à¤µà¤ļà¤¨
à¤ıà¤® à¤ıà¤«
Ġà¤ľà¤¨à¤ķ à¤µ
à¤°à¤ļ à¤¢
Ġà¤ľà¤¤ à¤¹à¤¨
à¤ĳ à¤¨à¤µà¤°
Ġà¤¯à¤ľ à¤®
à¤ļà¤ķ à¤®
à¥įà¥¤ à¥¤
Ġà¤ķà¤Ł à¤¬
à¤ĸà¤° à¤ļà¤¨
à¤Ĭ à¤¨
Ġà¤µà¤¶ à¤®
Ġà¤ĵà¤¤ à¤½
Ġà¤¨à¤° à¤°
Ġà¤°à¤¥ à¤¯
Ġà¤°à¤¥ à¤ªà¤°
") ;
Ġà¤ħà¤µà¤¤ à¤°à¤£
Ġà¤ıà¤ıà¤¸ à¤ıà¤ķ
à¤ªà¤¹ à¤ļ
à¥§à¥« à¥¨
à¥§à¥« à¥«
Ġà¤īà¤¹ à¤¹
Ġà¥§à¥¦ à¥®
Ġà¤Ĺà¤¹ à¤¯
Ġà¤Ńà¤Ł à¤ķà¤²
Ġà¤īà¤¤à¤° à¤¨
Ġ] à¥¤
Ġà¤Ĩà¤¸à¤¨ à¤ªà¤°
Ġ[-] ,
Ġà¤¨à¤°à¤ķ à¤ķ
Ġà¤ĸà¤¸à¤² à¤¹
Ġà¤ıà¤¯ à¤°à¤¸à¤°
Ġà¤ıà¤ı à¤¡
Ġà¤ĵà¤µà¤° à¤¡
Ġà¤ĩà¤¦ à¤®à¤ķ
Ġà¤īà¤ĸ à¤¡
à¤īà¤ª à¤§
Ġà¤ļà¤® à¤¡
Ġà¤¨à¤ľà¤°à¤¬ à¤¨
à¤ıà¤®à¤Ĩà¤Ī à¤ı
à¥Ĳ à¥Ĳ
Ġà¤Īà¤ıà¤¸ à¤ĵà¤ıà¤¸
Ġà¤ħà¤ļà¤° à¤ľ
Ġà¤ıà¤®à¤Ĩà¤Ī à¤ıà¤®à¤Ĩà¤Īà¤ı
Ġà¤ĩà¤®à¤° à¤ľ
Ġà¤²à¤¯à¤¬ à¤¦
? ;
à¤° à¤Ļ
à¤° à¤Ĺà¤¦
à¤¿ âĢĶ
Ġà¤ķ à¤ļà¤°
Ġà¤ķ à¤ĩà¤ķ
à¤¨ à¤ĩ
à¤¨ à¤®à¤¨
à¤¨ à¤¬à¤²
à¤¨ à¤¬à¤¦
à¤¤ à¤§
à¤¤ à¤Ĺà¤°
à¤¤ à¤¸à¤Ńà¤ķ
à¤ķ à¤ıà¤²
à¤ķ à¤²à¤ķ
à¤ķ à¤®à¤¨
à¤ķ à¤ªà¤°à¤®
à¤² à¤Ĭ
à¤¯ à¤Ĺà¤£
Ġà¤¸ à¤¨à¤²
Ġà¤¸ à¤ĺà¤¨
à¤¹ à¤Ī
à¤® à¤¶à¤ķ
à¤® à¤¯à¤µà¤²
Ġà¤ª à¤ıà¤²
Ġà¤ª à¤¯à¤¸
à¤µ à¤µà¤²
à¤µ à¤¦à¤°
à¤µ à¤ķà¤¨
à¤µ à¤¹à¤¤
à¤¸ à¤ħà¤ª
Ġà¤ħ à¤Ĺà¤¨
Ġà¤ľ à¤ªà¤²
Ġà¤ľ à¤ĩà¤ķ
à¤ª à¤Ĺ
à¤¦ à¤®à¤¤
Ġà¤¨ à¤²à¤¨
Ġà¤Ĩ à¤®à¤ľ
Ġà¤¬ à¤¥
Ġà¤¬ à¤¦à¤°
Ġà¤¬ à¤ªà¤¹
à¥Ī 'à¥¤
Ġà¤¹ à¤°à¤¹
Ġà¤¹ à¤Łà¤²
Ġà¤¹ à¤ıà¤¤
à¤Ł à¤¨à¤ķ
à¤Ł à¤¬à¤°
à¤Ĺ à¤°à¤¤
à¤Ĺ à¤µà¤°
Ġà¤¦ à¤¹à¤ķ
à¤¬ à¤²à¤ķ
à¤§ à¤ļ
à¤§ à¤µà¤¸
Ġà¤ı à¤¡à¤²à¤°
à¤· à¤²
à¤· à¤ķà¤°
à¤· à¤¯à¤¸
à¤£ à¤¬
Ġà¤² à¤¦à¤²
à¤¥ à¤°à¤ķ
à¤ľ à¤®à¤¨
à¤ľ à¤µà¤¸
à¤¶ à¤¯à¤¨
à¤¶ à¤Ńà¤ķ
à¤ļ à¤ªà¤°
à¤ļ à¤ªà¤¡
à¥ĩà¤Ĥ à¥¥
Ġà¤ķà¤° à¤¯à¤®
Ġà¤¤ à¤ķà¤¯
Ġà¤¤ à¤®à¤°
à¤¡ à¤ķà¤°
à¤¡ à¤ªà¤°
Ġà¤Ĺ à¤ľà¤¬
Ġà¤ªà¤° à¤¸à¤¨
Ġà¤ªà¤° à¤µà¤°
Ġà¤ªà¤° à¤¤à¤¨
Ġà¤ªà¤° à¤µà¤¶
à¤ĸ à¤ļ
Ġà¤Ń à¤°à¤¯
à¤ı à¤¬à¤²
à¤ĩ à¤¯à¤¤
à¤ĩ à¤¬à¤²
à¤ĩ à¤¡à¤°
Ġà¤ī à¤ķà¤Ł
à¤ķà¤° à¤¦
Ġà¤¯ à¤®à¤²
Ġà¤¯ à¤®à¤ª
Ġà¤ĵ à¤ıà¤²
Ġà¥¤ )
Ġà¤ıà¤ķ à¤ł
à¤¼ à¥¤
Ġà¤§ à¤¤
Ġà¤§ à¤¨à¤¸
Ġà¤ħà¤¨ à¤¤
à¤°à¤£ à¤¹
Ġà¤¬à¤¨ à¤ķà¤°
Ġ( /
Ġà¤ĩ à¤¨à¤µ
à¤¿à¤Ĥ à¤ģ
Ġà¤« à¤ķà¤°
Ġà¤Ł à¤¸
à¤¤à¤° à¤¨
Ġà¤Ķ à¤¨
à¤Ĺà¤¤ à¤µà¤¤
Ġà¤ķà¤ıà¤² à¤¹
Ġà¤¡ à¤Łà¤¨
Ġà¤¸à¤Ń à¤ªà¤°
Ġà¤Ķà¤° à¤¦
Ġà¤¤à¤° à¤²à¤¤
Ġà¤ħà¤ª à¤²
Ġà¤ħà¤ª à¤¡
Ġà¤ħà¤ª à¤¸à¤µ
à¥Īà¤Ĥ )
Ġà¤ĺ à¤¨à¤¨
Ġà¤ĺ à¤®à¤¨
Ġà¤ĺ à¤Łà¤¤
à¤ŀ à¤µ
Ġà¤¸à¤¹ à¤®
Ġà¤īà¤¤ à¤°à¤¤
Ġà¤¥ à¤²à¤¨
à¤ľà¤¨ à¤¹
à¤¶à¤¨ à¤®
à¤¦à¤¨ à¤®
à¤¢ à¤¨
à¤¢ à¤¸
Ġ" (
à¤ĵ à¤¨à¤ķ
à¤ī à¤µ
à¤ī à¤¦à¤°
à¤ī à¤Ĺà¤¨
à¤ī à¤ªà¤¸
à¤¹à¤° à¤²
à¤¯à¤° à¤¡
Ġ, ;
Ġà¤Ĩà¤Ĺ à¤¨
Ġà¤ħà¤¤ à¤¨
Ġà¤ľà¤¨ à¤²à¤ķ
Ġà¤ľà¤¨ à¤¬à¤°
à¥ĩà¥¤ âĢĻ
à¤ıà¤¸ à¤Ĩà¤Ī
à¤ªà¤ķ à¤ķ
Ġà¤ıà¤ļ à¤¬
Ġà¤Ńà¤Ĺ à¤¬
Ġà¤ıà¤¸ à¤Ĺà¤°
Ġà¤ıà¤¸ à¤ıà¤²à¤ª
à¤®à¤£ à¤®
Ġà¤ıà¤¨ à¤Ĩà¤°à¤ıà¤®à¤ı
Ġà¤¬à¤¡ à¤ª
à¤§à¤¨ à¤¸
Ġà¤ķà¤°à¤¯ à¤¬à¤²
Ġà¤¬à¤ļ à¤¯
à¤Łà¤² à¤¹
Ġà¤¬à¤° à¤Ĺ
à¤ļà¤° à¤°
à¤ķà¤¤ à¤µà¤°
Ġà¤īà¤¸ à¤ķà¤°
à¤®à¤ľ à¤ª
à¤®à¤ľ à¤¬
Ġà¤Ĳ à¤ķà¤°
à¤Ļ à¤Łà¤¨
Ġà¤¨à¤µ à¤ķà¤¨
Ġà¤ĭ à¤·à¤¯
Ġà¤ľà¤² à¤°
Ġà¤ıà¤² à¤Īà¤¡
Ġà¤ļà¤°à¤£ à¤®
Ġà¤ļà¤°à¤£ à¤ª
Ġà¤ħà¤µà¤§ à¤ªà¤¤
Ġà¤¸à¤ļ à¤¸à¤ļ
Ġà¤°à¤ľ à¤¸
à¤µà¤°à¤£ à¤®
Ġà¤Ńà¤°à¤¤ à¤¹
Ġà¤ĵà¤¤à¤¯ à¤ĵà¤¤à¤¯
à¤·à¤® à¤¯
Ġà¥Ĳ à¤ķ
Ġà¤¸à¤ľ à¤¬
Ġà¤²à¤¡ à¤ķ
âĢĻ ,
à¤ľà¤Ĺ à¤£
Ġà¤²à¤Ĺà¤¤ à¤¨
Ġà¤ļà¤¢ à¤¬
Ġà¤ľà¤Ĺà¤¤ à¤ķ
Ġà¤ľà¤ĩà¤¸à¤¨ à¤¹
à¤¸à¤¬ à¤¹à¤ķ
Ġà¤ĵà¤¤ à¤¬à¤¹
Ġà¥ª à¥§
Ġà¥ª à¥¨
à¤¿- -
à¥§à¥ª à¥®
Ġà¤Ĺà¤® à¤Ľ
à¥§à¥« à¥¬
Ġà¤ħà¤¸à¤¹ à¤ľ
Ġ% ;
à¤Ĺà¤ª à¤Ĺ
Ġà¤ĵà¤µà¤° à¤°
Ġà¤ķà¤²à¤¶ à¤¸
Ġà¤¦à¤¶à¤ķ à¤£
à¤¨à¤Ĺà¤° à¤ª
Ġà¤Ĺà¤°à¤ľ à¤²
Ġà¤²à¤¯à¤² à¤¯à¤ķà¤¯
Ġà¥ł à¤¤
Ġà¤¬à¤¦à¤²à¤¯ à¤µà¤²
Ġà¤Īà¤ı à¤ıà¤®
Ġà¤ħà¤²à¤ķ à¤¤à¤°
à¤ıà¤®à¤ıà¤ļ à¤ľ
Ġà¤Ĩà¤®à¤ľ à¤¨à¤ķ
à¤ıà¤¸à¤Ĩà¤Ī à¤Ĩà¤°à¤ĵ
à¤ ±
à¤¾ à¤¾
à¤° à¤ªà¤¨
à¤° à¤Ī
Ġà¤ķ à¤¨à¤¨
Ġà¤ķ à¤ĵà¤¨
à¤¨ à¤¤à¤°
à¤¨ à¤Łà¤¨
à¤¤ à¤Ĺà¤¤
à¤ķ à¤µà¤¨
à¤² à¤®à¤¸
à¤² à¤²à¤¹
à¤² à¤²à¤¸
Ġà¤¸ à¤°à¤¹
à¤Ĥ "
à¤Ĥ -
à¤¹ à¤½
à¤® à¤Ļ
à¤® à¤łà¤¤
Ġà¤ª à¤¤à¤°
Ġà¤ª à¤Ĺà¤²
Ġà¤ª à¤ĵà¤²à¤ķ
Ġà¤ª à¤Ĺà¤ªà¤Ĺ
à¤µ à¤®à¤¨
à¤µ à¤ĺà¤°
Ġà¤® à¤²à¤¯
Ġà¤® à¤½
Ġà¤® à¤¸à¤ķ
Ġà¤® à¤¦à¤®
à¥ģ "
à¤ª à¤Ľ
à¤¦ à¤ķà¤°
à¤¦ à¤ķà¤°à¤£
à¤¦ à¤ī
Ġà¤¨ à¤«
Ġà¤¨ à¤½
Ġà¤¨ à¤ļà¤¬
Ġà¤¨ à¤Łà¤µà¤°
Ġà¤Ĩ à¤¸à¤°
Ġà¤Ĩ à¤Ĺà¤°
Ġà¤Ĩ à¤Ļ
Ġà¤Ĩ à¤Ĭ
Ġà¤¬ à¤ĩà¤¸à¤²
Ġà¤¹ à¤¯à¤¬
à¤Ł à¤°à¤¹
à¤Ł à¤¸à¤Ń
à¤Ł à¤¦à¤²
à¤Ĺ à¤«
Ġà¤¦ à¤ıà¤²à¤¨
à¤¬ à¤°à¤¸
à¤¬ à¤¨à¤ķà¤°
à¤¬ à¤ıà¤ķ
à¤¬ à¤Łà¤°à¤µà¤°
à¤§ à¤¹
à¤§ à¤°à¤¤
à¤§ à¤Ĺà¤¦
Ġà¤ı à¤¤à¤µ
Ġà¤ı à¤¥à¤°
Ġà¤ı à¤ıà¤ı
à¤· à¤°à¤£
à¤· à¤¯à¤°
à¤· à¤®à¤£
à¤£ à¤¯à¤®
à¤£ à¤ªà¤°
Ġà¤° à¤¸à¤¨
à¤ľ à¤Ĺà¤¤
à¤ľ à¤°à¤¬
Ġà¤Ľ à¤Ĳà¤¨
à¤ļ à¤¤à¤¤
Ġà¤ķà¤° à¤¯à¤²
à¤¡ à¤¹
à¤¡ à¤ıà¤²à¤Ĩà¤°
à¤¡ à¤Łà¤¨
à¤¡ à¤¨à¤°
Ġà¤Ĺ à¤Ł
Ġà¤Ĺ à¤Ľ
Ġà¤Ĺ à¤¨à¤¯
à¤ĸ à¤¯à¤µ
Ġà¤Ń à¤Ĺà¤²
Ġà¤Ń à¤¨à¤¹
Ġà¤Ń à¤ľà¤¹
à¤ı à¤¬à¤°
à¤Ń à¤Ļ
à¤ĩ à¤ªà¤ķ
à¤ĩ à¤ıà¤ķ
Ġà¤ī à¤Ł
à¤ķà¤° à¤²
à¤ķà¤° à¤¸
à¤ķà¤° à¤¶
Ġà¤ĵ à¤ªà¤²
Ġà¤Ľà¤² à¤Ľ
Ġà¤ļ à¤¶
Ġà¤ļ à¤ªà¤Ł
Ġà¤ıà¤ķ à¤ķ
à¤¼ à¥Ģà¤Ĥ,
à¥ĥ à¥į
Ġà¤ħà¤¨ à¤ªà¤¢
à¤°à¤¤ à¤ª
à¤°à¤ķ à¤®
à¤°à¤ķ à¤ķà¤¨
à¤°à¤ķ à¤¸à¤Ń
à¤¯à¤ķ à¤¥
Ġ( $
Ġà¤ĩ à¤°à¤µ
à¤Ĩ à¤ĩà¤¨
à¤Ĩ à¤īà¤°
à¤¨à¤ķ à¤²
à¤ĩà¤² à¤®
Ġà¤« à¤¸
Ġà¤Ł à¤¨à¤²
à¤¯à¤® à¤Ĺ
à¤¯à¤® à¤¨à¤ķ
à¤ªà¤° à¤¯
Ġà¤°à¤¹ à¤¯à¤µ
Ġà¤°à¤¹ à¤®à¤¤
à¤ĺ à¤µà¤Ĺ
à¤Ĺà¤¤ à¤®
Ġà¤¡ à¤°à¤²
à¤½ à¤Ĺ
à¤½ à¤¹à¤®
Ġà¤ħà¤ª à¤¹
à¤µà¤¨ à¤¤
Ġà¤ĳ à¤¨à¤°
à¤²à¤ķ à¤Ł
à¤ŀ à¤Ń
à¤¦à¤ķ à¤¸à¤Ńà¤ķ
à¤ľà¤¨ à¤¤
à¤ľà¤¨ à¤¸
Ġà¤ıà¤« à¤ıà¤¸à¤Ĩà¤°
Ġà¤²à¤Ĺ à¤¹
Ġ" '
Ġà¤ħà¤¹ à¤Ļ
à¤ī à¤¬
à¤¦à¤° à¤ª
à¤®à¤¤ à¤®
à¤·à¤£ à¤¸
Ġà¤ķà¤® à¤£
Ġà¤Ĩà¤¯ à¤¸
à¤Łà¤° à¤¬
à¤Łà¤° à¤ļ
à¤ħ à¤¸à¤²
à¤ħ à¤µà¤®
Ġà¤¹à¤° à¤Ĺ
Ġà¤¹à¤° à¤¯à¤µ
Ġà¤ħà¤µ à¤¦
Ġà¤°à¤ĸ à¤½
à¤Ĺà¤² à¤°
Ġà¤¸à¤®à¤Ŀ à¤ķà¤°
Ġà¤ľà¤¨ à¤ļ
Ġà¤ľà¤¨ à¤Ń
à¤¤à¤¨ à¤®
à¤¨à¤µ à¤¸
Ġà¤Ĩà¤ļà¤°à¤£ à¤Ń
Ġà¤¸à¤¦ à¤Ĺ
Ġà¤Ŀ à¤ªà¤ķ
Ġà¤ķà¤¨ à¤¯
à¤¤à¤ķ à¤¹
à¤¤à¤ķ à¤ªà¤°
Ġà¤ĺà¤° à¤¨
à¤µà¤£ à¤¦
à¤¨à¤¸ à¤¹
à¤ıà¤« à¤¡
à¤ıà¤« à¤ıà¤¸
à¤ıà¤« à¤ıà¤¨
Ġà¤¨à¤µ à¤ľ
à¥ª à¥¨à¥ª
Ġà¤ĭ à¤ķ
Ġà¤§à¤¨ à¤®
Ġà¤ķà¤ª à¤Łà¤®
à¤¡à¤² à¤Ĺ
Ġà¤ħà¤ķ à¤¬à¤°
Ġà¤ıà¤¤ à¤¦
à¤ķà¤¹ à¤®
Ġà¤Ńà¤¯ à¤ī
à¤ªà¤Ł à¤¯
à¤¨à¤® à¤µ
à¤·à¤¸ à¤Ĺà¤£à¤ķ
Ġà¤Ńà¤°à¤¤ à¤¶à¤¤
à¤Ĺà¤¦ à¤ľ
à¤·à¤® à¤§
à¤°à¤ļ à¤¨à¤ķ
à¤ĳ à¤Ł
Ġà¤¶à¤ªà¤¥ à¤Ĺ
Ġà¤ħà¤ľ à¤Ĺà¤°
Ġà¤¬à¤¨à¤¬ à¤¯à¤µà¤²
Ġà¤ĺà¤Ł à¤¯
Ġà¤ħà¤« à¤¸à¤°
Ġà¥« à¥¦
à¤ķà¤ª à¤¡
Ġà¤ªà¤² à¤¡
Ġà¤Ĩà¤½ à¤½à¤½
à¥ĩ" ;
Ġà¤°à¤ļ à¤²à¤ķ
Ġà¤Ńà¤ľà¤¨ à¤¸
à¥§à¥« à¥§
à¥§à¥« à¥©
à¥§à¥« à¥ª
à¥§à¥« à¥Ń
ĠâĢľ [
Ġà¤ıà¤«à¤ıà¤® à¤ı
Ġà¤ĺà¤¨ à¤Ĺà¤°
à¥§à¥Ń à¥«
à¥§à¥¬ à¥©
Ġà¤ļà¤®à¤ķ à¤¤
Ġà¤ħà¤®à¤° à¤¨
Ġà¤ķà¤ļ à¤¹à¤°
Ġ] :
à¤Ķ à¤ķ
Ġ[-] )à¥¤
Ġà¤§à¤¯ à¤²à¤¨
à¤¦à¤°à¤¤ à¤®
Ġà¤īà¤§ à¤µà¤ľ
Ġà¤ªà¤łà¤¨ à¤ª
Ġà¤¤à¤² à¤µà¤ķ
Ġà¤ıà¤¯à¤° à¤¬
à¤°à¤ĺ à¤£
à¤ĩà¤Łà¤° à¤°
Ġà¤¶à¤¹ à¤°à¤®
à¤½à¤½ à¤½
à¤¹à¤ª à¤ŀ
à¤Ĩà¤¹ à¤Ĺà¤²
Ġà¤ıà¤¨à¤ı à¤ıà¤®à¤¡à¤¬
Ġ(âĢ ľ
Ġà¤¶à¤¹à¤¨ à¤¹à¤¨
) ),
] ,
Ġ à¥ĩ
à¤¾ /
à¤¾ à¥ĩ
à¤° à¤ļà¤°
à¤° à¤ıà¤®
Ġà¤ķ à¤Ĺ
Ġà¤ķ à¤²à¤¯
Ġà¤ķ à¤Łà¤¨
Ġà¤ķ à¤¸à¤²
Ġà¤ķ à¤Łà¤¤
à¤¨ à¤°à¤¸
à¤¨ à¤ĩà¤¤
à¤¨ à¤¯à¤¤
à¤¤ à¤¯à¤¨
à¤ķ à¤ªà¤¨
à¤ķ à¤¹à¤¤
à¤ķ à¤¤à¤ķ
à¤ķ à¤ªà¤²
à¤¯ à¤Ĺà¤¤
Ġà¤¸ à¤¯à¤¨
Ġà¤¸ à¤ªà¤¤
à¤¹ à¤°à¤Ń
à¤¹ à¤Ĺà¤°
à¤® à¤°à¤¤
à¤® à¤²à¤¨
à¤® à¤ªà¤¦
à¤® à¤īà¤¨
Ġà¤ª à¤¸à¤¨
Ġà¤ª à¤¦à¤¨
à¤µ à¤Ī
à¤µ à¤ķà¤²
à¤µ à¤®à¤¸
à¤µ à¤ļà¤°
à¤µ à¤®à¤ľ
à¤¸ à¤Ĺà¤°
Ġà¤ħ à¤Ŀ
Ġà¤ħ à¤¯à¤¤
Ġà¤ħ à¤¦à¤®
Ġà¤ľ à¤¤à¤°
Ġà¤ľ à¤ªà¤¯
Ġà¤ľ à¤łà¤°
à¤ª à¤°à¤¸
à¤ª à¤ķà¤¨
à¤ª à¤²à¤Ĺ
à¤ª à¤Ńà¤µà¤¨
à¤¦ à¤²à¤ķ
à¤¦ à¤ªà¤¤
Ġà¤¨ à¤°à¤µà¤°
Ġà¤Ĩ à¤²à¤¯
Ġà¤Ĩ à¤ķà¤²
Ġà¤Ĩ à¤¨à¤¤
Ġà¤¬ à¤ĺ
Ġà¤¬ à¤°à¤¬
Ġà¤¬ à¤®à¤¬
Ġà¤¹ à¤°à¤¯
à¤Ł à¤ĩ
à¤Ł à¤ªà¤¤
à¤Ł à¤Ĺà¤°
à¤Ĺ à¤ķà¤¨
à¤Ĺ à¤°à¤¹
à¤Ĺ à¤¹à¤°
Ġà¤µ à¤¡à¤¨
à¤¬ à¤ĩ
à¤¬ à¤°à¤µ
à¤¬ à¤¦à¤²
à¥Ĥ ]
à¤§ à¤Ĺà¤®
à¤· à¤°à¤ķ
à¤· à¤µà¤°
à¤· à¤°à¤¨
à¤£ à¤¤à¤®
Ġà¤° à¤¡
Ġà¤² à¤«
Ġà¤² à¤Ńà¤¤
à¤ľ à¤°à¤¤
Ġà¤Ľ à¤®
Ġà¤Ľ à¤ĵ
à¤Ľ à¤ł
à¤¶ à¤ļà¤¨
à¤ļ à¤¯à¤ķ
Ġà¤ķà¤° à¤ļ
Ġà¤¤ à¤ĸ
Ġà¤¤ à¤ĩ
Ġà¤¤ à¤°à¤¸
Ġà¤¤ à¤¦à¤°
à¤¡ à¤°à¤¹
à¤ĸ à¤¬à¤°
Ġà¤Ń à¤°à¤ķ
Ġà¤Ń à¤¦à¤µ
à¤ı à¤Ī
à¤ı à¤ĸà¤¨
à¤ĩ à¤®à¤²
à¤ĩ à¤¸à¤®
Ġà¤ī à¤Ĺà¤¤
Ġà¤ī à¤¨à¤²
Ġà¤ī à¤¬à¤°
Ġà¤ī à¤ĸà¤°
Ġà¤¶ à¤ª
Ġà¤¨à¤¹ à¤°
Ġà¤ļ à¤Łà¤¨
Ġà¤§ à¤½
Ġà¤§ à¤¨à¤¦
Ġà¤§ à¤§à¤ķ
Ġà¤ĸ à¤ª
Ġà¤ĸ à¤°à¤¨
à¤°à¤¤ à¤¸
Ġà¤¬à¤¨ à¤¥
à¤« à¤°à¤µà¤°
à¤¾à¤ģ à¥¥
à¤ıà¤² à¤ıà¤®
à¤Ĩ à¤ķà¤¯
à¤Ĩ à¤ī
à¤Ĩ à¤¨à¤¨
à¤Ĩ à¤ĵà¤²
à¤Ĩ à¤¬à¤ķ
Ġà¤¸à¤ķ à¤ı
à¤ł à¤¨à¤ķ
Ġà¤Ĩà¤° à¤Ĩà¤°
Ġà¤Ĩà¤° à¤ıà¤®à¤¸
Ġà¤°à¤¹ à¤ķ
à¤ĺ à¤¶
à¤ĺ à¤°à¤ķ
à¤Ĺà¤¤ à¤¸à¤¤
à¤Ŀ à¤¡
Ġà¤¡ à¤¸
Ġà¤¡ à¤Ł
Ġà¤¡ à¤°à¤¤
Ġà¤ķà¤°à¤¤ à¤¨
Ġà¤īà¤ª à¤Ĺ
Ġà¤īà¤ª à¤¶
Ġà¤ħà¤ª à¤¸
Ġà¤ħà¤ª à¤Ń
à¤²à¤ķ à¤¤
à¤¸à¤° à¤¯
Ġà¤ĺ à¤°à¤¸
Ġà¤ĺ à¤°à¤¦
à¤¶à¤¨ à¤¹
à¤¦à¤¨ à¤¸
à¤¦à¤¨ à¤ķà¤°
Ġà¤²à¤Ĺ à¤®
à¤ķà¤°à¤£ à¤®
Ġà¤ħà¤¸ à¤²à¤®
à¤²à¤¤ à¤¨
à¤ĵ à¤ıà¤ļ
à¤ī à¤ªà¤¹
à¥ģà¤ģ à¥¥à¥¥
à¤¯à¤¨ à¤®
à¤°à¤Ń à¤µà¤¨
à¤ļà¤¨ à¤®
Ġà¤ķà¤°à¤¬ à¤¨
Ġà¤ħà¤° à¤°
à¤¾à¥¤ âĢĻ
à¤¼à¤¾ '
à¤°à¤¹ à¤£à¤ķ
à¤Łà¤° à¤«à¤°
à¤ħ à¤¥
à¤ħ à¤ĸà¤¨
à¤ħ à¤īà¤°
à¤ħ à¤µà¤¶
Ġà¤ªà¤¤ à¤¯
Ġà¤Ĩà¤¬ à¤¦
Ġà¤Ĩà¤¬ à¤¯à¤µ
Ġà¤¤à¤°à¤¹ à¤¤à¤°à¤¹à¤ķ
Ġ- --
Ġà¤ħà¤Ń à¤°à¤²
à¤Ĺà¤² à¤ªà¤¨
Ġà¤ľà¤¨ à¤°
Ġà¤ľà¤¨ à¤¯
Ġ) )
à¤Łà¤¨ à¤°à¤¶
Ġà¤ł à¤ķà¤²
Ġà¤ıà¤ļ à¤ıà¤²à¤¸
à¤Ĩà¤Ī à¤ıà¤Ĩà¤Ī
Ġà¤ıà¤¸ à¤Ĩà¤Īà¤ıà¤®
Ġà¤īà¤ł à¤¬à¤¯
Ġà¤¸à¤¦ à¤Ń
à¤°à¤² à¤Ĩà¤Īà¤Ĩà¤Ī
Ġà¤¶à¤ķ à¤¥
Ġà¤ıà¤¨ à¤ıà¤ľ
Ġà¤Ĭ à¤ªà¤°à¤ķ
à¤Ńà¤° à¤¨
Ġà¤ĺà¤° à¤Ĩ
à¤ĩà¤¸à¤¨ à¤°
à¤°à¤¬ à¤¹
à¤°à¤¬ à¤¯à¤µà¤²
à¤°à¤ľ à¤°
à¤°à¤ľ à¤ķ
à¤²à¤¹ à¤®
à¤·à¤¯ à¤ªà¤°
Ġà¤¬à¤¤ à¤²
Ġà¤Ĩà¤¨ à¤¥
Ġà¤¦à¤¸ à¤¦
Ġà¤Ĳ à¤ľ
à¤µà¤£ à¤¸
à¤µà¤£ à¤ª
à¤µà¤£ à¤µà¤§
Ġà¤¤à¤¤ à¤¸
à¤ĩà¤Ł à¤®
à¤Ļ à¤¨
à¤ªà¤£ à¤ĸ
Ġà¤§à¤¨ à¤ŀ
Ġà¤§à¤¨ à¤ªà¤¤
Ġà¤¤à¤¬ à¤ķ
Ġà¤¤à¤¬ à¤²
Ġà¤¤à¤¬ à¤¹
Ġà¤Ĩà¤ĩ à¤Ĺà¤ķ
Ġà¤Ĩà¤¸ à¤µà¤¨
Ġà¤ıà¤¤ à¤¤
Ġà¤ªà¤¦ à¤¸
à¤ªà¤Ł à¤²à¤ķ
à¤®à¤ļ à¤°à¤£
Ġà¤¦à¤² à¤¦à¤²
à¤¾: "
à¤ıà¤ıà¤« à¤Ī
Ġà¤Ńà¤°à¤¤ à¤°
Ġà¤¢ à¤¹
à¤²à¤² à¤ĸ
à¤ıà¤® à¤Ł
à¤ıà¤® à¤Ĩà¤°
Ġà¤ĭà¤£ à¤Ĺ
à¤ĳ à¤¨
à¤°à¤¥à¤® à¤¹
à¤¨à¤¬ à¤¹à¤¨
Ġà¤ķà¤¯à¤ķ à¤¯à¤ķ
à¤Ĺà¤£ à¤®
Ġà¤ĭà¤· à¤Ń
à¤ķà¤¬ à¤ķ
Ġà¤Ĺà¤Ī à¤²
Ġà¤Ĩà¤ķà¤²à¤¨ à¤ķà¤°
à¤²à¤µ à¤ļà¤¨
Ġà¤ĺà¤Ł à¤¬
Ġà¥ª à¥¬
Ġà¤ıà¤ıà¤² à¤Ł
Ġà¤ħà¤« à¤Ĺ
à¤ľà¤¦ à¤£
à¥Ĥà¤Ĥ ,
Ġà¤¬à¤¹à¤¸ à¤¯
Ġà¤¯à¤¶ à¤Ĺ
à¤°à¤ĸ à¤£
à¥§à¥ª à¥¯
à¥§à¥« à¥¦
à¥§à¥« à¥¯
à¥§à¥¬ à¥¦
à¥§à¥® à¥¨
Ġà¤ļà¤°à¤£à¤ķà¤®à¤² à¤ķ
Ġà¤¨à¤°à¤ķ à¤®
Ġà¤¬à¤ļà¤ªà¤¨ à¤ķ
Ġà¤ľà¤ĩà¤¤ à¤¯
Ġà¤Ľà¤²à¤ķ à¤ªà¤Ł
Ġà¤ħà¤®à¤² à¤Ĺ
Ġ? '
Ġà¤ĸà¤¬ à¤°à¤¦
Ġà¤²à¤²à¤¨ à¤®
Ġà¤ıà¤¸à¤ıà¤« à¤ľ
à¤¼à¤¼ à¤¼à¤¼
Ġà¤ĵà¤¡ à¤Ĺà¤°
) );
- "
Ġ à¥Ģ
à¤° à¤ĩ
à¤° à¤°à¤¸
à¤° à¤¶à¤¨
à¤° à¤ĩà¤¨
à¥ĩ âĢĿ
à¤¿ à¥įà¤ģ
Ġà¤ķ à¤ĩà¤¤
Ġà¤ķ à¤®à¤ķ
Ġà¤ķ à¤¸à¤®
Ġà¤ķ à¤¦à¤²
Ġà¤ķ à¤ĩà¤¬
à¤¨ à¤ı
à¤¨ à¤¯à¤ª
à¤¨ à¤¯à¤¯
à¤¤ à¤·
à¤¤ à¤¤à¤ķ
à¤¤ à¤¶à¤ķ
à¤¤ à¤ħà¤¸
à¤ķ à¤®à¤²
à¤ķ à¤µà¤°
à¤ķ à¤®à¤ľ
à¤² à¤ĩ
à¤² à¤®à¤¤
à¤² à¤Ńà¤°
à¤¯ à¤¦à¤°
à¤¯ à¤Łà¤ķ
à¤¯ à¤°à¤¹à¤°
Ġà¤¸ à¤ļà¤°
à¥Ģ à¤¿à¤Ĥ
à¤¹ à¤ĩ
à¤¹ à¤®à¤¤
à¤¹ à¤¯à¤µà¤²
à¤® à¤µà¤¨
à¤® à¤¹à¤¸
à¤® à¤Ńà¤°à¤¤
Ġà¤ª à¤«
Ġà¤ª à¤ĸà¤µ
à¤µ à¤Ľ
à¤µ à¤ªà¤°
à¤µ à¤µà¤¶
à¥ĭ ]
à¤¸ à¤«à¤²
Ġà¤® à¤¦à¤°
Ġà¤® à¤ļà¤¬
Ġà¤ħ à¤ıà¤¬
Ġà¤ľ à¤ı
Ġà¤ľ à¤®à¤²
Ġà¤ľ à¤°à¤¦
Ġà¤ľ à¤¯à¤¸
Ġà¤ľ à¤ĸà¤¨à¤ķ
à¤ª à¤ªà¤°
à¤ª à¤¤à¤°
à¤ª à¤µà¤²
à¤ª à¤µà¤¤
à¤¦ à¤µà¤¤
à¤¦ à¤¯à¤¨
Ġà¤Ĩ à¤²à¤®
Ġà¤Ĩ à¤²à¤µ
Ġà¤Ĩ à¤ıà¤Ĺ
Ġà¤Ĩ à¤°à¤¤à¤ķ
Ġà¤¬ à¤Ń
Ġà¤¬ à¤¯à¤¨
Ġà¤¬ à¤¬à¤²
Ġà¤¬ à¤ķà¤¬à¤ķ
à¥¤ '
à¥¤ )
Ġà¤¹ à¤¯
Ġà¤¹ à¤°à¤ķ
Ġà¤¹ à¤°à¤µ
Ġà¤¹ à¤¤à¤ª
à¤Ĺ à¤ļà¤°
Ġà¤µ à¤¯à¤¨
Ġà¤¦ à¤ı
Ġà¤¦ à¤¸à¤°
Ġà¤¦ à¤®à¤ķ
à¤¬ à¤¯à¤ķ
à¤¬ à¤°à¤®
à¤§ à¤°à¤ķ
à¤§ à¤ķà¤²
à¤§ à¤¯à¤¸
à¤§ à¤°à¤¨
à¤§ à¤¸à¤Ń
à¤£ à¤Ĺà¤£
à¤¥ à¤¬
à¤ľ à¤°à¤ķ
à¤ľ à¤µà¤²
à¤ľ à¤¯à¤¨
à¤ľ à¤®à¤°
à¤Ľ à¤¦
à¤¶ à¤¯à¤¤
à¤¶ à¤¤à¤®
à¤¶ à¤¸à¤Ń
à¤ļ à¤£
à¤ļ à¤¯à¤ª
à¤ļ à¤µà¤¶
à¥ĩà¤Ĥ --
Ġà¤¤ à¤®à¤¤à¤®
à¤¡ à¤Ń
à¤¡ à¤¨à¤ķ
à¤¡ à¤¹à¤°
à¤¡ à¤®à¤°
Ġà¤Ĺ à¤®à¤ķ
Ġà¤Ĺ à¤Ńà¤¸
Ġà¤ªà¤° à¤¯
Ġà¤ªà¤° à¤¤à¤®
Ġà¤ªà¤° à¤®à¤¤à¤¤
à¤ĸ à¤°à¤²
à¤ĸ à¤®à¤£
à¤ĸ à¤®à¤°
Ġà¤Ń à¤Ń
Ġà¤Ń à¤Ī
Ġà¤Ń à¤ľà¤¯
Ġà¤Ń à¤ľà¤¬
Ġà¤Ń à¤¦à¤¬
à¤Ń à¤ħà¤¶
à¤ĩ à¤°à¤ķ
à¤ĩ à¤Ĩ
Ġà¤ī à¤¦à¤ķ
Ġà¤ī à¤¬à¤²
Ġà¤¶ à¤²
Ġà¤¶ à¤¤à¤°
Ġà¤¶ à¤¤à¤ķ
Ġà¤¯ à¤®à¤ķ
Ġà¤¯ à¤¤à¤¤
Ġà¤¯ à¤ıà¤¹
Ġà¤¯ à¤¤à¤ļ
Ġà¤ĵ à¤¨à¤ķ
Ġà¤ĵ à¤°à¤®
Ġà¤ļ à¤ĸ
Ġà¤ļ à¤ķà¤°
Ġà¤¸à¤® à¤¬
Ġà¤Ī à¤¶à¤¨
Ġà¤ıà¤ķ à¤ļ
Ġà¤ıà¤ķ à¤ªà¤°
à¤¼ ,
à¤¼ à¤¾,
Ġà¤§ à¤°à¤®
Ġà¤ħà¤¨ à¤¡
Ġà¤ħà¤¨ à¤ł
Ġà¤ħà¤¨ à¤®à¤¨
Ġà¤ħà¤¨ à¤ķà¤¹
à¤Ī à¤ıà¤ļ
à¤¯à¤ķ à¤®
Ġà¤ĩ à¤¡
à¤ıà¤² à¤¥
à¤ıà¤² à¤ıà¤«
à¤Ĩ à¤Ľ
à¤Ĩ à¤ĵà¤°
Ġà¤¸à¤ķ à¤½
à¤¿à¤Ĥ '
à¤ĩà¤² à¤Ĺ
à¤ł à¤ļ
à¤ł à¤¤à¤®
Ġà¤ħà¤ªà¤¨ à¤¬
à¤¯à¤® à¤¨à¤¨
à¤®à¤² à¤ľ
à¤¤à¤° à¤ªà¤ķ
Ġà¤°à¤¹ à¤¤à¤¯
à¤ĺ à¤¦
à¤ĺ à¤ļà¤®à¤¨
Ġà¤Ķ à¤ªà¤¨
Ġà¤¡ à¤Ĺà¤°
Ġà¤¡ à¤ĸà¤°
à¤°à¤® à¤ļ
à¤µà¤° à¤ļ
Ġà¤¤à¤° à¤¨
à¤½ à¤ķ
à¤¯à¤¤ à¤¨à¤ķà¤°
à¤µà¤¨ à¤µ
Ġà¤ĳ à¤¬
à¥Īà¤Ĥ à¥¥
à¤ŀ à¤ľà¤¨
Ġà¤¸à¤¹ à¤ķà¤°
Ġà¤¸à¤¹ à¤ļà¤°
à¤¦à¤ķ à¤¤
à¤ľà¤¨ à¤²
à¤¦à¤¨ à¤¨
Ġà¤ıà¤« à¤ıà¤ļ
Ġà¤²à¤Ĺ à¤µà¤¤
Ġà¤²à¤Ĺ à¤ĵà¤²
Ġ" à¥¤
Ġà¤ħà¤¸ à¤ķ
à¤ī à¤£
à¤ī à¤¸à¤ķ
à¤®à¤¤ à¤¨
à¤®à¤¤ à¤ķà¤°
à¤·à¤£ à¤¤
à¤ļà¤¨ à¤¯
à¥Ģà¥¤ âĢĻ
Ġà¤īà¤² à¤Łà¤¨
à¤°à¤¹ à¤ª
à¤°à¤¹ à¤°à¤¬
à¤ħ à¤Łà¤°
à¤ħ à¤¸à¤®
à¤ħ à¤®à¤°
Ġà¤¹à¤° à¤¥
à¤°à¤¶ à¤°
Ġà¤ħà¤² à¤ĸ
à¤¤à¤µ à¤¸à¤¨
Ġà¤¤à¤°à¤¹ à¤¸
à¤ķà¤² à¤°
Ġà¤ħà¤Ń à¤°
Ġà¤ħà¤Ń à¤¯à¤¦
à¤¯à¤° à¤¥
Ġ' &
à¤¤à¤® à¤Ĺ
à¤®à¤¨ à¤°
Ġà¤¸à¤®à¤Ŀ à¤¬
Ġà¤¸à¤®à¤Ŀ à¤²à¤¨
Ġà¤ľà¤¨ à¤ª
Ġà¤ľà¤¨ à¤ĩà¤¤
Ġà¤ıà¤ļ à¤ıà¤²à¤ª
à¤¤à¤¨ à¤®à¤¨à¤¨
Ġà¤¸à¤° à¤°à¤°
à¤Ĩà¤Ī à¤ı
Ġà¤ļà¤² à¤ĩà¤¤
Ġà¤ıà¤¸ à¤ıà¤®à¤ıà¤¸
Ġà¤¬à¤² à¤Ńà¤¦
à¤¹à¤¨ à¤¸
à¤¹à¤¨ à¤Ĺà¤°
à¤µà¤ķ à¤¸
Ġà¤ıà¤¨ à¤Ĩà¤°à¤ıà¤²
Ġà¤ıà¤¨ à¤ıà¤®à¤ıà¤ļà¤ľ
à¤·à¤¤ à¤ª
Ġà¤ħà¤¦ à¤Ń
Ġà¤¸à¤¤ à¤ľ
Ġà¤ķà¤¤ à¤Ĭ
Ġà¤ķà¤² à¤¶à¤ķ
Ġà¤ķà¤² à¤Ļ
Ġà¤ķà¤² à¤¶à¤®
Ġà¤ĺà¤° à¤Ĺ
Ġà¤ĺà¤° à¤ĺà¤°à¤®
Ġà¤ħà¤¬ à¤ĩà¤Ľ
à¤Łà¤² à¤ĸ
à¤ļà¤° à¤Ł
à¥Ģ) );
Ġà¤¸à¤¨ à¤¸à¤¨
Ġà¤¸à¤¨ à¤¡à¤¬à¤°
Ġà¤Ĩà¤¨ à¤¹
Ġà¤¬à¤ľ à¤¬à¤¯
à¤°à¤¥ à¤ķ
à¤µà¤£ à¤®
à¤¨à¤¸ à¤¹à¤¨
à¤ıà¤« à¤ıà¤®à¤¸
à¤Ńà¤µ à¤¹
à¤¯à¤£ à¤¸
Ġà¤Ĩà¤ľ à¤®
Ġà¤ļà¤°à¤£ à¤§
Ġà¤Ĩà¤¸ à¤¨à¤ķ
Ġà¤ıà¤¤ à¤¸
Ġà¤ıà¤¤ à¤½
Ġà¤ıà¤® à¤ıà¤®
Ġà¤ıà¤® à¤Ĩà¤Īà¤¡
à¤²à¤¸ à¤Ń
à¥¬ à¥ªà¥¬
à¤ķà¤¹ à¤¬
Ġà¤Ńà¤¯ à¤¹
à¤¬à¤² à¤µ
à¤ľà¤² à¤¥
à¤¯à¤ª à¤°à¤ķ
Ġà¤µà¤¨ à¤ļà¤°
à¥Ĥà¥¤ à¥¤
Ġà¤²à¤¯ à¤²à¤¯
à¤ĳ à¤²
ĠâĢĺ [
à¤µà¤¶ à¤°
à¤ªà¤² à¤Łà¤¨
à¤ľà¤¸ à¤ľ
Ġà¤ļà¤¢ à¤¯
à¤°à¤¹à¤£ à¤¶
à¤·à¤° à¤ķà¤°
à¤¾' :
à¤¬à¤ķ à¤®
à¥ħ à¤Ĥ
Ġà¤¤à¤¦ à¤¸
Ġà¤łà¤¹à¤° à¤¬
Ġà¤ªà¤µà¤¨ à¤¤à¤¨à¤¯
à¤Łà¤« à¤Ł
à¤Ńà¤°à¤¤ à¤ľ
à¥§à¥« à¥®
Ġà¤īà¤¹ à¤ĩ
âĢĿ )
à¤ıà¤ı à¤ª
à¥§à¥Ń à¥¬
à¥§à¥¬ à¥¨
Ġà¤Ĺà¤ł à¤°
à¥§à¥® à¥¦
Ġà¤Ńà¤Ł à¤ķà¤¨
à¥§à¥¯ à¥ª
Ġà¤¬à¤Ł à¤Ĺ
Ġà¤ıà¤ıà¤® à¤ª
à¤Ĩà¤Īà¤Ĩà¤Ī à¤Ĩà¤Ī
Ġà¤ħà¤ĸà¤¨ à¤¹
Ġà¤ķà¤¨à¤ķ à¤§
Ġà¤¶à¤°à¤¦ à¤ķ
à¤Ĩà¤°à¤ı à¤ıà¤²
à¤¾? ---
Ġà¤ļà¤® à¤ķà¤¯
Ġà¤ķà¤²à¤ķ à¤²
Ġà¤ıà¤ıà¤Ĩà¤° à¤Ĩà¤Ī
Ġà¤ķà¤Łà¤ķ à¤Łà¤¹
Ġà¤Ŀà¤Ł à¤ªà¤Ł
Ġà¤ĵà¤¢ à¤¨
Ġà¤ľà¤ĩ à¤¸à¤®
à¤¾âĢĿ :
Ġà¤ıà¤®à¤ıà¤² à¤¡à¤¬
Ġà¤Īà¤ıà¤¸ à¤ıà¤²
.. .
Ġà¤¨à¤µà¤ª à¤ŀ
à¤īà¤ªà¤¨ à¤¯à¤¨
à¤¡à¤ıà¤« à¤ĵà¤ıà¤ļ
Ġà¤ıà¤ķà¤ªà¤° à¤ıà¤ķ
İ à¤²
Ġà¤ İà¤²
à¤¾ âĢĶ
à¤° à¤¯à¤ķ
à¤° à¤¯à¤µ
à¤° à¤ħà¤¸
à¥ĩ (
à¤¿ /
Ġà¤ķ à¤«
Ġà¤ķ à¤¦à¤°
Ġà¤ķ à¤ľà¤°
Ġà¤ķ à¤£à¤ķ
à¤¨ à¤ĸ
à¤¨ à¤Ŀ
à¤¨ à¤°à¤¦
à¤¨ à¤¹à¤®
à¤¨ à¤ħà¤¨
à¤¨ à¤¥à¤²
à¤¤ à¤²à¤¨
à¤¤ à¤¯à¤µ
à¤¤ à¤¸à¤¨
à¤¤ à¤µà¤²
à¤¤ à¤²à¤ķ
à¤¤ à¤²à¤®
à¤¤ à¤ªà¤¦
à¤¤ à¤ħà¤¬
à¤ķ à¤ķà¤¯
à¤ķ à¤ĩà¤µ
à¤ķ à¤¬à¤¨
à¤ķ à¤¬à¤¯
à¤ķ à¤ħà¤ª
à¤ķ à¤Ĩà¤§
à¤² à¤¦à¤°
à¤² à¤Ĺà¤²
à¤² à¤¸à¤ķ
à¤² à¤¸à¤®
à¤² à¤ļà¤°
à¤² à¤ļà¤ķ
à¤² à¤Īà¤¨
à¤¯ à¤¶à¤°
Ġà¤¸ à¤µà¤°
Ġà¤¸ à¤¤à¤¯
à¤Ĥ à¤Ĥ
à¤Ĥ à¤ģ
à¤Ĥ à¥¥à¥¥
à¤¹ à¤§
à¤® à¤Ĺà¤¤
à¤® à¤¯à¤¤
à¤® à¤¸à¤°
à¤® à¤¦à¤°
à¤® à¤°à¤¹
à¤® à¤®à¤¨
à¤® à¤¹à¤ķ
à¤® à¤§à¤°
à¤® à¤Ľà¤²
à¤® à¤ªà¤¥
à¤® à¤ħà¤¨
Ġà¤ª à¤²à¤¹
Ġà¤ª à¤¯à¤¬
Ġà¤ª à¤¦à¤¯
Ġà¤ª à¤ĵà¤²à¤¨
à¤µ à¤¹à¤°
à¤µ à¤Ńà¤°
à¤¸ à¤²à¤¤
à¤¸ à¤ķà¤²
Ġà¤® à¤Ľ
Ġà¤® à¤µà¤§
Ġà¤ħ à¤ı
Ġà¤ħ à¤ľà¤Ĺ
à¥ģ à¥¥à¥¥
Ġà¤ľ à¤²à¤¬
Ġà¤ľ à¤Ĺà¤®
Ġà¤ľ à¤ĩà¤®
à¤ª à¤ł
à¤ª à¤¶à¤ķ
à¤¦ à¤Ł
à¤¦ à¤ļ
à¤¦ à¤ªà¤°
Ġà¤¨ à¤¤à¤®à¤¸
Ġà¤Ĩ à¤ıà¤¤
Ġà¤¬ à¤¯à¤²
à¥Ī ):
à¥Ī ",
Ġà¤¹ à¤Łà¤¤
Ġà¤¹ à¤µà¤¨à¤ķ
à¤Ł à¤ĸ
à¤Ł à¤¨à¤²
à¤Ł à¤®à¤¸
à¤Ĺ à¤ī
à¤Ĺ à¤ªà¤¤
à¤Ĺ à¤°à¤µ
à¤Ĺ à¤¨à¤¨
à¤Ĺ à¤§à¤°
Ġà¤µ à¤¦à¤°à¤²
Ġà¤¦ à¤¯à¤²
Ġà¤¦ à¤¬à¤²
Ġà¤¦ à¤¬à¤¦
à¤¬ à¤°à¤¤
à¤¬ à¤ľà¤¨
à¤¬ à¤Ĺà¤²
à¤§ à¤ľà¤¨
à¤§ à¤°à¤²
à¤§ à¤µà¤¶
Ġà¤ı à¤¤à¤°
Ġà¤ı à¤ıà¤¨
à¤· à¤¸à¤®
à¤· à¤¯à¤¸à¤Ń
à¤£ à¤ļ
à¤£ à¤°à¤¤
à¤£ à¤µà¤²
à¤£ à¤ħ
à¤£ à¤ľà¤¨à¤ķà¤ª
Ġà¤° à¤¶
Ġà¤° à¤®à¤²
Ġà¤² à¤¸
Ġà¤² à¤ªà¤ķ
à¤¥ à¤ķà¤°
à¤¥ à¤«
à¤¥ à¤¸à¤®
à¤ľ à¤Ī
à¤ľ à¤°à¤¯
à¤ľ à¤¯à¤¸
à¤ľ à¤ķà¤¤
à¤ľ à¤¬à¤²
Ġà¤Ľ à¤ī
Ġà¤Ľ à¤ªà¤¤
à¤¶ à¤Ń
à¤¶ à¤ł
à¤¶ à¤µà¤°
à¤¶ à¤¹à¤°
à¤¶ à¤®à¤£
à¤ļ à¤µà¤°
à¤ļ à¤°à¤¬
Ġà¤ķà¤° à¤ľ
Ġà¤ķà¤° à¤µà¤²
Ġà¤¤ à¤ªà¤¤
Ġà¤¤ à¤ľà¤¹
à¤¡ à¤ı
à¤¡ à¤¸à¤Ń
Ġà¤Ĺ à¤µà¤¨
Ġà¤Ń à¤ĩ
Ġà¤Ń à¤¯à¤®
Ġà¤Ń à¤µà¤ª
Ġà¤Ń à¤²à¤¹
à¤ı à¤¯
à¤ı à¤µà¤²
à¤ı à¤Łà¤°
à¤ı à¤¹à¤®
à¤ĩ à¤ħ
à¤ĩ à¤¡à¤²
Ġà¤ī à¤Ŀ
Ġà¤¶ à¤¦
Ġà¤¯ à¤µà¤¨
Ġà¤¯ à¤µà¤¤
Ġà¤ĵ à¤ķà¤²
Ġà¤ĵ à¤Ŀà¤²
Ġà¤ĵ à¤·à¤§
Ġà¤Ľà¤² à¤¬à¤²
Ġà¤ļ à¤°à¤¤
Ġà¤Ī à¤ļ
Ġà¤ıà¤ķ à¤¨à¤°
à¤¿à¥¤ '
Ġà¤§ à¤§
Ġà¤ĸ à¤Ĺà¤¤
Ġà¤ĸ à¤¨à¤¹
Ġà¤ĸ à¤¸à¤¤
à¤°à¤£ à¤¸à¤Ńà¤ķ
à¤°à¤¤ à¤®à¤¨
Ġà¤¬à¤¨ à¤®
Ġà¤¬à¤¨ à¤¯à¤¬
à¤Ī à¤¶
à¤Ī à¤¡à¤¬
Ġà¤¹à¤® à¤¸
à¤¹à¤² à¤¥
Ġà¤ħà¤§ à¤®à¤°
Ġà¤ĩ à¤ķà¤°
à¤Ĩ à¤Ń
à¤Ĩ à¤ł
à¤Ĩ à¤ªà¤¤
à¤¿à¤Ĥ "
à¤ĩà¤² à¤Ĺà¤²
à¤ł à¤Ĺ
à¤ł à¤§
Ġà¤« à¤²à¤¤
Ġà¤« à¤²à¤¹
Ġà¤« à¤Łà¤«à¤Ł
Ġà¤Ł à¤ªà¤ķ
à¤¯à¤® à¤°
à¤¯à¤® à¤¤
à¤¯à¤® à¤µ
à¤°à¤¸ à¤Ļ
à¤®à¤² à¤ª
à¤®à¤² à¤ļ
à¤²à¤¯ à¤µ
à¤¤à¤° à¤µ
Ġà¤°à¤¹ à¤¨à¤¸à¤¹à¤¨
à¤ĺ à¤¤
à¤¯à¤µ à¤¨
à¤ĩà¤¤ à¤ķ
Ġà¤°à¤¹à¤² à¤ĸ
à¤Ŀ à¤¹
à¤°à¤® à¤µ
à¤°à¤® à¤ª
à¤°à¤® à¤¬à¤¦
à¤°à¤® à¤µà¤¶
Ġà¤Ķà¤° à¤¹
à¤µà¤° à¤¹
Ġà¤ķà¤¹ à¤¤à¤¯
à¤½ à¤¶
Ġà¤īà¤ª à¤ªà¤¤
Ġà¤īà¤ª à¤Ĺà¤®à¤¨
Ġà¤ħà¤ª à¤ľà¤¸
à¤µà¤¨ à¤Ĺà¤°
à¤²à¤ķ à¤¹
à¤²à¤ķ à¤¥
Ġà¤®à¤¹ à¤ķ
Ġà¤®à¤¹ à¤ľ
à¥Īà¤Ĥ ]
Ġà¤ĺ à¤¸
Ġà¤¸à¤¹ à¤ª
Ġà¤¸à¤¹ à¤¸à¤¬
Ġà¤¸à¤¹ à¤ħà¤¸
Ġà¤ĵà¤¹ à¤¸
à¤¦à¤ķ à¤ķà¤¨
Ġà¤µà¤° à¤¨à¤®
à¤ľà¤¨ à¤¯
à¤ľà¤¨ à¤µ
à¤¢ à¤²
Ġà¤ıà¤« à¤ıà¤¸
Ġà¤²à¤Ĺ à¤ª
Ġ" :
à¤ķà¤°à¤£ à¤¸à¤Ń
Ġà¤ħà¤¸ à¤Ĺ
Ġà¤®à¤¨ à¤¯à¤¬
à¤µà¤¤ à¤¹
à¤ĵ à¤Ĩà¤Ī
à¤ĵ à¤¹à¤¨
à¤ī à¤¹
à¤ī à¤Ī
à¤ī à¤²à¤°
à¤¨à¤² à¤®
à¤°à¤Ń à¤µ
à¤®à¤¤ à¤¸
à¤·à¤£ à¤Ńà¤°
Ġà¤ķà¤® à¤¤à¤°
Ġà¤īà¤² à¤Ŀà¤²
Ġà¤¸à¤®à¤¯ à¤ªà¤°
à¤°à¤¯ à¤¦
à¤¨à¤¨ à¤¹
à¤°à¤¹ à¤¤
à¤°à¤¹ à¤¬
à¤Łà¤° à¤ľ
à¤¬à¤° à¤¬
à¤¬à¤° à¤§
à¤ħ à¤Ĺà¤²
Ġà¤ħà¤µ à¤·
à¤Ĺà¤° à¤«
Ġà¤ªà¤¤ à¤Ļ
à¤¤à¤® à¤£
à¤Ĺà¤² à¤µ
Ġà¤ıà¤¹à¤¨ à¤®
Ġà¥ ¦
Ġà¤Ĩà¤Ĺ à¤ļ
Ġà¤§à¤° à¤²à¤¥
à¤ıà¤¸ à¤¬
à¤ıà¤¸ à¤ıà¤¸à¤¸
à¤ıà¤¸ à¤ĵà¤ª
à¤ªà¤ķ à¤µ
Ġà¤ł à¤°à¤²
à¥Īà¥¤ âĢĻ
à¤¤à¤¨ à¤ª
Ġà¤¸à¤° à¤¬à¤¤
à¤¯à¤¸ à¤¹
à¤·à¤ķ à¤®
à¤¹à¤¨ à¤¤à¤ķ
Ġà¤īà¤ł à¤¥
Ġà¤¸à¤¦ à¤¤
à¤°à¤² à¤¥
à¤¤à¤ķ à¤®
Ġà¤Ĭ à¤¹
Ġà¤¬à¤¡ à¤ķ
à¤¨à¤¤ à¤¹
Ġà¤¸à¤¤ à¤¬
à¤µà¤¯ à¤ľ
Ġà¤ĩà¤¨ à¤ª
Ġà¤ĺà¤° à¤µà¤°
Ġà¤ĺà¤° à¤µà¤²
Ġà¤®à¤° à¤°
à¤°à¤¬ à¤ķ
à¤ıà¤ļ à¤ı
Ġà¤ªà¤°à¤® à¤¹
Ġà¤ªà¤°à¤® à¤µ
Ġà¤ļà¤° à¤ĸ
à¤°à¤ľ à¤ª
Ġà¤Ńà¤² à¤®
Ġà¤¬à¤ľ à¤²à¤¥
à¤Ĺà¤¨ à¤¯à¤¨
Ġà¤ħà¤ªà¤° à¤®
Ġà¤¦à¤¸ à¤¸
Ġà¤Ĳ à¤¬
Ġà¤Ĳ à¤¸à¤¨
Ġà¤ªà¤¹à¤² à¤µ
Ġà¤¦à¤° à¤ħà¤¸à¤²
à¤ıà¤« à¤Ī
à¤µà¤¸ à¤¤
Ġà¤ķà¤ª à¤Ļ
Ġà¤Ĩà¤ĩ à¤¸à¤ķ
Ġà¤ħà¤ķ à¤¥
Ġà¤Ĩà¤Ī à¤¨
Ġà¤Ĩà¤Ī à¤ıà¤ı
Ġà¤Ĩà¤Ī à¤ıà¤®à¤ıà¤«
à¤Ĺà¤® à¤¯
Ġà¤ıà¤® à¤¯
Ġà¤ıà¤® à¤ıà¤¸
Ġà¤ķà¤Ī à¤²à¤¨
à¤ľà¤ķ à¤µ
à¤²à¤¸ à¤¦
Ġà¤Ĺà¤° à¤ľà¤¨
à¥Įà¤Ĥ à¥¥
à¤¬à¤² à¤®
à¤ľà¤² à¤®
à¤¯à¤ª à¤¦
à¤¼à¥ĩ )
Ġà¤ľà¤Ĺ à¤ľà¤¨à¤¨
à¤¨à¤® à¤§
Ġà¤¢ à¤²
Ġà¥¨ à¥«à¥¦
Ġà¤¦à¤¯ à¤²à¤¨
Ġà¤ľà¤¨à¤ķ à¤²
à¥Įà¤ģ à¥¤
Ġà¤¶à¤¤ à¤Ĺ
à¤²à¤ĸ à¤¯
Ġà¤¤à¤¨ à¤ĸ
Ġà¤¤à¤¨ à¤®à¤¨
à¤¾" ;
à¤¹à¤® à¤¹
à¤ªà¤¦ à¤£
à¤¶à¤² à¤¸à¤®
à¤ķà¤Ł à¤¹
à¤®à¤¯ à¤ľ
à¤ķà¤µ à¤¶
Ġà¤ħà¤¯ à¤¶
à¤¤à¤² à¤¡
à¤¨à¤¯ à¤ľ
à¤¥à¤ķ à¤®
à¤ªà¤² à¤Ł
Ġà¤°à¤¸ à¤¸
Ġà¤ħà¤µà¤¸ à¤°à¤ķ
Ġà¤ķà¤®à¤² à¤ľ
Ġà¤ķà¤®à¤² à¤µà¤¨
à¤ĩà¤¯ à¤½
Ġà¥ª à¥ª
Ġà¥ª à¥«
Ġà¤Ĩà¤ī à¤Łà¤¬
Ġà¤ħà¤« à¤°
Ġà¥« à¥¦à¥¦
Ġà¤ıà¤ıà¤¸ à¤ıà¤²
Ġà¤ıà¤ıà¤¸ à¤Ĩà¤Īà¤ĵ
à¤°à¤ĸ à¤°à¤¤
Ġà¤ªà¤¨ à¤ªà¤¥
Ġà¤¦à¤¬ à¤¬
Ġà¤¤à¤ª à¤¶
Ġà¤Ľà¤ł à¤µ
à¥Ģ' à¥¤
à¤¤à¤¬ à¤¢
Ġà¤Ĩà¤ĩà¤² à¤¨
à¥§à¥Ń à¥§
à¥§à¥Ń à¥¨
à¥§à¥Ń à¥¦
à¥§à¥Ń à¥®
Ġà¥¨à¥¦ à¥§à¥¬
Ġà¥¨à¥¦ à¥§à¥¯
Ġà¥¨à¥¦ à¥¨à¥©
Ġà¥¨à¥¦ à¥¬à¥Ń
Ġà¤¬à¤°à¤¸ à¤¬
à¥§à¥¬ à¥§
à¥§à¥¬ à¥ª
à¥§à¥¬ à¥¬
à¥§à¥¬ à¥Ń
à¥§à¥¬ à¥®
à¥§à¥® à¥§
Ġà¤ıà¤° à¤ªà¤¨
Ġà¤īà¤¤à¤° à¤¯
à¤¿? "
Ġà¤· à¤£
Ġà¤§à¤¯ à¤²à¤ķ
Ġà¤ķà¤°à¤½ à¤µà¤²
à¤ĩà¤« à¤¸
Ġà¤§à¤¯à¤² à¤¹
à¥¨à¥¬ à¥©
Ġà¤¬à¤°à¤¤ à¤¬
à¤ıà¤¡ à¤µà¤°
Ġà¤ªà¤Ļ à¤²
Ġà¤¬à¤Ĺà¤² à¤¹
à¤²à¤¡ à¤°à¤¬
Ġà¤Ĺà¤°à¤ľ à¤¯
Ġà¤¹à¤°à¤¬ à¤Ĺ
Ġà¤ıà¤¨à¤ı à¤ıà¤ļà¤Ĩà¤Ī
Ġà¤ķà¤¹à¤ĩà¤¤ à¤Ľ
à¤ķà¤ı à¤¡à¤°
à¤°à¤¨à¤¤ à¤ª
Ġà¤®à¤Ŀ à¤§
Ġà¤®à¤°à¤¦ à¤µ
Ġà¤Ŀà¤ķ à¤Ŀ
Ġà¤ĩà¤Ł à¤¹à¤°
Ġà¤ļà¤®à¤ļ à¤®
à¤¨à¤®à¤µ à¤·
Ġà¤ľà¤°à¤¦ à¤·
Ġà¤¦à¤¬à¤¦ à¤¬
) "
) -
ĸ ª
Ġà¤ Ĥ
à¥ ł
à¤° à¤«à¤²
à¤° à¤ªà¤°à¤®
à¥ĩ âĢĶ
Ġà¤ķ à¤²à¤¨
à¤¨ à¤Ī
à¤¨ à¤®à¤¤
à¤¨ à¤°à¤µ
à¤¨ à¤¤à¤¨
à¤¨ à¤§à¤¨
à¤¨ à¤®à¤Ĺ
à¤¨ à¤Ĺà¤®
à¤¨ à¤¤à¤°à¤«
à¤¤ à¤£
à¤¤ à¤Ī
à¤¤ à¤ļà¤¨
à¤¤ à¤ħ
à¤¤ à¤¤à¤®
à¤¤ à¤ªà¤¸
à¤¤ à¤ľà¤¨à¤ķ
à¤¤ à¤Ĺà¤ľ
à¤ķ à¤Ľ
à¤ķ à¤®à¤°
à¤ķ à¤Łà¤ķ
à¤² à¤¸à¤°
à¤² à¤ĩà¤¨
à¤² à¤ľà¤¯
à¤¯ à¤ĩ
à¤¯ à¤«
à¤¯ à¤ī
à¤¯ à¤§à¤¨
à¤¯ à¤¶à¤ķ
à¤¯ à¤Ĭ
Ġà¤¸ à¤§
Ġà¤¸ à¤Ŀ
Ġà¤¸ à¤ĵ
Ġà¤¸ à¤ļà¤¨
Ġà¤¸ à¤¤à¤®
à¥Ģ à¤ĥà¥¤
à¥Ģ à¤ģà¥¤
à¤¹ à¤°à¤¸
à¤¹ à¤µà¤²
à¤¹ à¤ľà¤¨
à¤¹ à¤ľà¤¬
à¤® à¤¯à¤ķ
à¤® à¤°à¤µ
Ġà¤ª à¤¨à¤ª
à¤µ à¤¯à¤ķ
à¤µ à¤Łà¤ķ
à¤µ à¤īà¤ł
à¥ĭ ')
à¤¸ à¤¹à¤¸
à¤¸ à¤ĳà¤¨à¤²
Ġà¤® à¤°à¤ķ
Ġà¤ħ à¤¤à¤°
Ġà¤ħ à¤°à¤®
Ġà¤ħ à¤¥à¤¨
Ġà¤ľ à¤¶
Ġà¤ľ à¤ĸ
Ġà¤ľ à¤²à¤¤
Ġà¤ľ à¤²à¤ķà¤°
Ġà¤ľ à¤¯à¤ª
Ġà¤ľ à¤ªà¤®
à¤ª à¤µà¤¶
à¤¦ à¤µà¤²
à¤¦ à¤Ĺà¤°
à¤¦ à¤¹à¤°
à¤¦ à¤¸à¤Ńà¤ķ
Ġà¤¨ à¤¨à¤ķ
Ġà¤¨ à¤°à¤µ
Ġà¤¨ à¤¸à¤¬
Ġà¤Ĩ à¤Ł
Ġà¤Ĩ à¤ıà¤¬
Ġà¤¬ à¤°à¤¹à¤®
à¥Ī )à¥¤
Ġà¤¹ à¤ª
Ġà¤¹ à¤¶
Ġà¤¹ à¤ĩ
Ġà¤¹ à¤°à¤®
à¤Ł à¤°à¤®
à¤Ł à¤¤à¤¯
à¤Ł à¤®à¤£
à¤Ł à¤ħà¤ª
à¤Ĺ à¤ĩ
à¤Ĺ à¤°à¤¸
à¤Ĺ à¤Ńà¤°à¤¨
Ġà¤µ à¤§à¤ķ
Ġà¤µ à¤·à¤Ł
Ġà¤¦ à¤²à¤¯
Ġà¤¦ à¤°à¤¶
Ġà¤¦ à¤ĸà¤²
Ġà¤¦ à¤§à¤¤
à¤¬ à¤¨à¤ķ
à¤¬ à¤²à¤¯
à¤¬ à¤µà¤¨
à¤¬ à¤ĸà¤°
à¤¬ à¤°à¤¦à¤¸
à¥Ĥ à¥Ĥ
à¥Ĥ )à¥¤
à¥Ĥ ")
à¤§ à¤¶
à¤§ à¤Ĺà¤¤
à¤§ à¤°à¤®
à¤§ à¤®à¤ķ
Ġà¤ı à¤²à¤¯
Ġà¤ı à¤¶à¤²
Ġà¤ı à¤¶à¤°
à¤· à¤£à¤¯
à¤· à¤µà¤²
à¤· à¤Ńà¤°
à¤· à¤ħà¤ª
à¤£ à¤Ń
à¤£ à¤«
à¤£ à¤¹à¤°
à¤£ à¤ķà¤²
à¤£ à¤®à¤¨
à¤£ à¤Ĺà¤µ
Ġà¤° à¤Ĺà¤°
Ġà¤° à¤¸à¤®à¤¯
Ġà¤² à¤¥
Ġà¤² à¤¯à¤ķ
à¤¥ à¤§
à¤ľ à¤ļ
à¤ľ à¤ı
à¤ľ à¤ĩ
à¤ľ à¤²à¤¹
à¤ľ à¤ªà¤¥
à¤ľ à¤®à¤¦
à¤Ľ à¤£
à¤¶ à¤¤à¤°
à¤¶ à¤®à¤¯
à¤ļ à¤¶
à¤ļ à¤°à¤¸
à¤ļ à¤½
à¤ļ à¤ŀ
à¤ļ à¤ķà¤¤
à¤ļ à¤¯à¤µà¤²
à¥ĩà¤Ĥ ?
à¥ĩà¤Ĥ à¥¥à¥¥
à¥ĩà¤Ĥ "à¥¤
à¥ĩà¤Ĥ ",
Ġà¤ķà¤° à¤ª
Ġà¤ķà¤° à¤ĩà¤Ľ
Ġà¤¤ à¤¤à¤®
Ġà¤¤ à¤µà¤ķ
Ġà¤¤ à¤²à¤¬
à¤¡ à¤Ī
à¤¡ à¤µà¤¸
à¤¡ à¤ıà¤®
Ġà¤Ĺ à¤Ń
Ġà¤Ĺ à¤¬à¤¨
à¤ĸ à¤¯à¤¸
à¤ĸ à¤ļà¤ķ
à¤ĸ à¤ĩà¤¯
à¤ı à¤£
à¤ı à¤µà¤°
à¤ı à¤¨à¤µ
à¤Ń à¤¯à¤µ
à¤Ń à¤°à¤¦
à¤Ń à¤µà¤¸
Ġà¤ī à¤ıà¤¹
Ġà¤ī à¤¥à¤²
Ġà¤ī à¤Ľà¤²à¤ķ
Ġà¤ī à¤ĩà¤ł
à¤ķà¤° à¤Ń
Ġà¤¶ à¤°à¤¤
Ġà¤¶ à¤²à¤Ń
Ġà¤¯ à¤°
Ġà¤¯ à¤¤à¤¨
Ġà¤ĵ à¤ªà¤¨
Ġà¤ĵ à¤¨à¤ķà¤°
Ġà¤ĵ à¤®à¤¦
Ġà¤ļ à¤°à¤ķ
Ġà¤ļ à¤¤à¤°
Ġà¤ļ à¤µà¤¨
Ġà¤ļ à¤ķà¤²
Ġà¤¸à¤® à¤·
Ġà¤¸à¤® à¤Ń
Ġà¤¸à¤® à¤¦à¤°à¤¸
Ġà¤Ī à¤Ł
Ġà¤Ī à¤ĵ
à¥ĭà¤Ĥ ;
à¤¼ -
à¤¼ à¥¥
Ġà¤§ à¤¸
Ġà¤§ à¤°à¤¹
Ġà¤§ à¤®à¤Ĺ
Ġà¤§ à¤§à¤°
Ġà¤§ à¤ıà¤¨
Ġà¤ĸ à¤°à¤¹
Ġà¤ĸ à¤¯à¤²
Ġà¤ĸ à¤°à¤ľ
Ġà¤ĸ à¤¨à¤¦
Ġà¤ĸ à¤Ĺà¤¡
Ġà¤ĸ à¤¯à¤²à¤¨
Ġà¤ħà¤¨ à¤§à¤¨
à¤°à¤£ à¤Ń
à¤°à¤¤ à¤ī
à¤°à¤¤ à¤ķà¤¥
Ġà¤¬à¤¨ à¤¤à¤¯
à¤Ī à¤Ĺ
à¤¾à¤Ĥ à¥¤
Ġà¤ĩ à¤ķà¤¤
à¤Ĩ à¤ªà¤¨
à¤Ĩ à¤®à¤¤
à¤Ĩ à¤ªà¤¸
à¤Ĩ à¤¬à¤¯
à¤Ĩ à¤¯à¤°à¤²
Ġà¤¸à¤ķ à¤Ī
Ġà¤¸à¤ķ à¤²à¤Ĺ
à¤¿à¤Ĥ ),
à¤ĩà¤² à¤°
à¥ī "
à¤²à¤¨ à¤¬à¤°
Ġà¤« à¤²à¤¨
Ġà¤« à¤°à¤¯
à¤¯à¤® à¤£
à¤°à¤¸ à¤ķ
à¤ªà¤° à¤¬
à¤²à¤¯ à¤¸
à¤²à¤¯ à¤¸à¤Ńà¤ķ
à¤¤à¤° à¤ļà¤°
à¤¤à¤° à¤¶à¤¤à¤®
Ġà¤°à¤¹ à¤ĩ
Ġà¤°à¤¹ à¤¯à¤ķ
à¤ĺ à¤łà¤¨à¤ķ
Ġà¤Ķ à¤«
à¤Ĺà¤¤ à¤¨
à¤ĩà¤¤ à¤Ľ
à¤Ŀ à¤µ
à¤Ŀ à¤ĸà¤¨
à¤Ŀ à¤²à¤¥
Ġà¤¡ à¤ľ
Ġà¤¡ à¤°à¤¬
Ġà¤¸à¤Ń à¤ľà¤¨
à¤µà¤° à¤²
Ġà¤¤à¤° à¤Ļ
Ġà¤ķà¤¹ à¤ĩ
Ġà¤ķà¤¹ à¤½
Ġà¤ķà¤¹ à¤¬à¤¯
à¤½ à¤¦
à¤½ à¤¬
à¤½ à¤·
Ġà¤īà¤ª à¤ķà¤°à¤£à¤ķ
à¤µà¤² à¤¦
à¤µà¤² à¤ªà¤°
à¤¯à¤¤ à¤¤
Ġà¤ķà¤¹à¤² à¤ķà¤¯
à¤µà¤¨ à¤°
à¤µà¤¨ à¤²
à¤µà¤¨ à¤¹
à¤µà¤¨ à¤ªà¤°
à¤µà¤¨ à¤ªà¤¤
Ġà¤ĳ à¤Ĺ
à¤°à¤¦ à¤®
à¥Ģà¤Ĥ '
Ġà¤ĺ à¤®à¤£
à¤ŀ à¤¨
à¤ŀ à¤¯
à¤ŀ à¤®à¤¯
Ġà¤¬à¤¹ à¤°à¤¯
Ġà¤µà¤° à¤·
Ġà¤µà¤° à¤ĸ
à¤ľà¤¨ à¤Ń
à¤¶à¤¨ à¤¨
à¤¦à¤¨ à¤¹
à¤¦à¤¨ à¤µà¤¨
à¤¢ à¤µ
Ġà¤ıà¤« à¤Īà¤ıà¤ļ
Ġà¤ıà¤« à¤ĵà¤Ĩà¤Ī
Ġà¤²à¤Ĺ à¤¯
Ġà¤²à¤Ĺ à¤ĩà¤Ľ
Ġà¤ħà¤¹ à¤¹
à¤®à¤ķ à¤®
à¤ĵ à¤Ĺ
à¤ĵ à¤ľ
à¤ī à¤ªà¤¦
à¤ī à¤¡à¤¸
à¤¦à¤° à¤Ń
à¤¨à¤² à¤ļ
à¤¯à¤¨ à¤¨
à¤¯à¤¨ à¤ľ
Ġà¤ķà¤® à¤¨à¤µ
Ġà¤ķà¤® à¤¹à¤°à¤®
Ġà¤ķà¤°à¤¬ à¤¹
Ġà¤īà¤² à¤¹à¤¨
Ġà¤īà¤² à¤Ŀà¤¨
à¤ªà¤¤ à¤¨
à¤ªà¤¤ à¤¯
à¤°à¤µ à¤¹
à¤°à¤¹ à¤Ł
à¤Łà¤° à¤ķà¤°
à¤¬à¤° à¤ļ
à¤ħ à¤Ł
à¤ħ à¤µà¤¤
à¤ħ à¤°à¤¬
à¤ħ à¤ļà¤°
à¤ħ à¤®à¤ľ
à¤ħ à¤¨à¤®
Ġà¤¹à¤° à¤¡
Ġà¤¹à¤° à¤²à¤¨
Ġà¤¹à¤° à¤²à¤ķ
Ġà¤°à¤ĸ à¤¬à¤¨
Ġà¤Ĩà¤¬ à¤¤
Ġà¤Ĩà¤¬ à¤®
à¤¹à¤° à¤¨
à¤¹à¤° à¤ª
Ġ- (
Ġ- ]
à¤ķà¤² à¤®
Ġ' ;
Ġ, à¥¤
à¤¤à¤® à¤ľ
Ġà¤ľà¤¨ à¤ľà¤¨à¤ķ
Ġà¤ľà¤¨ à¤Ĺà¤£
à¤ıà¤¸ à¤ıà¤²
à¤ıà¤¸ à¤ıà¤¸
à¤ıà¤¸ à¤ıà¤ıà¤ª
à¤¯à¤² à¤¥
Ġà¤ł à¤¹à¤ķ
Ġà¤ıà¤ļ à¤¡
à¤¤à¤¨ à¤¸
à¤¨à¤° à¤Ĺà¤£
à¤Ĩà¤Ī à¤µ
Ġà¤ļà¤² à¤¬à¤¯
Ġà¤ıà¤¸ à¤ıà¤ļ
Ġà¤ıà¤¸ à¤¡à¤¬
âĢ ¢
à¤¨à¤µ à¤°à¤ķ
Ġà¤īà¤ł à¤µ
Ġà¤Ŀ à¤°à¤ķà¤²
Ġà¤ķà¤¥ à¤¯
Ġà¤ķà¤¨ à¤ĸ
à¤®à¤£ à¤¦
Ġà¤ıà¤¨ à¤ĵà¤Ĩà¤°
Ġà¤Ĭ à¤«
Ġà¤Ĭ à¤¨à¤ķ
Ġà¤Ĭ à¤ł
à¤µà¤§ à¤¯
Ġà¤¬à¤¢ à¤Ī
Ġà¤īà¤¨ à¤¹
à¤²à¤¬ à¤¨
Ġà¤ķà¤² à¤®à¤ķ
Ġà¤ĩà¤¨ à¤ľ
à¤¸à¤² à¤ª
Ġà¤¬à¤° à¤·à¤¹
à¥¨ à¥§à¥¨à¥¨
à¥Ģ) )à¥¤
Ġà¤ļà¤° à¤ħà¤ļà¤°
à¤²à¤¹ à¤Ł
Ġà¤¬à¤¤ à¤¬à¤¯
à¤ļà¤² à¤ĸ
Ġà¤¬à¤ľ à¤²à¤¹
à¤¨à¤¦ à¤¹
à¤¨à¤¦ à¤£
à¤«à¤² à¤®
à¤µà¤£ à¤¹
à¤¨à¤¸ à¤¬
à¥© à¥¨à¥©
à¤¯à¤¬ à¤¸
Ġà¤Ńà¤° à¤ķà¤°
Ġà¤ħà¤Ĺ à¤¹à¤¨à¤ķ
Ġà¤ľà¤² à¤¡à¤®à¤°
à¤ĵà¤² à¤¸
Ġà¤§à¤¨ à¤ª
Ġà¤ıà¤² à¤ª
à¤Ńà¤µ à¤µ
à¤¯à¤£ à¤ľ
Ġà¤ħà¤Ĺà¤° à¤¬à¤¤
à¥« à¥ªà¥«
Ġà¤Ĩà¤ª à¤®
Ġà¤Ĩà¤Ī à¤ĵà¤Ĩà¤°
Ġà¤ªà¤¦ à¤µ
Ġà¤°à¤ĸà¤² à¤¸
à¤ľà¤ķ à¤ķ
à¤ľà¤ķ à¤®à¤²
à¤°à¤ķà¤Ł à¤ķà¤°
Ġ[ ,
à¥ģà¤ĥ à¥¥
Ġà¤¨à¤® à¤¶
à¥Ń à¥¨à¥Ń
Ġà¤«à¤² à¤ª
Ġà¤µà¤¨ à¤¹
Ġà¤µà¤¨ à¤īà¤ª
Ġà¤Ńà¤°à¤¤ à¤¹à¤¨
Ġà¤¢ à¤°
à¤ĸà¤¬ à¤¤
Ġà¤¦à¤¶ à¤¦
Ġà¤¦à¤¶ à¤µà¤¦
Ġà¤¶à¤¤ à¤ªà¤¥
Ġà¤ľà¤® à¤¹
Ġà¤ľà¤® à¤ķà¤°
à¤¾) :
à¤ĳ à¤ķ
à¤¹à¤¸ à¤ª
à¤ĸà¤ķ à¤®à¤²
Ġà¤¸à¤² à¤Ł
Ġà¤ªà¤µ à¤®
Ġà¤ķà¤¯à¤²à¤ķ à¤¨
Ġà¤°à¤¹à¤¬ à¤¹
à¤®à¤¦ à¤¤
à¤®à¤°à¤£ à¤®
à¤®à¤°à¤£ à¤ªà¤¤
à¤¸à¤¦ à¤¸
à¤ķà¤¬ à¤¸
Ġà¤ļà¤ķ à¤«à¤¤
Ġà¤¨à¤Ĺà¤° à¤¨
à¤ıà¤¸à¤Ĩà¤° à¤ı
Ġà¤Ńà¤°à¤² à¤ª
Ġà¤ħà¤¯à¤² à¤¥
à¤²à¤Ń à¤¤
à¤²à¤Ń à¤®
à¤¤à¤¸ à¤¦à¤¨
à¤¦à¤¶ à¤¦
Ġà¤¨à¤° à¤ªà¤¤
Ġà¤¸à¤°à¤¸ à¤ķ
Ġà¤¤à¤°à¤« à¤µà¤²
à¤ħà¤² à¤®à¤¨
Ġà¥« à¥«
ĠÂ §
à¤¯à¤¯à¤¨ à¤®à¤¨à¤¨
à¥ĩà¤Ĥ) ),
à¥ĩ" ,
Ġà¤ħà¤Ł à¤ªà¤Ł
Ġà¤¨à¤ľà¤° à¤ħà¤¨
Ġà¤ıà¤«à¤ı à¤Ĩà¤Ī
Ġà¤Ĩà¤¸à¤ª à¤¡
à¤Ĳ à¤¤
Ġà¤°à¤£ à¤µ
Ġà¤¤à¤® à¤Ń
à¤µà¤ļ à¤¨à¤ķ
à¥§à¥Ń à¥©
à¥§à¥Ń à¥ª
à¥§à¥Ń à¥¯
Ġà¥¨à¥¦ à¥§à¥«
Ġà¤ĵà¤® à¤¹à¤°
à¥§à¥¬ à¥«
à¥§à¥¬ à¥¯
Ġà¤Ĺà¤ł à¤¬
Ġà¤ļà¤®à¤ķ à¤²
à¥§à¥® à¥©
Ġà¤ķà¤¦ à¤®à¤¨
Ġà¤Ńà¤Ł à¤ķà¤¤
Ġà¤ķà¤ļ à¤¡
à¥§à¥¯ à¥§
à¥§à¥¯ à¥¨
à¥§à¥¯ à¥Ń
à¥§à¥¯ à¥¦
à¤Ķ à¤ªà¤ļ
à¥¨à¥¦ à¥§
à¥¨à¥¦ à¥«
à¥¨à¥¦ à¥¦
à¥¨à¥¦ à¥¯
Ġà¤ªà¤ļ à¤ªà¤¨
Ġ(- ,
Ġà¤ļà¤²à¤¯ à¤µ
Ġâ ĸª
à¤²à¤ª à¤¡
à¤®à¤Ń à¤¦
Ġà¤¨à¤ľ à¤°à¤¨
Ġà¤®à¤Ĺ à¤°à¤®à¤ļ
à¤Ĺà¤µà¤¤ à¤ķ
à¤ĩà¤« à¤Ł
Ġà¤¬à¤°à¤¦ à¤ķ
Ġà¤ıà¤ıà¤® à¤¡à¤¬
Ġà¤¶à¤¨ à¤¹à¤¨
à¤¯à¤½ à¤¹
à¤²à¤²à¤ķ à¤¯
Ġà¤²à¤¹ à¤°à¤ķ
Ġà¥§à¥¯ à¥ªà¥Ń
Ġà¤ĸà¤Ĺ à¤ªà¤¤
à¥Ī" ;
Ġà¤ľà¤¯à¤¨ à¤Ĺà¤°
à¤ıà¤ıà¤² à¤ıà¤®
Ġ,-, ;
Ġà¤Ĩà¤ĩà¤¸ à¤Ĺ
à¤¿âĢĻ ,
à¤¿âĢĻ à¥¤
Ġà¤ľà¤ĩà¤¤ à¤¹
Ġà¤¦à¤ĩà¤² à¤¨
Ġà¤²à¤Ľ à¤®
Ġà¤ħà¤ľà¤¨ à¤¬
Ġà¤µà¤¨à¤¸ à¤¹
Ġà¤ħà¤µà¤¤à¤° à¤²
Ġà¤ªà¤¯ à¤°à¤¹
à¤®à¤ĺ à¤°à¤ķ
à¤®à¤ĺ à¤°à¤®
Ġà¤µà¤¯à¤¸ à¤ķ
Ġà¤ıà¤Łà¤² à¤¸
à¤ıà¤Ĩà¤Ī à¤ıà¤®à¤Ĩà¤°
Ġà¤ıà¤µà¤° à¤¶
Ġà¤ķà¤¤à¤° à¤¨
Ġà¤ıà¤ıà¤®à¤Ĩà¤Ī à¤Īà¤¯
__ __
Ġà¤ľà¤ªà¤¤ à¤ª
Ġà¤ļà¤¹à¤² à¤ªà¤¹à¤²
à¤·à¤¯à¤µ à¤Ł
Ġà¤ıà¤®à¤ı à¤Ĩà¤°à¤ı
Ġà¤¬à¤°à¤¬ à¤¸
à¤ıà¤Ī à¤Ī
Ġà¤¦à¤¸à¤° à¤¥
à¤ŀà¤®à¤¯ à¤ľà¤¨
Ġà¤¦à¤¶à¤µà¤¦ à¤¨à¤ķ
" "
) '
) ]
- ;
: "
Ġ +
à¤° à¤ı
à¤° à¤ĸà¤¨
à¤¿ à¥į
Ġà¤ķ à¤®à¤¤
Ġà¤ķ à¤Ļ
Ġà¤ķ à¤±
à¤¨ à¤¨à¤ķ
à¤¨ à¤ĺ
à¤¨ à¤ŀ
à¤¨ à¤¦à¤ķ
à¤¨ à¤¶à¤¨
à¤¨ à¤¶à¤ķ
à¤¨ à¤ľà¤²
à¤¤ à¤Ľ
à¤¤ à¤ı
à¤¤ à¤«à¤²
à¤¤ à¤ªà¤¥
à¤¤ à¤ĸà¤°
à¤¤ à¤Ĺà¤¬
à¤¤ à¤¬à¤¸
à¤ķ à¤·
à¤ķ à¤Ŀ
à¤ķ à¤¹à¤°
à¤ķ à¤ľà¤²
à¤ķ à¤Ľà¤¨
à¤ķ à¤ĳà¤²
à¤² à¤Ĺà¤¤
à¤² à¤Łà¤¨
à¤² à¤Ļ
à¤² à¤µà¤¸
à¤¯ à¤°à¤¹
à¤¯ à¤°à¤¶
à¤¯ à¤Ńà¤¯
à¤¯ à¤¯à¤ķà¤¨
à¤¯ à¤¡à¤²à¤°
Ġà¤¸ à¤īà¤¦
à¥Ģ âĢĿ
à¤¹ à¤ľà¤¨à¤ķ
à¤® à¤¶à¤°
à¤® à¤¬à¤¤
à¤® à¤½à¤µ
Ġà¤ª à¤¨à¤¸
à¤µ à¤Ļ
à¤µ à¤¦à¤¯
à¥ĭ );
à¤¸ à¤¦à¤¨
à¤¸ à¤µà¤ª
à¤¸ à¤²à¤¬
à¤¸ à¤µà¤¸
à¤¸ à¤Ĳ
à¤¸ à¤°à¤¸à¤Ń
Ġà¤® à¤¢
Ġà¤® à¤ī
Ġà¤® à¤¯à¤¨
Ġà¤® à¤°à¤¹
Ġà¤® à¤¥à¤¨
Ġà¤® à¤ĩà¤Ł
Ġà¤® à¤¥à¤²
Ġà¤® à¤°à¤£à¤ķ
Ġà¤® à¤ĩà¤Łà¤ķ
Ġà¤ħ à¤¯à¤®
Ġà¤ħ à¤¬à¤°
Ġà¤ħ à¤ĸà¤°
Ġà¤ľ à¤ªà¤¨
Ġà¤ľ à¤¹à¤²
Ġà¤ľ à¤ªà¤¥
Ġà¤ľ à¤¨à¤²à¤¹
à¤ª à¤ĺ
à¤ª à¤ĩà¤¯
à¤¦ à¤¥
à¤¦ à¤Ľ
à¤¦ à¤°à¤£
à¤¦ à¤¯à¤µ
à¤¦ à¤°à¤¦
à¤¦ à¤¬à¤°
à¤¦ à¤¸à¤®
à¤¦ à¤µà¤ľ
Ġà¤Ĩ à¤²à¤ķ
Ġà¤Ĩ à¤ĸà¤°
Ġà¤¬ à¤¯à¤°
Ġà¤¬ à¤¯à¤¸
Ġà¤¬ à¤¸à¤®
Ġà¤¬ à¤ĸà¤°
Ġà¤¬ à¤Ĺà¤¡
Ġà¤¬ à¤īà¤Ĩ
Ġà¤¹ à¤°à¤¸
Ġà¤¹ à¤¸à¤¨
Ġà¤¹ à¤²à¤ķ
Ġà¤¹ à¤¨à¤²
Ġà¤¹ à¤¦à¤¯
à¤Ł à¤¤à¤®
à¤Ĺ à¤Ľ
à¤Ĺ à¤Ī
à¤Ĺ à¤¹à¤®
à¤Ĺ à¤¸à¤Ńà¤ķ
Ġà¤µ à¤ª
Ġà¤µ à¤°à¤¸
Ġà¤µ à¤¹à¤¤
Ġà¤µ à¤¨à¤°
Ġà¤µ à¤ļà¤¸
Ġà¤¦ à¤°à¤¦
Ġà¤¦ à¤Ĺà¤¬
à¤¬ à¤ĸ
à¤¬ à¤ķà¤°
à¤¬ à¤¦à¤¨
à¤¬ à¤°à¤¹
à¤¬ à¤ķà¤²
à¤¬ à¤¹à¤¸
à¥Ĥ '
à¤§ à¤§
à¤§ à¤ķà¤¨
à¤§ à¤¨à¤¨
à¤§ à¤ªà¤¦
à¤§ à¤®à¤¯
Ġà¤ı à¤µà¤¨
Ġà¤ı à¤Łà¤°
Ġà¤ı à¤ıà¤¸à¤¸
à¤· à¤°à¤®
à¤· à¤¯à¤¨
à¤· à¤¤à¤µ
à¤£ à¤¨à¤ķ
à¤£ à¤ħà¤°
Ġà¤° à¤®à¤¤
Ġà¤° à¤Łà¤¨
Ġà¤° à¤¸à¤ķ
Ġà¤° à¤ļà¤¬
à¤ģ à¤ĥ
Ġà¤² à¤µà¤ķ
Ġà¤² à¤¹à¤ķ
à¤¥ à¤²à¤µ
à¤¥ à¤¸à¤Ńà¤ķ
à¤ľ à¤ĺ
à¤ľ à¤¯à¤¤
à¤ľ à¤¤à¤ķ
à¤ľ à¤µà¤§
à¤ľ à¤Ļ
à¤ľ à¤¯à¤µà¤²
à¤ľ à¤²à¤¸
à¤ľ à¤ªà¤¦
à¤ľ à¤µà¤¨à¤ķ
à¤ľ à¤ĸà¤¬à¤°
Ġà¤Ľ à¤¹à¤ķ
Ġà¤Ľ à¤°à¤ª
Ġà¤Ľ à¤®à¤¹
à¤Ľ à¤¨à¤¹
à¤¶ à¤®à¤ķ
à¤¶ à¤ªà¤¤
à¤¶ à¤®à¤¨
à¤ļ à¤«
à¤ļ à¤¸à¤¨
à¤ļ à¤µà¤²
à¤ļ à¤Ĺà¤°
à¤ļ à¤µà¤ķ
à¤ļ à¤ªà¤¦
à¤ļ à¤ķà¤µ
à¥ĩà¤Ĥ ":
à¥ĩà¤Ĥ ?---
Ġà¤ķà¤° à¤¸
Ġà¤ķà¤° à¤£à¤®
Ġà¤¤ à¤°à¤¤
Ġà¤¤ à¤®à¤²
Ġà¤¤ à¤¨à¤¨
Ġà¤¤ à¤ªà¤ķ
Ġà¤¤ à¤¤à¤ķ
Ġà¤¤ à¤ĩà¤¸
Ġà¤¤ à¤ªà¤¹
à¤¡ à¤°à¤¸
à¤¡ à¤¯à¤¨
à¤¡ à¤°à¤¨
à¤¡ à¤Ĺà¤²à¤¸
Ġà¤Ĺ à¤®à¤²
Ġà¤Ĺ à¤½
Ġà¤Ĺ à¤¨à¤¬
Ġà¤Ĺ à¤ľà¤®
Ġà¤ªà¤° à¤µà¤°à¤¦
à¤ĸ à¤Ł
à¤ĸ à¤ľ
à¤ĸ à¤Ī
à¤ĸ à¤ªà¤°
à¤ĸ à¤²à¤¤
à¤ĸ à¤Ĺà¤°
à¤ĸ à¤¹à¤ķ
à¤ĸ à¤¹à¤°à¤£
Ġà¤Ń à¤®
Ġà¤Ń à¤°à¤£
Ġà¤Ń à¤¯à¤²
à¤ı à¤ķà¤²
à¤ı à¤ķà¤¹
à¤ı à¤ıà¤ķ
à¤Ń à¤§
à¤Ń à¤ļ
à¤Ń à¤ªà¤°
à¤ĩ à¤Ŀ
à¤ĩ à¤ķà¤ķ
Ġà¤ī à¤¸à¤°
Ġà¤ī à¤®à¤ķ
Ġà¤ī à¤°à¤Ĺ
Ġà¤¶ à¤¤à¤¨
Ġà¤¶ à¤®à¤¶
Ġà¤¯ à¤²
Ġà¤¯ à¤¦à¤¨
Ġà¤¯ à¤¶à¤°
Ġà¤¯ à¤Ķ
Ġà¤ĵ à¤¶
Ġà¤ĵ à¤ĩà¤¸à¤¨
Ġà¤Ľà¤² à¤°à¤¹
Ġà¤ļ à¤ªà¤°
Ġà¤ļ à¤°à¤µ
Ġà¤ļ à¤Łà¤°
Ġà¤ļ à¤Łà¤ķ
Ġà¤¸à¤® à¤¹
Ġà¤¸à¤® à¤®
Ġà¤Ī à¤Ī
Ġà¤Ī à¤¸à¤®
Ġà¤ıà¤ķ à¤ķà¤°
Ġà¤ıà¤ķ à¤ªà¤ķ
Ġà¤ıà¤ķ à¤²à¤¬
Ġà¤ıà¤ķ à¤Ľà¤¤
à¤¿à¥¤ "
à¤¼ "
à¤¼ à¥Ĥà¤ģ
Ġà¤§ à¤¹
Ġà¤§ à¤ľ
Ġà¤§ à¤µà¤²
Ġà¤ĸ à¤ĸ
Ġà¤ĸ à¤¯à¤¤
Ġà¤ĸ à¤Ĺà¤°
Ġà¤ĸ à¤Łà¤ķ
Ġà¤ĸ à¤ĩà¤¤à¤¯
Ġà¤ĸ à¤¯à¤²à¤¹
Ġà¤ıà¤¹ à¤°
Ġà¤ħà¤¨ à¤ļ
Ġà¤ħà¤¨ à¤°à¤£
Ġà¤ħà¤¨ à¤ķà¤¥
à¤°à¤£ à¤®à¤¤
à¤°à¤£ à¤µà¤¶
à¤°à¤£ à¤¤à¤ª
Ġà¤¬à¤¨ à¤ıà¤¬
à¤Ī à¤µ
à¤Ī à¤¦
à¤Ī à¤«
à¤Ī à¤Ĺà¤²
à¤Ī à¤¥à¤°
Ġà¤¹à¤® à¤®
à¤« à¤¯
à¥ĩà¤ģ )
à¤¾à¤ģ à¥¥à¥¥
Ġ( [
Ġ( ]
Ġà¤ĩ à¤®à¤²
Ġà¤ĩ à¤µà¤°
Ġà¤ĩ à¤¯à¤°
à¤ıà¤² à¤¡à¤¬
à¤ıà¤² à¤ıà¤ķ
à¤Ĩ à¤¡
à¤Ĩ à¤ĸ
à¤Ĩ à¤ı
à¤Ĩ à¤Ĩ
à¤Ĩ à¤¯à¤¬
à¤Ĩ à¤ĩà¤¸
à¤Ĩ à¤ķà¤¸
à¤Ĩ à¤ĩà¤¯
à¤Ĩ à¤¸à¤ª
Ġà¤¸à¤ķ à¤®
à¤¿à¤Ĥ ?
à¤¨à¤ķ à¤¯
à¤ĩà¤² à¤¹
Ġà¤¸à¤¬ à¤²à¤¤
à¤ł à¤Ĺà¤¤
à¥ī à¥¤
à¤²à¤¨ à¤Ĺ
à¤²à¤¨ à¤ķà¤°
Ġà¤« à¤²à¤°
à¤¯à¤® à¤¦
à¤¯à¤® à¤¶
à¤°à¤¸ à¤¯
à¤°à¤¸ à¤¬
à¤°à¤¸ à¤°à¤ķ
à¤®à¤² à¤²
à¤®à¤² à¤ĸà¤¨
Ġà¤Ĩà¤° à¤ı
Ġà¤Ĩà¤° à¤Ī
Ġà¤Ĩà¤° à¤ıà¤®
à¤ªà¤° à¤¶
à¤ªà¤° à¤Ĩà¤°
à¤¤à¤° à¤¯
à¤¤à¤° à¤¬
à¤¤à¤° à¤ķà¤°
à¤¤à¤° à¤Ļ
Ġà¤°à¤¹ à¤ķà¤°
Ġà¤°à¤¹ à¤½
à¤ĺ à¤¬
à¤ĺ à¤Ľ
à¤ĺ à¤¨à¤¨
à¤Ĺà¤¤ à¤ª
à¤¯à¤µ à¤ķ
à¤ĩà¤¤ à¤ĸ
à¤ĥ :
à¤Ŀ à¤¯à¤µ
à¤Ŀ à¤¯à¤µà¤²
à¤¸à¤¨ à¤ªà¤°
Ġà¤¡ à¤°à¤¸
Ġà¤¡ à¤²à¤¬
Ġà¤¡ à¤¬à¤²
Ġà¤¸à¤Ń à¤Ĺ
Ġà¤¸à¤Ń à¤ł
à¤µà¤° à¤µà¤°
Ġà¤¤à¤° à¤¯
Ġà¤¤à¤° à¤¥
Ġà¤ķà¤¹ à¤ı
Ġà¤ķà¤¹ à¤ĩà¤Ľ
Ġà¤ªà¤¹ à¤¨à¤¨
Ġà¤ªà¤¹ à¤¨à¤¤
Ġà¤īà¤ª à¤¤
Ġà¤īà¤ª à¤ł
Ġà¤īà¤ª à¤Ĺà¤¤
Ġà¤īà¤ª à¤ħà¤¨
Ġà¤ħà¤ª à¤²à¤ķ
à¤£à¤¯ à¤¸à¤Ń
à¤µà¤¨ à¤Ń
Ġà¤®à¤¹ à¤«
à¤°à¤¦ à¤¦
à¥Īà¤Ĥ "à¥¤
à¥Īà¤Ĥ ":
à¤¸à¤° à¤²à¤¨
Ġà¤ĺ à¤°à¤£
Ġà¤ĺ à¤¹à¤°
Ġà¤ĺ à¤¨à¤¸
à¤ŀ à¤®à¤¤à¤¨
Ġà¤¸à¤¹ à¤¥
Ġà¤Ĩà¤¦ à¤¤à¤¨
Ġà¤¬à¤¹ à¤ı
Ġà¤µà¤° à¤¬à¤°
Ġà¤¥ à¤°à¤µ
à¤ľà¤¨ à¤¨à¤ķ
à¤ľà¤¨ à¤µà¤°
à¤ľà¤¨ à¤Ĺà¤°
à¤ĸà¤¨ à¤¨à¤ķà¤°
Ġà¤īà¤¦ à¤Ĺ
à¤¦à¤¨ à¤¡
à¤¢ à¤¬
Ġà¤ıà¤« à¤ıà¤¸à¤¡à¤¬
à¤ķà¤°à¤£ à¤¸à¤°à¤²
Ġà¤ħà¤¸ à¤¹à¤¨
Ġà¤®à¤¨ à¤¶
à¤µà¤¤ à¤®à¤ª
à¤®à¤ķ à¤ķ
à¤®à¤ķ à¤ª
à¤ĵ à¤¨à¤ķà¤°
à¤ī à¤§
à¤ī à¤°à¤¸
à¤ī à¤°à¤²
à¤ī à¤¨à¤¸
à¤ī à¤łà¤²
à¤¨à¤² à¤¸
à¥ģà¤ģ ,
à¤°à¤Ń à¤ķ
à¤®à¤¤ à¤ª
à¤®à¤¤ à¤²à¤¬
Ġà¤ķà¤® à¤¸
Ġà¤ķà¤® à¤²à¤¨
Ġà¤īà¤² à¤°
Ġà¤īà¤² à¤Łà¤«
à¤ķà¤¨ à¤¸à¤Ń
à¤°à¤¹ à¤°à¤£
à¤°à¤¹ à¤¨à¤ķ
à¤¬à¤° à¤ª
Ġà¤¤à¤ķ à¤¤
Ġà¤¤à¤ķ à¤²à¤¹
à¤ħ à¤ı
à¤ħ à¤½
à¤ħ à¤®à¤Ĺ
à¤ħ à¤°à¤ª
à¤ħ à¤Ĺà¤¸
Ġà¤ħà¤² à¤µ
Ġà¤ªà¤¤ à¤Ŀà¤¡
Ġà¤Ĩà¤¬ à¤ı
Ġà¤Ĩà¤¬ à¤¯à¤ľ
Ġà¤ħà¤Ń à¤ķ
Ġà¤ħà¤Ń à¤¯à¤®
à¤¯à¤° à¤°
à¤¯à¤° à¤Ĺ
à¤Ĺà¤² à¤ķà¤°
Ġà¤¸à¤®à¤Ŀ à¤¥
Ġà¤ľà¤¬ à¤¹
Ġà¤ħà¤¤ à¤²
Ġà¤ħà¤¤ à¤¸
Ġà¤ľà¤¨ à¤ªà¤¦
Ġà¤§à¤° à¤¥
Ġà¤§à¤° à¤«à¤°
à¤¯à¤ķà¤¤ à¤¯
à¤¯à¤² à¤®
à¤¯à¤² à¤Ń
Ġ) ')
Ġ) ")
Ġ) 'à¥¤
Ġà¤ł à¤Ł
Ġà¤ł à¤®à¤ķ
Ġà¤ıà¤ļ à¤ľ
à¤¤à¤¨ à¤¤
à¤¨à¤° à¤¨
Ġà¤Ńà¤Ĺ à¤¦à¤¡
Ġà¤ıà¤¸ à¤ķ
âĢ ĺ
Ġà¤¬à¤² à¤¹
Ġà¤¬à¤² à¤§
Ġà¤īà¤ł à¤¹
Ġà¤ıà¤ķà¤° à¤¬
Ġà¤Ŀ à¤¨
Ġà¤Ŀ à¤¹à¤°
Ġà¤Ŀ à¤²à¤«à¤²
Ġà¤Ŀ à¤ªà¤ķà¤¨
Ġà¤ķà¤¥ à¤®
Ġà¤ķà¤¨ à¤¸
à¤¤à¤ķ à¤§
à¤®à¤£ à¤°
à¤®à¤£ à¤¬
Ġà¤ıà¤¨ à¤ıà¤¡
Ġà¤Ĭ à¤¬
à¤ĩà¤¨ à¤¸
Ġà¤¬à¤¢ à¤¨
à¤§à¤¨ à¤¯
Ġà¤īà¤¨ à¤Ł
à¤²à¤¬ à¤¤
Ġà¤īà¤¨à¤ķà¤° à¤¨
à¤µà¤¯ à¤¨à¤ķ
Ġà¤ķà¤¤ à¤¯à¤ķà¤¤à¤¯
Ġà¤ĺà¤° à¤ħ
Ġà¤µà¤¸ à¤¤
Ġà¤Ńà¤½ à¤Ĺ
Ġà¤¬à¤ļ à¤ķ
Ġà¤¬à¤ļ à¤¤à¤¯
Ġà¤ħà¤¬ à¤¥
à¤¸à¤² à¤µ
à¤Łà¤² à¤«
à¤°à¤¬ à¤§
Ġà¤¬à¤° à¤¬à¤°
Ġà¤¬à¤° à¤¨à¤¤
à¤ıà¤ļ à¤ķ
Ġà¤ªà¤°à¤® à¤®
à¥¨ à¥¨à¥©
à¤°à¤ľ à¤®
à¤²à¤¹ à¤ķ
à¤·à¤¯ à¤Ĺà¤¤
Ġà¤¬à¤ľ à¤µ
Ġà¤¬à¤ľ à¤²à¤ĸ
à¤«à¤² à¤¸
à¤µà¤£ à¤°
à¤¥à¤¨ à¤®
à¤Ļ à¤ķ
Ġà¤Ńà¤° à¤¹à¤²
à¤ĩà¤¸ à¤¸
Ġà¤¨à¤µ à¤Ń
à¤¦à¤¯ à¤¹
à¤ªà¤£ à¤®
à¥ª à¥ªà¥«
à¤¬à¤¨ à¤¹à¤¹
Ġà¤ľà¤² à¤µ
à¤¹à¤°à¤£ à¤¨
Ġà¤ķà¤ª à¤Łà¤°
à¤Łà¤ķ à¤ª
à¤Ńà¤µ à¤¶
Ġà¤Ĩà¤ĩ à¤Ľ
à¤¯à¤£ à¤ª
Ġà¤ļà¤°à¤£ à¤¸
Ġà¤ļà¤°à¤£ à¤ļ
Ġà¤ļà¤°à¤£ à¤µà¤¨
à¤ĩà¤Ľ à¤¥
à¤¡à¤² à¤®
Ġà¤ħà¤ķ à¤£
à¤Ĺà¤® à¤¹
Ġà¤ªà¤¦ à¤ª
Ġà¤ªà¤¦ à¤¸à¤Ń
Ġà¤ıà¤® à¤¹à¤°
à¤²à¤¸ à¤ĸ
à¤ıà¤¨ à¤ıà¤«à¤ľ
à¤°à¤ª à¤¶
Ġà¤Ńà¤¯ à¤¦
Ġà¤Ńà¤¯ à¤°à¤¹
Ġà¤Ĳà¤¸ à¤¹
à¤¬à¤² à¤°
à¤²à¤° à¤ªà¤¨
Ġà¤¤à¤¹ à¤ĸ
Ġà¤Ńà¤µ à¤¦
Ġà¤Ńà¤µ à¤¶
Ġà¤Ńà¤µ à¤¬à¤¨
Ġà¤Ńà¤µ à¤Ńà¤¯
Ġà¤ľà¤Ĺ à¤®à¤Ĺ
Ġà¤¦à¤² à¤ªà¤¤
Ġà¤ľà¤¯ à¤§
Ġà¤°à¤ľ à¤¤
Ġà¤¬à¤¸ à¤¯à¤µà¤²
à¤·à¤¸ à¤¸
à¤¤à¤¹ à¤Ł
à¤¯à¤¦ à¤§
Ġà¤¬à¤¨à¤² à¤¥
Ġà¤Ĭà¤ªà¤° à¤µà¤²
à¤ıà¤® à¤ıà¤Ł
Ġà¤ľà¤¨à¤ķ à¤¦
Ġà¤¸à¤ľ à¤®
Ġà¤¸à¤ľ à¤²à¤¨à¤¯à¤¨
à¥ĩ) )à¥¤
Ġà¤īà¤ªà¤° à¤µà¤²
Ġà¤¦à¤¶ à¤µà¤¦à¤¨
Ġà¤¶à¤¤ à¤¶à¤¤
Ġà¤ķà¤µ à¤ļà¤ķ
Ġà¤ķà¤µ à¤ļà¤¸
à¤¾) "
âĢĻ :
âĢĻ );
à¤ĳ à¤ª
à¤¹à¤® à¤¯
Ġà¤ķà¤¹à¤¬ à¤¹
à¤¨à¤¬ à¤¹
à¤ıà¤¹ à¤ķà¤°
à¤¿" )
à¤¿" ;
à¤ľà¤¯ à¤¶
à¤¥à¤ķ à¤ª
Ġà¤°à¤¸ à¤Ĺà¤°
à¤®à¤°à¤£ à¤¸
à¤·à¤° à¤µà¤²
à¤¤à¤°à¤£ à¤ķà¤°
à¥ĭà¥¤ à¥¤
Ġà¤ķà¤®à¤² à¤®
Ġà¤ļà¤ķ à¤®à¤ķ
Ġà¤ķà¤Ł à¤¯
à¥Ģ- ;
à¤Ĩà¤¤ à¤°à¤ķ
à¤ĸà¤° à¤ªà¤°
à¤°à¤§ à¤¨à¤ķ
à¤¥à¤² à¤ªà¤°
Ġà¤®à¤¸ à¤²à¤¯
à¤¸à¤ª à¤¡
à¤ħà¤ª à¤µ
Ġà¤ªà¤Ł à¤µ
Ġà¤ªà¤Ł à¤ķà¤¯
Ġà¤ªà¤Ł à¤ķà¤²
Ġà¤ĺà¤Ł à¤¦
à¤¦à¤¶ à¤Ń
Ġà¥ª à¥Ń
Ġà¥ª à¥®
Ġà¥ª à¥¯
Ġà¤¸à¤°à¤¸ à¤«
Ġà¥« à¥§
Ġà¥« à¥¨
Ġà¥« à¥¬
Ġà¥« à¥Ń
Ġà¤ıà¤ıà¤¸ à¤ı
Ġà¤īà¤ªà¤¨ à¤Ĺà¤°
Ġà¤²à¤½ à¤ķà¤½
à¤ĩà¤® à¤°à¤ķ
Ġà¤ıà¤¸à¤ı à¤¡
à¤¯à¤®à¤¨ à¤ĺ
ĠÂ £
Ġà¤¤à¤¯ à¤ªà¤°
à¤ļà¤¬ à¤ļ
Ġà¥¬ à¥ª
Ġà¤ľà¤ª à¤¬
Ġ/ ,
Ġà¤Ĺà¤® à¤ķà¤¯
Ġà¤¯à¤® à¤ĺà¤°
à¥Ģ' ),
âĢĿ :
à¤Ĩà¤¯ à¤ķà¤°
Ġà¤Ĩà¤ĩà¤² à¤ķ
Ġà¤®à¤¨à¤¨ à¤¶
à¤ļà¤°à¤£ à¤®
Ġà¤¨à¤¯à¤¨ à¤¨
à¥§à¥Ń à¥Ń
Ġà¥¨à¥¦ à¥¬à¥®
Ġà¥¨à¥¦ à¥¬à¥§
Ġà¥¨à¥¦ à¥Ńà¥ª
à¤¨à¤²à¤ķ à¤¨
à¥§à¥® à¥Ń
à¥§à¥® à¥®
à¥§à¥® à¥¯
à¤£à¤µ à¤ĸà¤£
à¥§à¥¯ à¥©
à¥§à¥¯ à¥«
à¥§à¥¯ à¥¬
à¥§à¥¯ à¥®
à¥§à¥¯ à¥¯
Ġà¤ļà¤¯à¤¨ à¤¸
à¤¿? '
à¥¨à¥¦ à¥¨
à¥¨à¥¦ à¥©
à¥¨à¥¦ à¥ª
à¥¨à¥¦ à¥¬
à¥¨à¥¦ à¥Ń
à¥¨à¥¦ à¥®
à¥¨à¥¦ à¥§à¥Ń
Ġ[-] ;
à¤®à¤Ń à¤¯à¤¦
Ġà¤®à¤¹à¤² à¤ķ
Ġà¤ħà¤Ĺà¤² à¤¬à¤Ĺà¤²
à¤¾] )à¥¤
à¤Ĺà¤µà¤¤ à¤ª
à¤Ĺà¤µà¤¤ à¤ķà¤¥
à¥¨à¥ª à¥©
à¥¨à¥¬ à¥¯
Ġà¤¬à¤°à¤¦ à¤¬
Ġà¤ĵà¤µà¤° à¤Ł
Ġà¤¶à¤® à¤¨à¤ķ
Ġà¤Ĩà¤« à¤¤
Ġà¤¸à¤¦à¤° à¤²
Ġà¤ħà¤Łà¤² à¤ľ
Ġà¤¨à¤¬ à¤ķà¤¨
Ġà¤¹à¤°à¤· à¤²
Ġà¤¸à¤¹à¤² à¤ķ
Ġà¤Ĺà¤Ĺà¤¨ à¤ļà¤°
Ġà¤®à¤¥ à¤¬
Ġà¤®à¤ķà¤° à¤¨
Ġà¤ļà¤Ł à¤ªà¤Ł
âĢĶ "
Ġà¤¨à¤ĸ à¤¶
Ġà¤ļà¤°à¤® à¤¸
à¤¨à¤ªà¤° à¤ĸ
à¤·à¤Ń à¤§
Ġà¤ıà¤«à¤ıà¤« à¤Ī
Ġà¤ľà¤ĩ à¤ķà¤°
à¤ıà¤²à¤ı à¤ıà¤²à¤¸
Ġà¤ıà¤¸à¤ıà¤« à¤ıà¤¸
à¤¤à¤¬à¤² à¤§
à¤ķà¤ĸà¤¨ à¤¹
Ġà¤Ŀà¤ķ à¤Ŀà¤ķ
Ġà¤°à¤®à¤¨ à¤Ĺà¤°
Ġà¤ľà¤²à¤ĸ à¤ĩ
à¤Ĩà¤°à¤ĵ à¤ıà¤®
à¤¿âĢĿ ,
à¤ķà¤²à¤¯ à¤µ
Ġà¤ıà¤ıà¤ı à¤¡
Ġà¤¸à¤°à¤°à¤° à¤°
Ġà¤¬à¤Łà¤Ĺ à¤¬à¤¨
Ġà¤ķà¤£à¤ķ à¤£
à¤¨à¤°à¤¦ à¤²
à¤£à¤ħ à¤µà¤Ĺ
Ġà¤Ĩà¤Īà¤ıà¤ı à¤®à¤Ĺ
Ġà¤®à¤°à¤ķ à¤¤à¤®à¤£
à¤°à¤¤à¤ī à¤ªà¤µ
Ġà¤ľà¤¨à¤Ĺà¤£ à¤®à¤¨
à¤¸à¤Ĳ à¤ª
; '
¹ ,
Ġ à¥ĭ
Ĥ ¹,
Ġà¤ £
Ġà¤ ĥ
Ġà¤ Ļ
à¥ °
à¥ Ĩ
à¥ Ķ
à¤¾ à¤¿
à¤° à¤ĵ
à¤° à¤¨à¤¨
à¤° à¤Łà¤¨
à¤° à¤Ĩà¤¬à¤¯
à¥ĩ ?---
Ġà¤ķ à¤ªà¤°
Ġà¤ķ à¤¸à¤°
Ġà¤ķ à¤µà¤¯
Ġà¤ķ à¤¸à¤®à¤¸
à¤¨ à¤¯à¤ķ
à¤¨ à¤Ĩ
à¤¨ à¤¯à¤®
à¤¨ à¤Ĩà¤°
à¤¨ à¤®à¤ķ
à¤¨ à¤ĩà¤¯
à¤¨ à¤ħà¤ªà¤®
à¤¤ à¤ĩ
à¤¤ à¤²à¤¯
à¤¤ à¤¯à¤¤
à¤¤ à¤ĵ
à¤¤ à¤ªà¤ķ
à¤¤ à¤¸à¤®à¤¯
à¤¤ à¤Ńà¤¯
à¤¤ à¤īà¤Ĺ
à¤ķ à¤ķà¤°à¤£
à¤ķ à¤¬à¤²
à¤ķ à¤ħà¤°
à¤² à¤µà¤²
à¤² à¤µà¤ķ
à¤² à¤ħà¤¨
à¤² à¤ĩà¤¯
à¤² à¤ıà¤¬
à¤¯ à¤¯à¤¤
à¤¯ à¤¸à¤°
à¤¯ à¤ªà¤ķ
Ġà¤¸ à¤Łà¤¨
Ġà¤¸ à¤¸à¤®
Ġà¤¸ à¤ªà¤¦
Ġà¤¸ à¤¡à¤ķ
Ġà¤¸ à¤ªà¤¥
à¤¹ à¤ł
à¤¹ à¤Ĩà¤°
à¤¹ à¤ķà¤²
à¤¹ à¤®à¤¨
à¤¹ à¤Łà¤ķ
à¤® à¤Ľ
à¤® à¤½
à¤® à¤µà¤¤
à¤® à¤ħ
à¤® à¤¬à¤¦
à¤® à¤¬à¤¸
Ġà¤ª à¤¯à¤µ
Ġà¤ª à¤¯à¤²
Ġà¤ª à¤¨à¤¬
Ġà¤ª à¤ĩà¤¡
Ġà¤ª à¤ĵà¤¤
Ġà¤ª à¤¯à¤²à¤¹
à¤µ à¤ĩ
à¤µ à¤ĺ
à¤µ à¤µà¤¨
à¤µ à¤ŀ
à¤µ à¤¯à¤¸
à¤µ à¤ĩà¤¨
à¤µ à¤Ĺà¤®
à¤µ à¤¹à¤®
à¤µ à¤ĭà¤£
à¥ĭ à¤ĥà¥¤
à¥ĭ ),
à¥ĭ à¤ĥà¥¥
à¤¸ à¤ı
à¤¸ à¤ĩ
à¤¸ à¤ıà¤²
à¤¸ à¤Ĺà¤¤
à¤¸ à¤µà¤¨
à¤¸ à¤¤à¤µ
à¤¸ à¤¸à¤®
à¤¸ à¤¤à¤ķ
à¤¸ à¤§à¤°
Ġà¤® à¤¸à¤¨
Ġà¤® à¤Łà¤°
Ġà¤® à¤¯à¤ª
Ġà¤® à¤ķà¤¡
Ġà¤® à¤ķà¤Ĺ
Ġà¤ħ à¤¯à¤µ
Ġà¤ħ à¤ĵ
Ġà¤ħ à¤¤à¤µ
Ġà¤ħ à¤Łà¤¨
Ġà¤ħ à¤¯à¤¸
Ġà¤ħ à¤ıà¤²à¤¨
à¥ģ '
Ġà¤ľ à¤½
Ġà¤ľ à¤ªà¤ķ
Ġà¤ľ à¤²à¤¹
Ġà¤ľ à¤ıà¤µ
Ġà¤ľ à¤¯à¤¤à¤¨
Ġà¤ľ à¤ĩà¤¸à¤ķ
à¤ª à¤¸à¤°
à¤ª à¤²à¤¤
à¤ª à¤ļà¤¨
à¤ª à¤ªà¤¤
à¤ª à¤ķà¤²
à¤ª à¤µà¤¸
à¤ª à¤²à¤®
à¤ª à¤¹à¤®
à¤ª à¤ªà¤¦
à¤¦ à¤µà¤¶
à¤¦ à¤¸à¤µ
à¤¦ à¤ªà¤°à¤®
Ġà¤¨ à¤²à¤ķ
Ġà¤¨ à¤ļà¤¨
Ġà¤¨ à¤°à¤²
Ġà¤¨ à¤ĸà¤°
Ġà¤¨ à¤°à¤¹à¤°
Ġà¤Ĩ à¤ľà¤¨
Ġà¤Ĩ à¤ıà¤ķ
Ġà¤Ĩ à¤®à¤¸à¤Ń
Ġà¤Ĩ à¤ĩà¤¸à¤¨à¤°
Ġà¤¬ à¤¯à¤®
Ġà¤¬ à¤Ŀ
Ġà¤¬ à¤®à¤ķ
Ġà¤¬ à¤ĺà¤¨
Ġà¤¬ à¤°à¤ķà¤¨
Ġà¤¬ à¤°à¤®à¤¨
Ġà¤¬ à¤Ľà¤¡
à¥¤ âĢĿ
Ġà¤¹ à¤½
Ġà¤¹ à¤łà¤ķ
Ġà¤¹ à¤¯à¤¹
Ġà¤¹ à¤°à¤¹à¤°
à¤Ł à¤ļà¤¨
à¤Ĺ à¤®à¤£
à¤Ĺ à¤®à¤¸
à¤Ĺ à¤µà¤¸
à¤Ĺ à¤µà¤¦
à¤Ĺ à¤ļà¤ķ
à¤Ĺ à¤ħà¤¬
Ġà¤µ à¤²à¤®
Ġà¤µ à¤¦à¤¤
Ġà¤¦ à¤ĩ
Ġà¤¦ à¤«
à¤¬ à¤¯à¤®
à¤¬ à¤²à¤¸
à¤¬ à¤ħà¤ľ
à¤§ à¤Ĺ
à¤§ à¤°à¤¸
à¤§ à¤ªà¤°
à¤§ à¤²à¤ķ
à¤§ à¤®à¤¨
à¤§ à¤ľà¤²
Ġà¤ı à¤ĩ
Ġà¤ı à¤¡à¤ķ
à¤· à¤·
à¤· à¤¡
à¤· à¤ļà¤¨
à¤· à¤°à¤¶
à¤· à¤®à¤¨
à¤£ à¤µà¤°
à¤£ à¤ľà¤¨
à¤£ à¤°à¤¹
à¤£ à¤¸à¤Ń
Ġà¤° à¤£à¤ķ
Ġà¤° à¤¥à¤®
Ġà¤° à¤®à¤¯
Ġà¤° à¤Łà¤¯
à¤ģ à¥į
à¤ģ à¥¥à¥¥
à¤ģ );
Ġà¤² à¤¨
Ġà¤² à¤£
Ġà¤² à¤°à¤¤
Ġà¤² à¤°à¤ķ
Ġà¤² à¤¦à¤¨
Ġà¤² à¤µà¤¯
Ġà¤² à¤¯à¤µà¤²
Ġà¤² à¤ľà¤ķ
Ġà¤² à¤Ńà¤¨
Ġà¤² à¤«à¤¡
à¤¥ à¤µà¤¤
à¤¥ à¤°à¤¹
à¤¥ à¤ľà¤²
à¤¥ à¤ªà¤°à¤ķ
à¤ľ à¤½
à¤ľ à¤ķà¤¯
à¤ľ à¤ªà¤¤
à¤ľ à¤¹à¤¨
à¤ľ à¤Ĺà¤¨
à¤ľ à¤¬à¤¨
à¤ľ à¤¯à¤ª
à¤ľ à¤ĩà¤ķ
Ġà¤Ľ à¤¨à¤¨
à¤Ľ à¤¨à¤ķ
à¤Ľ à¤²à¤¤
à¤Ľ à¤¤à¤®
à¤¶ à¤²à¤¨
à¤¶ à¤ªà¤°
à¤¶ à¤¯à¤¸
