{"<pad>":0,"<s>":1,"</s>":2,"<unk>":3,"!":4,"\"":5,"#":6,"$":7,"%":8,"&":9,"'":10,"(":11,")":12,"*":13,"+":14,",":15,"-":16,".":17,"/":18,"0":19,"1":20,"2":21,"3":22,"4":23,"5":24,"6":25,"7":26,"8":27,"9":28,":":29,";":30,"<":31,"=":32,">":33,"?":34,"@":35,"A":36,"B":37,"C":38,"D":39,"E":40,"F":41,"G":42,"H":43,"I":44,"J":45,"K":46,"L":47,"M":48,"N":49,"O":50,"P":51,"Q":52,"R":53,"S":54,"T":55,"U":56,"V":57,"W":58,"X":59,"Y":60,"Z":61,"[":62,"\\":63,"]":64,"^":65,"_":66,"`":67,"a":68,"b":69,"c":70,"d":71,"e":72,"f":73,"g":74,"h":75,"i":76,"j":77,"k":78,"l":79,"m":80,"n":81,"o":82,"p":83,"q":84,"r":85,"s":86,"t":87,"u":88,"v":89,"w":90,"x":91,"y":92,"z":93,"{":94,"|":95,"}":96,"~":97,"¡":98,"¢":99,"£":100,"¤":101,"¥":102,"¦":103,"§":104,"¨":105,"©":106,"ª":107,"«":108,"¬":109,"®":110,"¯":111,"°":112,"±":113,"²":114,"³":115,"´":116,"µ":117,"¶":118,"·":119,"¸":120,"¹":121,"º":122,"»":123,"¼":124,"½":125,"¾":126,"¿":127,"À":128,"Á":129,"Â":130,"Ã":131,"Ä":132,"Å":133,"Æ":134,"Ç":135,"È":136,"É":137,"Ê":138,"Ë":139,"Ì":140,"Í":141,"Î":142,"Ï":143,"Ð":144,"Ñ":145,"Ò":146,"Ó":147,"Ô":148,"Õ":149,"Ö":150,"×":151,"Ø":152,"Ù":153,"Ú":154,"Û":155,"Ü":156,"Ý":157,"Þ":158,"ß":159,"à":160,"á":161,"â":162,"ã":163,"ä":164,"å":165,"æ":166,"ç":167,"è":168,"é":169,"ê":170,"ë":171,"ì":172,"í":173,"î":174,"ï":175,"ð":176,"ñ":177,"ò":178,"ó":179,"ô":180,"õ":181,"ö":182,"÷":183,"ø":184,"ù":185,"ú":186,"û":187,"ü":188,"ý":189,"þ":190,"ÿ":191,"Ā":192,"ā":193,"Ă":194,"ă":195,"Ą":196,"ą":197,"Ć":198,"ć":199,"Ĉ":200,"ĉ":201,"Ċ":202,"ċ":203,"Č":204,"č":205,"Ď":206,"ď":207,"Đ":208,"đ":209,"Ē":210,"ē":211,"Ĕ":212,"ĕ":213,"Ė":214,"ė":215,"Ę":216,"ę":217,"Ě":218,"ě":219,"Ĝ":220,"ĝ":221,"Ğ":222,"ğ":223,"Ġ":224,"ġ":225,"Ģ":226,"ģ":227,"Ĥ":228,"ĥ":229,"Ħ":230,"ħ":231,"Ĩ":232,"ĩ":233,"Ī":234,"ī":235,"Ĭ":236,"ĭ":237,"Į":238,"į":239,"İ":240,"ı":241,"Ĳ":242,"ĳ":243,"Ĵ":244,"ĵ":245,"Ķ":246,"ķ":247,"ĸ":248,"Ĺ":249,"ĺ":250,"Ļ":251,"ļ":252,"Ľ":253,"ľ":254,"Ŀ":255,"ŀ":256,"Ł":257,"ł":258,"Ń":259,"à¤":260,"Ġà¤":261,"à¥":262,"à¤¾":263,"à¤°":264,"à¥ĩ":265,"à¥į":266,"à¤¿":267,"Ġà¤ķ":268,"à¤¨":269,"à¤¤":270,"à¤ķ":271,"à¤²":272,"à¤¯":273,"Ġà¤¸":274,"à¥Ģ":275,"à¤Ĥ":276,"à¤¹":277,"à¤®":278,"Ġà¤ª":279,"à¤µ":280,"à¥ĭ":281,"à¤¸":282,"Ġà¤®":283,"Ġà¤ħ":284,"à¥ģ":285,"Ġà¤ľ":286,"à¤ª":287,"à¤¦":288,"Ġà¤¨":289,"Ġà¤Ĩ":290,"Ġà¤¬":291,"à¥¤":292,"à¥Ī":293,"Ġà¤¹":294,"à¤Ł":295,"à¤Ĺ":296,"Ġà¤µ":297,"Ġà¤¦":298,"à¤¬":299,"à¥Ĥ":300,"à¤§":301,"Ġà¤ı":302,"à¤·":303,"à¤£":304,"Ġà¤°":305,"à¤ģ":306,"Ġà¤²":307,"à¤¥":308,"à¤ľ":309,"Ġà¤Ľ":310,"à¤Ľ":311,"à¤¶":312,"à¤ļ":313,"à¥ĩà¤Ĥ":314,"Ġà¤ķà¤°":315,"Ġà¤¤":316,"Ġà¤ħà¤Ľ":317,"à¤¡":318,"Ġà¤Ĺ":319,"Ġà¤ªà¤°":320,"à¤ĸ":321,"Ġà¤Ń":322,"à¤ı":323,"à¤Ń":324,"à¤ĩ":325,"Ġà¤ī":326,"à¤ķà¤°":327,"Ġà¤¶":328,"Ġà¤¯":329,"Ġà¤ĵ":330,"Ġà¤¨à¤¹":331,"Ġà¤Ľà¤²":332,"Ġà¤ļ":333,"Ġà¥¤":334,"Ġà¤¸à¤®":335,"Ġà¤Ī":336,"à¤ªà¤¨":337,"à¥ĭà¤Ĥ":338,"Ġà¤ıà¤ķ":339,"à¤¿à¥¤":340,"à¤¼":341,"Ġà¤§":342,"à¥ĥ":343,"Ġà¤ĸ":344,"Ġà¤ıà¤¹":345,"Ġà¤ħà¤¨":346,"à¤°à¤£":347,"à¤°à¤¤":348,"Ġà¤¬à¤¨":349,"à¤Ī":350,"Ġà¤¹à¤®":351,"à¥¥":352,"à¤«":353,"à¥ĩà¤ģ":354,"à¥Į":355,"à¤¹à¤²":356,"à¤°à¤ķ":357,"Ġà¤ħà¤§":358,"à¤¯à¤ķ":359,"à¤¾à¤ģ":360,"Ġ(":361,"à¤¾à¤Ĥ":362,"Ġà¤ĩ":363,"à¤ıà¤²":364,"à¤Ĩ":365,"Ġà¤¸à¤ķ":366,"Ġà¤Ĩà¤µ":367,"à¤¿à¤Ĥ":368,"à¤¨à¤ķ":369,"à¤ĩà¤²":370,"Ġà¤¸à¤¬":371,"à¤ł":372,"Ġà¤ħà¤ªà¤¨":373,"à¥ī":374,"à¤²à¤¨":375,"Ġà¤ķà¤¯":376,"à¤¿,":377,"Ġà¤ķà¤ĩà¤²":378,"Ġà¤«":379,"Ġà¤Ł":380,"à¤¯à¤®":381,"à¤°à¤¸":382,"à¤®à¤²":383,"Ġà¤Ľà¤¥":384,"Ġà¤Ĩà¤°":385,"Ġà¤ĵà¤ķà¤°":386,"à¤ªà¤°":387,"à¤²à¤¯":388,"à¤¤à¤°":389,"Ġà¤°à¤¹":390,"à¤ĺ":391,"Ġà¤Ķ":392,"à¤Ĩà¤°":393,"à¤Ĺà¤¤":394,"à¤¯à¤µ":395,"à¤ĩà¤¤":396,"Ġà¤°à¤¹à¤²":397,"Ġà¤ķà¤ıà¤²":398,"à¤ĥ":399,"Ġà¤¹à¤®à¤°":400,"Ġ;":401,"à¤Ŀ":402,"à¤¸à¤¨":403,"Ġà¤¡":404,"à¤°à¤®":405,"Ġà¤¸à¤Ń":406,"Ġà¤Ķà¤°":407,"à¤µà¤°":408,"Ġà¤¤à¤°":409,"Ġà¤ķà¤¹":410,"Ġà¤ªà¤¹":411,"à¥ĩ,":412,"Ġà¤ķà¤°à¤¤":413,"à¤½":414,"Ġà¤īà¤ª":415,"Ġà¤ħà¤ª":416,"à¤£à¤¯":417,"à¤µà¤²":418,"à¤¯à¤¤":419,"Ġà¤ķà¤¹à¤²":420,"à¤µà¤¨":421,"Ġà¤¸à¤ķà¤¤":422,"Ġà¤ĳ":423,"à¤²à¤ķ":424,"Ġà¤®à¤¹":425,"à¤°à¤¦":426,"à¥Ģà¤Ĥ":427,"à¥Īà¤Ĥ":428,"à¤¸à¤°":429,"Ġà¤ĺ":430,"Ġà¤ķà¤¯à¤²":431,"Ġà¥¥":432,"à¤ŀ":433,"Ġà¤¸à¤¹":434,"Ġà¤Ĩà¤¦":435,"Ġà¤ĵà¤¹":436,"Ġà¤¬à¤¹":437,"à¤¦à¤ķ":438,"Ġà¤īà¤¤":439,"à¤ķà¤¯":440,"Ġà¤µà¤°":441,"Ġà¤¥":442,"à¤ľà¤¨":443,"à¤ĸà¤¨":444,"à¤¶à¤¨":445,"Ġà¤īà¤¦":446,"à¤¦à¤¨":447,"à¤¢":448,"Ġà¤ıà¤«":449,"Ġà¤²à¤Ĺ":450,"Ġ\"":451,"à¤ķà¤°à¤£":452,"Ġà¤ħà¤¹":453,"Ġà¤ħà¤¸":454,"à¤²à¤¤":455,"Ġà¤®à¤¨":456,"à¤µà¤¤":457,"à¤®à¤ķ":458,"à¤ĵ":459,"à¤ī":460,"à¤¦à¤°":461,"à¤¨à¤²":462,"à¤¾,":463,"à¥ģà¤ģ":464,"à¤¯à¤¨":465,"à¤°à¤Ń":466,"à¥ĩà¤Ĥ,":467,"à¤¨à¤ķà¤°":468,"à¤®à¤¤":469,"Ġà¤Ĩà¤§":470,"à¤·à¤£":471,"Ġà¤ıà¤«à¤¸":472,"à¤ļà¤¨":473,"Ġà¤ķà¤®":474,"Ġà¤ķà¤°à¤¬":475,"Ġà¤ħà¤°":476,"Ġà¤ĩà¤¸":477,"à¥Ģà¥¤":478,"Ġà¤Ĩà¤µà¤¶":479,"Ġà¤īà¤ļ":480,"Ġà¤ĳà¤¸":481,"à¤¾à¥¤":482,"Ġà¤ªà¤ķ":483,"Ġà¤īà¤²":484,"à¤ķà¤¨":485,"Ġà¤¸à¤®à¤¯":486,"Ġà¤Ĩà¤¯":487,"à¤ªà¤¤":488,"à¤°à¤µ":489,"à¤°à¤¯":490,"Ġà¤ķà¤°à¤¨":491,"à¤¼à¤¾":492,"à¥§":493,"à¤¨à¤¨":494,"à¤°à¤¹":495,"à¤Łà¤°":496,"à¤¬à¤°":497,"Ġà¤¤à¤ķ":498,"à¤ıà¤²à¤Ĩà¤°":499,"Ġà¤ľà¤¹":500,"Ġà¤¤à¤¥":501,"à¤ħ":502,"Ġà¤¹à¤°":503,"à¤°à¤¶":504,"Ġà¤ıà¤Ĺ":505,"à¤ªà¤·":506,"Ġà¤ħà¤µ":507,"Ġà¤°à¤ĸ":508,"Ġà¤ħà¤²":509,"à¤Ĺà¤°":510,"à¤¤à¤µ":511,"Ġà¤ªà¤¤":512,"Ġà¤Ĩà¤¬":513,"Ġà¤¤à¤°à¤¹":514,"à¤¹à¤°":515,"Ġ-":516,"à¤ķà¤²":517,"Ġà¤ħà¤Ń":518,"à¤¯à¤°":519,"Ġ'":520,"Ġ,":521,"à¤¤à¤®":522,"Ġà¤ıà¤ķà¤Ł":523,"à¤®à¤¨":524,"Ġà¤¯à¤¹":525,"à¤Ĺà¤²":526,"Ġà¤¸à¤®à¤Ŀ":527,"Ġà¤ıà¤¹à¤¨":528,"Ġà¥":529,"Ġà¤Ĩà¤Ĺ":530,"Ġà¤ľà¤¬":531,"Ġà¤ħà¤¤":532,"Ġà¤ľà¤¨":533,"à¥ĩà¥¤":534,"à¤¹à¤¤":535,"Ġà¤§à¤°":536,"à¤ıà¤¸":537,"à¤¼à¤¿":538,"à¤¯à¤ķà¤¤":539,"à¤¯à¤²":540,"Ġ)":541,"à¤Łà¤¨":542,"à¤ªà¤ķ":543,"Ġà¤ł":544,"à¥Īà¥¤":545,"Ġà¤¸à¤Ńà¤ķ":546,"Ġà¤ıà¤ļ":547,"à¤¿:":548,"Ġà¤®à¤¹à¤¤":549,"à¤¤à¤¨":550,"Ġà¤¯à¤¦":551,"Ġà¤¸à¤°":552,"à¤¯à¤¸":553,"à¤¨à¤°":554,"à¤Ĩà¤Ī":555,"Ġà¤ļà¤²":556,"Ġà¤®à¤§":557,"Ġà¤Ĩà¤ļ":558,"Ġà¤Ńà¤Ĺ":559,"Ġà¤ıà¤¸":560,"à¤·à¤ķ":561,"à¥§à¥":562,"à¤¤à¤¯":563,"Ġà¤Ľà¤¨":564,"Ġà¤¶à¤¬":565,"âĢ":566,"à¤¨à¤µ":567,"Ġà¤ıà¤ļà¤¸":568,"Ġà¤¬à¤²":569,"à¤¹à¤¨":570,"Ġà¤īà¤ł":571,"à¤ĸà¤²":572,"Ġà¤ıà¤ķà¤°":573,"Ġà¤Ĩà¤ļà¤°à¤£":574,"à¥Ģ,":575,"Ġà¤ħà¤²à¤Ĺ":576,"Ġà¤¶à¤°":577,"Ġà¤īà¤ªà¤¯":578,"à¤µà¤ķ":579,"à¤¸à¤ķ":580,"Ġà¤¸à¤¦":581,"à¤°à¤²":582,"à¤ĺà¤¨":583,"Ġà¤Ŀ":584,"Ġà¤¶à¤ķ":585,"Ġà¤ķà¤¥":586,"à¤²à¤ķà¤°":587,"à¤µà¤ª":588,"à¤¸à¤®":589,"Ġà¤ķà¤¨":590,"à¤¤à¤ķ":591,"à¤®à¤£":592,"Ġà¤ıà¤¨":593,"Ġà¤Ĭ":594,"à¥Ī,":595,"Ġà¤ªà¤¡":596,"Ġà¤Ńà¤Ĺà¤µ":597,"à¤ĩà¤¨":598,"à¤µà¤§":599,"Ġà¤¬à¤¡":600,"Ġà¤¬à¤¢":601,"à¤·à¤¤":602,"à¤§à¤¨":603,"à¤¦à¤®":604,"Ġà¤µà¤ķ":605,"à¤¨à¤¤":606,"Ġà¤ħà¤¦":607,"Ġà¤ķà¤°à¤¯":608,"Ġ|":609,"Ġà¤īà¤¨":610,"à¤²à¤¬":611,"Ġà¤¤à¤ĸà¤¨":612,"Ġà¤īà¤¨à¤ķà¤°":613,"Ġà¤¸à¤¤":614,"à¤µà¤¯":615,"à¤Ńà¤°":616,"à¤®à¤°":617,"Ġà¤ķà¤¤":618,"Ġà¤ķà¤²":619,"Ġà¤ľà¤°":620,"Ġà¤ĩà¤¨":621,"Ġà¤ĺà¤°":622,"Ġà¤µà¤¸":623,"Ġà¤Ńà¤½":624,"Ġà¤®à¤°":625,"Ġà¤¬à¤ļ":626,"à¤¼à¥Ģ":627,"à¤¥à¤¤":628,"à¤ĩà¤¸à¤¨":629,"Ġà¤ħà¤¬":630,"à¤¸à¤²":631,"à¤Łà¤²":632,"à¤°à¤¬":633,"Ġà¤¸à¤®à¤°":634,"à¤®à¤¸":635,"à¥Ĥà¤ģ":636,"Ġà¤¬à¤°":637,"à¤ıà¤ļ":638,"Ġà¤ªà¤°à¤®":639,"à¤ļà¤°":640,"à¥¨":641,"Ġà¤¸à¤¹à¤®à¤¤":642,"à¥Ģ)":643,"Ġà¤ļà¤°":644,"à¤°à¤ľ":645,"Ġà¤ķà¤½":646,"Ġà¤ĳà¤«":647,"à¤ķà¤¤":648,"Ġà¤īà¤¸":649,"à¤²à¤¹":650,"à¤°à¤¨":651,"à¤·à¤¯":652,"Ġà¤¸à¤¨":653,"Ġà¤¬à¤¤":654,"Ġà¤Ńà¤²":655,"à¤®à¤ľ":656,"Ġà¤²à¤ķ":657,"à¤ļà¤²":658,"Ġà¤¤à¤¹à¤¤":659,"Ġà¤Ĩà¤¨":660,"à¤ĩà¤µ":661,"Ġà¤¬à¤ľ":662,"à¤Ĺà¤¨":663,"à¤®à¤Ĺ":664,"à¥ģà¤Ĥ":665,"Ġà¤ħà¤ªà¤°":666,"à¤°à¤¥":667,"à¤¡à¤¬":668,"Ġà¤¦à¤¸":669,"à¤¨à¤¦":670,"à¤«à¤²":671,"Ġà¤Ĳ":672,"Ġà¤ªà¤¹à¤²":673,"à¤µà¤£":674,"à¤¥à¤¨":675,"Ġà¤ĵà¤°":676,"Ġà¤ķà¤¯à¤²à¤¨":677,"à¤¯à¤µà¤¸":678,"à¤¶à¤ķ":679,"à¤¨à¤¸":680,"à¥©":681,"Ġà¤Ĺà¤²à¤¤":682,"Ġà¤¦à¤°":683,"à¤ıà¤«":684,"Ġà¤Ĩà¤¶":685,"Ġà¤¤à¤¤":686,"Ġà¤ķà¤¹à¤²à¤¨":687,"Ġà¤¤à¤½":688,"à¤¯à¤¬":689,"à¤ĩà¤Ł":690,"à¤Ļ":691,"Ġà¤Ńà¤°":692,"Ġà¤ħà¤Ĺ":693,"à¤ĩà¤¸":694,"à¤¹à¤ķ":695,"à¤ªà¤¸":696,"Ġà¤¨à¤µ":697,"à¤¦à¤¯":698,"à¤µà¤ľ":699,"à¤ªà¤£":700,"à¥ª":701,"à¤µà¤¸":702,"Ġà¤Ĺà¤¯":703,"Ġà¤ľà¤ĸà¤¨":704,"Ġà¤ĭ":705,"Ġà¤¹à¤¨":706,"Ġà¤Ĩà¤ķ":707,"Ġà¤ªà¤¢":708,"à¤¬à¤¨":709,"Ġà¤Ĩà¤¤":710,"à¤¯à¤µà¤²":711,"Ġà¤ľà¤²":712,"Ġà¤µà¤¹":713,"Ġà¤°à¤ĺ":714,"à¤ĵà¤²":715,"Ġà¤§à¤¨":716,"à¤¹à¤°à¤£":717,"Ġà¤ħà¤ĩà¤¸à¤¨":718,"Ġà¤¤à¤¬":719,"Ġà¤ıà¤²":720,"Ġà¤ķà¤ª":721,"Ġà¤®à¤ľ":722,"Ġà¤®à¤¤":723,"à¤Łà¤ķ":724,"à¤Ńà¤µ":725,"à¤£à¤¨":726,"à¤¡à¤®":727,"Ġà¤ĸà¤°":728,"Ġà¤Ĩà¤ĩ":729,"à¥¥à¥¥":730,"à¤¯à¤£":731,"à¤ķà¤¦à¤®":732,"Ġà¤Ńà¤ķ":733,"Ġà¤ħà¤Ĺà¤°":734,"Ġà¤Ĩà¤ľ":735,"Ġà¤ļà¤°à¤£":736,"à¤ĩà¤Ľ":737,")à¥¤":738,"à¥«":739,"à¤ķà¤¸":740,"Ġà¤Ĩà¤¸":741,"Ġà¤īà¤¨à¤ķ":742,"Ġà¤¸à¤¦à¤¸":743,"Ġà¤Ĺà¤¤":744,"à¤°à¤¦à¤°":745,"à¤¡à¤²":746,"Ġà¤¸à¤®à¤¸":747,"Ġà¤ħà¤ķ":748,"Ġà¤Ĺà¤ĩà¤²":749,"Ġà¤Ĩà¤ª":750,"Ġà¤ıà¤ıà¤²à¤Ĩà¤°":751,"Ġà¤Ĩà¤Ī":752,"Ġà¤ħà¤µà¤§":753,"Ġà¤ıà¤¤":754,"Ġà¤ķà¤ł":755,"ĠâĢ":756,"à¤§à¤°":757,"à¤Ĺà¤®":758,"Ġà¤ªà¤¦":759,"à¤ľà¤°":760,"à¤¿à¤ĥ":761,"Ġà¤ıà¤®":762,"Ġà¤ķà¤Ī":763,"à¤ıà¤¤":764,"Ġà¤°à¤ĸà¤²":765,"Ġà¤¸à¤®à¤ķ":766,"à¤²à¤Ĺ":767,"à¤ľà¤ķ":768,"à¤²à¤¸":769,"à¤ĸà¤¤":770,"à¤°à¤ķà¤Ł":771,"Ġà¤ķà¤ĩà¤²à¤ķ":772,"Ġà¤Ĺà¤°":773,"à¥¬":774,"Ġà¤µà¤ļà¤¨":775,"Ġ[":776,"à¤¸à¤Ń":777,"à¥ģà¤ĥ":778,"à¤¿.":779,"Ġà¤Ľà¤²à¤¨":780,"à¤¯à¤µà¤¹":781,"Ġà¤ªà¤¹à¤ļ":782,"à¥Įà¤Ĥ":783,"Ġà¤ħà¤®":784,"Ġà¤¨à¤®":785,"Ġà¤ıà¤µ":786,"à¤¦à¤²":787,"à¤¤à¤¤":788,"Ġà¤ĩà¤¤":789,"à¤ķà¤¹":790,"à¤ıà¤¨":791,"à¤°à¤ª":792,"Ġà¤Ńà¤¯":793,"Ġà¤°à¤¹à¤¤":794,"Ġà¤ķà¤¹à¤²à¤ķ":795,"Ġà¤²à¤Ĺà¤²":796,"Ġà¤Ĳà¤¸":797,"à¤¬à¤²":798,"à¤ıà¤¸à¤¡à¤¬":799,"à¤ªà¤Ł":800,"à¥Ń":801,"à¤ľà¤²":802,"à¤¼à¥Ī":803,"à¥¦":804,"à¤¯à¤ª":805,"Ġà¤ħà¤µà¤¸à¤°":806,"à¤®à¤ļ":807,"Ġà¤ĩà¤¸à¤ķ":808,"à¤¡à¤°":809,"à¤¬à¤¯":810,"à¤²à¤°":811,"Ġà¤¤à¤¹":812,"Ġà¤īà¤ªà¤²à¤¬":813,"Ġà¤ĩà¤¸à¤²":814,"à¤§à¤ķ":815,"Ġà¤Ńà¤µ":816,"Ġà¤°à¤ķ":817,"à¤«à¤²à¤¤":818,"à¤¼à¥ĩ":819,"Ġà¤ħà¤¥":820,"Ġà¤ľà¤Ĺ":821,"à¤ıà¤ķ":822,"Ġà¤¸à¤ļ":823,"à¤¡à¤¨":824,"Ġà¤«à¤²":825,"Ġà¤µà¤¨":826,"à¤°à¤¸à¤¨":827,"Ġà¤¦à¤¹":828,"à¥®":829,"Ġà¤¦à¤²":830,"Ġà¤ľà¤¯":831,"à¤¨à¤®":832,"à¤ªà¤¯":833,"à¤®à¤ļà¤¨":834,"Ġà¤°à¤ľ":835,"Ġà¤¸à¤½":836,"à¤µà¤°à¤£":837,"à¥ĩà¤Ĥà¥¤":838,"Ġà¤¬à¤¸":839,"à¤¾:":840,"à¤¾.":841,"à¤Łà¤®":842,"Ġà¥§à¥":843,"Ġà¤ĩà¤ļ":844,"Ġà¤ĩà¤°":845,"à¥Ĥà¥¤":846,"à¥¯":847,"à¤·à¤¸":848,"à¤ķà¤ķ":849,"à¤§à¤¤":850,"à¤ıà¤ıà¤«":851,"à¤Ĺà¤ķ":852,"Ġà¤ķà¤µà¤¨":853,"à¤£à¤ķ":854,"Ġà¤Ĩà¤¯à¤²":855,"Ġà¤Ĩà¤ªà¤¨":856,"Ġà¤°à¤ĸà¤¤":857,"Ġà¤Ńà¤°à¤¤":858,"à¤¤à¤¹":859,"Ġ:":860,"Ġà¤¢":861,"Ġà¤¨à¤ĩ":862,"Ġà¤ĵà¤¤à¤¯":863,"Ġà¥¨":864,"Ġà¤¦à¤¯":865,"à¤īà¤°":866,"Ġà¤°à¤¹à¤¥":867,"à¤¯à¤¦":868,"Ġà¤ħà¤ļ":869,"Ġà¤Ĩà¤®":870,"Ġà¤¬à¤¨à¤²":871,"Ġà¤²à¤¯":872,"à¤Ĺà¤¦":873,"Ġà¤ĺà¤Łà¤¨":874,"Ġà¤Ĭà¤ªà¤°":875,"à¤²à¤²":876,"Ġà¤ķà¤¹à¤²à¤ĸ":877,"à¤·à¤®":878,"Ġà¥Ĳ":879,"Ġà¤īà¤ªà¤¸":880,"à¤¥à¤®":881,"à¤łà¤¨":882,"à¥ĩ;":883,"à¤ĸà¤¬":884,"à¤ıà¤®":885,"Ġà¤ľà¤¨à¤ķ":886,"à¤ıà¤ıà¤«à¤¸":887,"Ġà¤¸à¤ľ":888,"à¤Łà¤¤":889,"Ġà¤Ĺà¤ı":890,"Ġà¤²à¤¡":891,"Ġà¤ªà¤¶":892,"à¤²à¤¥":893,"Ġà¤ľà¤ĩà¤¸":894,"à¤ªà¤®":895,"à¥ĩ:":896,"à¥Įà¤ģ":897,"à¥ĩ)":898,"Ġà¤¬à¤¦à¤²":899,"Ġà¤īà¤ªà¤°":900,"Ġà¤¹à¤¸":901,"Ġà¤ıà¤¨à¤ıà¤¸à¤¡à¤¬":902,"à¤¿;":903,"Ġà¤ıà¤Ł":904,"à¤°à¤ļ":905,"Ġà¤¦à¤¶":906,"à¤¯à¤¯":907,"Ġà¤°à¤ĸà¤¨":908,"Ġà¤¶à¤¤":909,"à¤²à¤ĸ":910,"Ġà¤ļà¤¨":911,"Ġà¤Ĺà¤£":912,"Ġà¤Ľà¤²à¤¥":913,"Ġà¤¸à¤ķà¤²":914,"Ġà¤¨à¤ĩà¤ĸ":915,"Ġà¤ĭà¤£":916,"à¤°à¤ľà¤¨":917,"à¤¯à¤¥":918,"à¤°à¤µà¤°":919,"Ġà¤¤à¤¨":920,"à¤¾\"":921,"Ġà¤ľà¤¤":922,"Ġà¤ħà¤µà¤²":923,"Ġà¤¸à¤¹à¤¯":924,"Ġà¤ľà¤®":925,"Ġà¤ķà¤¹à¤¤":926,"à¤²à¤®":927,"Ġà¤ķà¤µ":928,"à¤¾)":929,"âĢĻ":930,"à¤ĳ":931,"à¤¹à¤®":932,"à¤ªà¤¦":933,"Ġà¤¯à¤ľ":934,"à¤¬à¤¦":935,"à¤°à¤¥à¤®":936,"à¤ľà¤¨à¤ķ":937,"Ġà¤ķà¤¹à¤¬":938,"Ġà¤ħà¤¥à¤µ":939,"à¤¶à¤²":940,"Ġà¤ķà¤ıà¤²à¤ķ":941,"Ġà¤¬à¤¯":942,"Ġà¤Īà¤¶":943,"Ġà¤¸à¤¬à¤¸":944,"à¤ķà¤Ł":945,"Ġà¤ıà¤ľ":946,"à¤®à¤¯":947,"Ġà¤®à¤¦":948,"à¤¨à¤¹":949,"à¤¹à¤¸":950,"ĠâĢĺ":951,"à¤¾à¥¥":952,"Ġà¤¸à¤°à¤ķ":953,"à¤¨à¤¬":954,"Ġà¤¤à¤°à¤¹à¤ķ":955,"Ġ)à¥¤":956,"Ġà¤¹à¤²":957,"à¤·à¤®à¤¤":958,"à¤®à¤ļà¤°":959,"à¤ĸà¤ķ":960,"à¤µà¤¹":961,"à¤ıà¤¹":962,"à¤ļà¤¯":963,"Ġà¤®à¤¤à¤²à¤¬":964,"à¤¡à¤ķ":965,"Ġà¤¦à¤ķ":966,"Ġà¤īà¤ªà¤Ń":967,"à¤Ńà¤ķ":968,"à¤µà¤¦":969,"Ġà¤ķà¤°à¤²":970,"à¥įâĢ":971,"à¥įâĢį":972,"Ġà¤°à¤ļà¤¨":973,"à¤¿\"":974,"Ġà¤¸à¤¬à¤Ł":975,"à¥Ģ:":976,"Ġà¤Ĺà¤µ":977,"à¤ľà¤Ĺ":978,"Ġà¤Ĩà¤¹":979,"Ġà¤ıà¤¤à¤¯":980,"Ġà¤¯à¤¥":981,"à¤ķà¤µ":982,"à¤µà¤ľà¤¨":983,"Ġà¤ıà¤ĸà¤¨":984,"à¤Ľà¤²":985,"Ġà¤¶à¤°à¤£":986,"Ġà¤ħà¤¯":987,"Ġà¤ľà¤¬à¤ķ":988,"à¤ļà¤ķ":989,"à¥Ģà¤Ĥà¥¤":990,"Ġà¤¸à¤²":991,"Ġà¤¸à¤µ":992,"à¤ªà¤¥":993,"Ġà¤°à¤¦":994,"à¤¥à¤ľ":995,"Ġà¤īà¤ªà¤ļ":996,"à¤µà¤Ń":997,"Ġà¤ªà¤µ":998,"à¤µà¤¶":999,"à¤ħà¤²à¤Ĺ":1000,"Ġà¤ļà¤²à¤²":1001,"à¤ľà¤¯":1002,"à¤Ńà¤Ĺ":1003,"Ġà¤¨à¤¯":1004,"Ġà¤ķà¤°à¤¯à¤µà¤²":1005,"à¤ģ,":1006,"à¤¤à¤²":1007,"à¤ķà¤¡":1008,"Ġà¤¸à¤«à¤²":1009,"à¤Īà¤¤":1010,"à¥Ī:":1011,"Ġà¤Ĩà¤Īà¤ª":1012,"à¤ĥà¥¤":1013,"à¤¨à¤¯":1014,"à¤¥à¤ķ":1015,"à¤ªà¤²":1016,"à¥ģà¤ģà¥¤":1017,"à¤ħà¤¨":1018,"Ġà¤ķà¤¯à¤²à¤ķ":1019,"à¤ľà¤¸":1020,"Ġà¤²à¤Ĺà¤¤":1021,"Ġà¤°à¤¸":1022,"Ġà¤°à¤¹à¤¬":1023,"Ġà¤ļà¤¢":1024,"Ġà¤ķà¤¥à¤¨":1025,"Ġà¤ľà¤Ĺà¤¤":1026,"Ġà¤¡à¤°":1027,"Ġà¤ķà¤¯à¤ķ":1028,"à¤ĩà¤ķ":1029,"à¤īà¤¥":1030,"Ġà¤°à¤¹à¤¨":1031,"Ġà¤īà¤¸à¤ķ":1032,"à¤Ĺà¤£":1033,"Ġà¤ľà¤µà¤¨":1034,"Ġà¤ķà¤¤à¤¹":1035,"),":1036,"à¤®à¤¦":1037,"à¤°à¤¹à¤£":1038,"à¤¥à¤°":1039,"à¤®à¤°à¤£":1040,"à¤·à¤°":1041,"Ġà¤ķà¤°à¤ķ":1042,"à¤łà¤ķ":1043,"Ġà¤ķà¤ĩà¤²à¤¨":1044,"à¤¤à¤°à¤£":1045,"à¤§à¤¡":1046,"à¤ĺà¤°":1047,"à¤·à¤¦":1048,"Ġà¤¸à¤ĸ":1049,"à¤¡à¤¸":1050,"Ġà¤ľà¤Ĺà¤¹":1051,"Ġà¤¶à¤ªà¤¥":1052,"Ġà¤ĩà¤ķ":1053,"à¤¸à¤¦":1054,"Ġà¤¬à¤ľà¤²":1055,"à¥ĭà¥¤":1056,"Ġà¤ķà¤¹à¤¨":1057,"à¤īà¤¨":1058,"Ġà¤ħà¤Ĺà¤¸":1059,"Ġà¤ĭà¤·":1060,"à¤·à¤ľ":1061,"à¤¸à¤°à¤£":1062,"à¤ķà¤¦":1063,"à¤ĳà¤¸":1064,"à¤¸à¤µ":1065,"à¤ķà¤¬":1066,"à¥įà¥¤":1067,"à¤®à¤¹":1068,"Ġà¤ħà¤µà¤¸":1069,"Ġà¤Ĺà¤Ī":1070,"à¤¿à¥¥":1071,"Ġà¤ķà¤®à¤²":1072,"Ġà¤ľà¤ĩà¤¸à¤¨":1073,"Ġà¤ļà¤ķ":1074,"à¤¶à¤¨à¤²":1075,"Ġà¥©":1076,"Ġà¤°à¤¹à¤¯":1077,"Ġà¤¨à¤Ĺà¤°":1078,"Ġà¤ªà¤ł":1079,"Ġà¤ķà¤Ł":1080,"à¤ıà¤¸à¤¸":1081,"Ġà¤ķà¤ıà¤²à¤¨":1082,"Ġà¤Ńà¤Ĺà¤µà¤¤":1083,"Ġà¤ľà¤¤à¤¯":1084,"Ġà¤ķà¤°à¤¥":1085,"à¤ĩà¤¬":1086,"Ġà¤ħà¤¶":1087,"à¤Łà¤°à¤¨":1088,"à¥Ģ-":1089,"Ġà¤Ĩà¤¨à¤¨":1090,"Ġà¤²à¤Ĺà¤Ńà¤Ĺ":1091,"Ġà¤ªà¤ķà¤¡":1092,"Ġà¤ļà¤¤":1093,"Ġà¤ħà¤ªà¤¨à¤¹":1094,"à¤ħà¤ªà¤¨":1095,"Ġà¤Ĩà¤ķà¤²à¤¨":1096,"à¤¸à¤¬":1097,"à¤¸à¤¤":1098,"à¤Ĩà¤¤":1099,"à¤ĸà¤°":1100,"à¤²à¤µ":1101,"à¤Ĭ":1102,"à¤ľà¤®":1103,"à¤¯à¤®à¤ķ":1104,"Ġà¤¤à¤¦à¤¨":1105,"Ġà¤®à¤Ī":1106,"Ġà¤ħà¤ľ":1107,"):":1108,"à¤Ĺà¤¹":1109,"à¤°à¤§":1110,"Ġà¤ķà¤¬":1111,"Ġà¤ķà¤¤à¤¯":1112,"Ġ(\"":1113,"à¤¾'":1114,"Ġà¤Ĩà¤ªà¤°":1115,"Ġà¤®à¤ľà¤¬":1116,"Ġà¤ĩà¤¨à¤ķ":1117,"Ġà¥§":1118,"à¤µà¤µ":1119,"Ġà¤ľà¤µ":1120,"Ġà¤ľà¤¨à¤¤":1121,"à¤¾;":1122,"à¤¥à¤²":1123,"à¥Ģà¥¥":1124,"à¤¤à¤°à¤¦":1125,"à¤ıà¤¸à¤Ĩà¤°":1126,"à¤¾à¤ĥ":1127,"Ġà¤¸à¤¬à¤ķ":1128,"Ġà¤īà¤®":1129,"Ġà¤ªà¤¬":1130,"Ġà¤ħà¤īà¤°":1131,"Ġà¤µà¤¶":1132,"Ġà¤ķà¤°à¤µ":1133,"à¥ĥà¤Ĥ":1134,"à¤ĩà¤¯":1135,"à¤µà¤®":1136,"Ġà¤¨à¤¦":1137,"Ġà¤Ĩà¤ķà¤°":1138,"Ġà¤¸à¤Ł":1139,"Ġà¤ħà¤µà¤¶":1140,"Ġà¤Ńà¤°à¤²":1141,"à¤ªà¤ļ":1142,"Ġà¤®à¤¸":1143,"Ġà¤Ĩà¤²":1144,"Ġà¤¸à¤ª":1145,"à¤²à¤µà¤°":1146,"à¤®à¤µ":1147,"Ġà¤¸à¤«à¤²à¤¤":1148,"Ġà¤ıà¤ķà¤®":1149,"à¤¡à¤¬à¤°":1150,"Ġà¤«à¤°":1151,"à¤ķà¤¥":1152,"Ġà¤ħà¤¯à¤²":1153,"à¤¸à¤ª":1154,"Ġà¤ķà¤¹à¤²à¤¥":1155,"à¥§à¥¦":1156,"Ġà¤ħà¤¸à¤«à¤²":1157,"à¤ľà¤¹":1158,"à¤¡à¤°à¤²":1159,"Ġ('":1160,"à¤ħà¤ª":1161,"Ġà¤Ńà¤°à¤¤à¤ľ":1162,"à¤ıà¤Ł":1163,"Ġà¤Ĺà¤łà¤¨":1164,"Ġà¤ķà¤°à¤¦":1165,"Ġà¤ĵà¤¤":1166,"Ġà¤¡à¤¬":1167,"à¤Ľà¤¤":1168,"à¤ĩà¤ľ":1169,"Ġà¤¬à¤¨à¤¬":1170,"à¤²à¤Ń":1171,"Ġà¤ĩà¤²":1172,"à¥Ģ\"":1173,"à¥Īà¤Ĥà¥¤":1174,"à¥įà¥¥":1175,"à¥ĭ,":1176,"à¥Ģà¤Ĥ,":1177,"Ġà¤ķà¤ıà¤¨":1178,"à¤ĩà¤¡":1179,"Ġà¤ķà¤Ń":1180,"Ġà¤ªà¤¸":1181,"Ġà¤ļà¤²à¤¤":1182,"à¤¨à¤ª":1183,"à¤µà¤¨à¤ķ":1184,"Ġà¤ķà¤¹à¤¯":1185,"à¤¦à¤¹":1186,"à¤¾à¤ģ,":1187,"Ġà¤ªà¤Ł":1188,"Ġ-;":1189,"à¥§à¥¨":1190,"Ġà¤¹à¤ķà¤¦":1191,"Ġà¤īà¤łà¤²":1192,"à¤¤à¤¸":1193,"à¤ĸà¤¯":1194,"Ġà¤¦à¤¶à¤°à¤¥":1195,"Ġà¤ıà¤¬":1196,"à¤¶à¤°":1197,"à¤ıà¤Ĺ":1198,"Ġà¤ĩà¤®":1199,"Ġà¤Ĩà¤ĵ":1200,"Ġà¤ĺà¤Ł":1201,"Ġà¤¸à¤®à¤Ŀà¤²":1202,"à¤¦à¤¶":1203,"Ġà¤Ĩà¤ªà¤¤":1204,"à¤µà¤¸à¤¨":1205,"à¤īà¤¸":1206,"Ġà¤ķà¤¦à¤®":1207,"Ġà¤Ľà¤¹":1208,"Ġà¤ĵà¤¨":1209,"à¤¿)":1210,"à¤ĸà¤²à¤¨":1211,"Ġà¤®à¤²":1212,"Ġà¤Ĩà¤¦à¤°":1213,"Ġà¤°à¤ĸà¤¬":1214,"Ġà¥ª":1215,"à¥Īà¤ģ":1216,"Ġà¤ķà¤ĸà¤¨":1217,"à¤®à¤£à¤ľ":1218,"à¤¦à¤Ń":1219,"Ġà¤¨à¤°":1220,"Ġ.":1221,"à¤¿à¤ģ":1222,"à¤®à¤®":1223,"Ġà¤Ĩà¤Ń":1224,"à¤ħà¤°":1225,"à¤²à¤¯à¤ķ":1226,"Ġà¤µà¤²":1227,"à¥ĩà¤Ĥ:":1228,"à¤µà¤¹à¤¨":1229,"Ġà¤īà¤¡":1230,"à¤¨à¤ľ":1231,"Ġà¤ıà¤¡à¤®":1232,"à¤¥à¤Ĺ":1233,"Ġà¤Īà¤®":1234,"Ġà¤Ĩà¤īà¤°":1235,"à¤ļà¤®":1236,"à¤¬à¤¹":1237,"Ġà¤°à¤¥":1238,"Ġà¤¸à¤°à¤¸":1239,"')":1240,"Ġà¤ľà¤ķà¤°":1241,"Ġà¤¤à¤°à¤«":1242,"à¤¿'":1243,"à¤¬à¤ķ":1244,"Ġà¤ıà¤ıà¤²":1245,"Ġà¤Ĩà¤ī":1246,"Ġà¤§à¤°à¤¤":1247,"Ġà¤ķà¤ĩà¤²à¤¸":1248,"Ġà¤ħà¤«":1249,"à¤ľà¤¦":1250,"à¤µà¤µà¤°":1251,"Ġà¤īà¤Ĺà¤¨":1252,"à¤¿à¤Ĥ,":1253,"à¤ĩà¤ľà¤°":1254,"à¤«à¤¨":1255,"Ġà¤ķà¤¯à¤¨":1256,"à¤Łà¤¯":1257,"Ġà¤Ľà¤²à¤¹":1258,"Ġà¤ıà¤ķà¤¹":1259,"Ġà¤«à¤°à¤µà¤°":1260,"à¥Ĥà¤Ĥ":1261,"Ġà¤®à¤£":1262,"à¥Ĥ)":1263,"à¤§à¤µ":1264,"Ġà¤Łà¤°":1265,"à¤ĩà¤¥":1266,"Ġà¤¬à¤¹à¤¸":1267,"à¤ħà¤²":1268,"Ġà¥«":1269,"\")":1270,"à¤°à¤«":1271,"Ġà¤¬à¤¦":1272,"Ġà¤¹à¤µ":1273,"à¤ķà¤ª":1274,"à¤¸à¤¹":1275,"à¤Łà¤¬":1276,"Ġà¤¹à¤®à¤¹":1277,"à¤ıà¤¨à¤ıà¤¸à¤¡à¤¬":1278,"à¤ķà¤®":1279,"Ġà¤ľà¤Ł":1280,"Ġà¤ķà¤¯à¤²à¤¹":1281,"Ġà¤ħà¤µà¤¤":1282,"Ġà¤¹à¤ľ":1283,"Ġà¤ıà¤ıà¤¸":1284,"Ġà¤ĸà¤¸":1285,"Ġà¤Ĩà¤°à¤®":1286,"à¥ħ":1287,"Ġà¤ıà¤¡":1288,"à¤£à¤¤":1289,"Ġà¤ļà¤°à¤£à¤ķ":1290,"Ġà¤īà¤ªà¤¨":1291,"à¥ĩà¥¥":1292,"Ġà¤¨à¤®à¤¸":1293,"Ġà¤¤à¤¦":1294,"Ġà¤¯à¤¶":1295,"Ġà¤ħà¤¨à¤¨":1296,"Ġà¤ĩà¤¤à¤¨":1297,"Ġà¤¹à¤Ł":1298,"Ġà¤²à¤½":1299,"Ġà¤īà¤ľ":1300,"Ġà¤ıà¤¸à¤ľ":1301,"à¥§à¥©":1302,"à¤Ľà¤¨":1303,"à¤¤à¤ļ":1304,"à¤¯à¤¹":1305,"Ġà¤Ĩà¤ĵà¤°":1306,"à¤°à¤ĸ":1307,"à¤®à¤¶":1308,"à¤¿à¥¥à¥¥":1309,"à¤¤à¤ķà¤°":1310,"Ġà¤ħà¤ªà¤µ":1311,"Ġà¤ıà¤²à¤ľ":1312,"Ġà¤¤à¤ªà¤¸":1313,"à¤ĩà¤®":1314,"Ġà¤ĩà¤¹":1315,"à¤¯à¤ľ":1316,"Ġà¤°à¤¤":1317,"Ġà¤ıà¤¸à¤ı":1318,"à¤¯à¤®à¤¨":1319,"à¤¤à¤ľ":1320,"Ġà¤Ĩà¤ĸ":1321,"à¤®à¤¨à¤µ":1322,"à¤¿à¤Ĥà¥¤":1323,"à¥Ģà¤ĥ":1324,"à¤ļà¤¤":1325,"Ġà¤ªà¤²":1326,"à¤ľà¤¤":1327,"Ġ$":1328,"Ġà¤ĩà¤¶":1329,"Ġà¤ħà¤µà¤®":1330,"à¤¯à¤¶":1331,"Ġà¤ľà¤¡":1332,"Ġà¤¤à¤¸":1333,"Ġà¤ıà¤ķà¤²":1334,"ĠÂ":1335,"à¤¯à¤§":1336,"à¤Ĺà¤łà¤¨":1337,"à¤·à¤ª":1338,"à¤£à¤¯à¤ķà¤°":1339,"Ġà¤Ĩà¤½":1340,"Ġà¤¹à¤¦":1341,"Ġà¤¤à¤¯":1342,"à¤¿-":1343,"à¤ıà¤¶à¤¨":1344,"à¤¼à¥ĭà¤Ĥ":1345,"à¤«à¤°":1346,"à¤¯à¤¡":1347,"à¤Ĺà¤¸":1348,"Ġà¤¸à¤®à¤Ĺ":1349,"Ġà¤ħà¤²à¤Ĺà¤ħà¤²à¤Ĺ":1350,"à¤¯à¤¯à¤¨":1351,"Ġà¤ħà¤ªà¤¨à¤ħà¤ªà¤¨":1352,"à¤ªà¤¹":1353,"à¤Ńà¤µà¤¤":1354,"à¤Ŀà¤²":1355,"à¤°à¤ļà¤¨":1356,"à¥ĩà¤Ĥ)":1357,"à¤®à¤§":1358,"Ġà¤ķà¤Īà¤²":1359,"ĠÂ·":1360,"Ġà¤ªà¤¨":1361,"Ġà¤¹à¤²à¤«à¤¨":1362,"Ġà¤¤à¤ķà¤°":1363,"Ġà¤ħà¤¸à¤®à¤°":1364,"à¤Ĩà¤Īà¤¸":1365,"ĠâĢ¢":1366,"à¤µà¤£à¤ķ":1367,"//":1368,"Ġà¤¸à¤Ļ":1369,"à¤®à¤ª":1370,"à¤Ŀà¤¬":1371,"à¤¹à¤¤à¤°":1372,"Ġà¤ķà¤°à¤®":1373,"Ġà¤ĺà¤°à¤ķ":1374,"à¤¯à¤°à¤§":1375,"à¤°à¤Ĺ":1376,"à¤Ĺà¤¦à¤°":1377,"Ġà¤Ľà¤²à¤ĸ":1378,"à¤¬à¤¤":1379,"à¥ĩ\"":1380,"Ġà¤¬à¤¨à¤¤":1381,"à¤Ĩà¤µ":1382,"Ġà¤īà¤ªà¤§":1383,"Ġà¤īà¤ªà¤¦":1384,"à¤¨à¤ķà¤¹":1385,"Ġà¤ķà¤·":1386,"Ġà¤ľà¤¦":1387,"à¤Ĺà¤¬":1388,"Ġà¤Ĺà¤£à¤¨":1389,"à¥§à¥ª":1390,"Ġà¤¨à¤·":1391,"à¤ļà¤¬":1392,"à¤°à¤£à¤ķ":1393,"Ġà¥¬":1394,"à¤¤à¤ª":1395,"à¤ľà¤¬":1396,"à¤¶à¤¤":1397,"à¤ıà¤¬":1398,"Ġà¤łà¤¹à¤°":1399,"Ġà¤¶à¤¹à¤°":1400,"à¤ĵà¤¨":1401,");":1402,"Ġà¤ľà¤ª":1403,"à¤¬à¤¸":1404,"à¤·à¤¨":1405,"Ġà¤¸à¤¬à¤¹à¤ķ":1406,"Ġà¤µà¤°à¤¦":1407,"à¤¡à¤µ":1408,"Ġà¤ķà¤ªà¤Ł":1409,"Ġà¤ªà¤µà¤¨":1410,"à¤¸à¤°à¤ķ":1411,"à¥Īà¤Ĥ,":1412,"Ġà¤ıà¤¤à¤¬":1413,"Ġ/":1414,"Ġà¤Ĩà¤ªà¤¸":1415,"Ġà¤¸à¤¹à¤ľ":1416,"Ġà¤ħà¤Ł":1417,"Ġà¤¦à¤¬":1418,"Ġ://":1419,"Ġà¤ľà¤¨à¤ķà¤ª":1420,"Ġà¤®à¤¦à¤¦":1421,"à¤¸à¤¸":1422,"Ġà¤ĵà¤¹à¤¨":1423,"à¤Ĺà¤¡":1424,"Ġà¤Ĺà¤®":1425,"à¤¡à¤Ĺ":1426,"à¤Łà¤°à¤ª":1427,"Ġà¤Īà¤¹":1428,"Ġà¤ķà¤®à¤ľ":1429,"Ġ-,":1430,"à¤£à¤¯à¤ķ":1431,"à¤¦à¤µ":1432,"Ġà¤°à¤ļ":1433,"Ġà¤Ķà¤¦":1434,"Ġà¤ķà¤ªà¤¡":1435,"Ġà¤Ĺà¤¨":1436,"à¤ķà¤Ń":1437,"à¤Łà¤«":1438,"à¤ĩà¤°":1439,"à¥Ģ;":1440,"Ġà¤Ĩà¤ªà¤ķ":1441,"Ġà¤²à¤Ļ":1442,"Ġà¤Ńà¤ľà¤¨":1443,"à¤ıà¤Ľ":1444,"à¤¹à¤¬":1445,"à¤Ńà¤°à¤¤":1446,"Ġà¤īà¤ªà¤ķ":1447,"Ġà¤ħà¤ªà¤®":1448,"Ġà¤ħà¤¸à¤²":1449,"Ġà¤¯à¤¤":1450,"Ġà¤¯à¤®":1451,"Ġà¤ıà¤ıà¤¸à¤Ĩà¤Īà¤¸":1452,"à¥į,":1453,"à¤ĸà¤¦":1454,"à¤¨à¤Ł":1455,"Ġà¤Ĩà¤ł":1456,"à¤°à¤®à¤¶":1457,"à¤ħà¤§":1458,"à¤¨à¤¸à¤¨":1459,"Ġà¤¤à¤ª":1460,"Ġà¤Ķà¤ªà¤ļ":1461,"à¤Ĺà¤®à¤¨":1462,"Ġà¤ĸà¤¡":1463,"Ġ),":1464,"Ġà¤µà¤§":1465,"Ġà¤Ńà¤µà¤¨":1466,"à¤°à¤°":1467,"Ġà¤¨à¤ľà¤°":1468,"Ġà¤Ĺà¤ª":1469,"Ġà¤ıà¤«à¤ı":1470,"Ġà¤Ĩà¤¸à¤ª":1471,"à¥ĭ-":1472,"à¤ĥà¥¥":1473,"Ġà¤ľà¤¨à¤µà¤°":1474,"à¤¦à¤Ĺ":1475,"Ġà¤¤à¤Ń":1476,"Ġà¥¥à¥¥":1477,"Ġà¥Ń":1478,"à¤¸à¤«":1479,"Ġà¤¨à¤ķ":1480,"Ġà¤ªà¤°à¤¸":1481,"Ġà¤ıà¤ª":1482,"Ġà¤Īà¤Ĩà¤°":1483,"à¤°à¤¤à¤ķ":1484,"à¤¾à¥¥à¥¥":1485,"à¤Ĺà¤¯":1486,"Ġà¤Ľà¤ł":1487,"Ġà¤ıà¤ķà¤¤":1488,"Ġà¤¸à¤ªà¤¨":1489,"Ġà¤¦à¤£":1490,"à¥§à¥«":1491,"à¤Ĳ":1492,"à¥Ģ'":1493,"à¤¬à¤¡":1494,"Ġà¤ıà¤ķà¤¦à¤®":1495,"Ġà¤ķà¤¸":1496,"Ġà¤¦à¤¯à¤µà¤²":1497,"Ġà¤īà¤¹":1498,"Ġà¤°à¤£":1499,"à¤ĩà¤¨à¤°":1500,"à¤¼à¥ĭ":1501,"Ġà¥§à¥¦":1502,"à¤ģà¥¤":1503,"âĢĿ":1504,"Ġà¤ķà¤µà¤°":1505,"Ġà¤ĺà¤Łà¤ķ":1506,"à¤¤à¤¬":1507,"à¤¶à¤¯":1508,"ĠâĢľ":1509,"Ġà¤¸à¤ķà¤¯":1510,"à¤¹à¤®à¤°":1511,"Ġà¤¤à¤®":1512,"Ġà¤¤à¤ĸà¤¨à¤¹":1513,"Ġà¤ħà¤ĸ":1514,"Ġà¤ıà¤Ĩà¤Ī":1515,"à¤¥à¤Ĺà¤¨":1516,"Ġà¤Ĺà¤²":1517,"Ġà¤Ķà¤ļ":1518,"à¤īà¤¦":1519,"à¤ıà¤²à¤¸":1520,"à¤°à¤¬à¤²":1521,"à¤Ĩà¤¯":1522,"Ġà¤ıà¤«à¤ıà¤²à¤Ĩà¤°":1523,"à¤µà¤Ł":1524,"à¤ªà¤Łà¤¨":1525,"à¤°à¤£à¤¨":1526,"Ġà¤¦à¤°à¤¬":1527,"à¤ķà¤°à¤£à¤ķ":1528,"Ġà¤Ĩà¤ĩà¤²":1529,"Ġà¤ĳà¤²":1530,"Ġà¤Ĩà¤ĩà¤¯":1531,"Ġà¤Ĺà¤¹":1532,"à¤¤à¤¥":1533,"à¤¸à¤ľ":1534,"à¥ĭà¤Ĥ,":1535,"à¥ĩ'":1536,"Ġà¤¸à¤¹à¤¸":1537,"Ġà¥®":1538,"à¥Ī;":1539,"à¤µà¤ļ":1540,"à¤ıà¤ı":1541,"Ġà¤ĵà¤¤à¤¹":1542,"Ġà¤ıà¤ĸà¤¨à¤¹":1543,"à¤¤à¤°à¤ķ":1544,"à¤Łà¤µà¤°":1545,"Ġà¤Łà¤ķ":1546,"Ġà¤ıà¤«à¤ıà¤®":1547,"à¤²à¤¬à¤°":1548,"à¤°à¤·":1549,"à¤ªà¤Łà¤²":1550,"Ġà¤ıà¤ķà¤¦":1551,"Ġà¤°à¤¹à¤¸":1552,"à¤µà¤¯à¤¨":1553,"Ġà¤ľà¤¨à¤¨":1554,"Ġà¤ıà¤ıà¤Ł":1555,"à¤£à¤ªà¤¤":1556,"Ġà¤ĺà¤¨":1557,"à¤ķà¤²à¤¸":1558,"à¤¸à¤Ńà¤ķ":1559,"à¤¯à¤ķà¤°":1560,"à¤µà¤°à¤ķ":1561,"à¤ªà¤°à¤ķ":1562,"à¤Ľà¤ķ":1563,"Ġà¤ħà¤¨à¤¦":1564,"Ġà¤®à¤¨à¤¨":1565,"Ġà¤ıà¤ıà¤²à¤¡":1566,"Ġà¤²à¤ĺ":1567,"à¤ļà¤°à¤£":1568,"Ġà¤īà¤°":1569,"à¤Ŀà¤¯":1570,"Ġà¤Ĩà¤¦à¤®":1571,"Ġà¤¨à¤¯à¤¨":1572,"Ġà¤Ńà¤ľ":1573,"à¥§à¥Ń":1574,"Ġà¥¨à¥¦":1575,"à¤¾-":1576,"à¤¸à¤ĺ":1577,"Ġà¤ħà¤¸à¤¹":1578,"à¤Łà¤¸":1579,"à¤ľà¤ª":1580,"Ġà¤ĵà¤®":1581,"Ġà¤ıà¤Ĩà¤Īà¤ª":1582,"à¤¨à¤Ĺ":1583,"Ġà¤¬à¤°à¤¸":1584,"Ġà¤Ĺà¤¹à¤¨":1585,"Ġà¤ĸà¤¤à¤°":1586,"à¥§à¥¬":1587,"à¥Ĥ,":1588,"Ġà¤Ĺà¤ł":1589,"Ġà¤ķà¤ıà¤²à¤¥":1590,"à¤®à¤£à¤ķ":1591,"à¤ļà¤²à¤¨":1592,"à¤ªà¤°à¤µ":1593,"à¤īà¤ļ":1594,"Ġà¤īà¤²à¤Ł":1595,"à¤¨à¤²à¤¨":1596,"à¤¶à¤®":1597,"Ġà¥¯":1598,"Ġà¤ķà¤ı":1599,"à¤¯à¤Ĺ":1600,"Ġà¤ļà¤®à¤ķ":1601,"à¤ĺà¤¨à¤ķ":1602,"Ġà¤īà¤¸à¤¨":1603,"Ġà¤²à¤Ĺà¤²à¤¨":1604,"à¤¨à¤²à¤ķ":1605,"à¤¼à¥ĩà¤Ĥ":1606,"Ġà¤ħà¤Ļ":1607,"à¤ªà¤µ":1608,"Ġà¤°à¤µ":1609,"Ġà¤ıà¤¹à¤ķà¤°":1610,"à¤°à¤ļà¤²":1611,"à¤łà¤Ń":1612,"Ġà¤īà¤ķ":1613,"Ġà¤ĺà¤¡":1614,"Ġà¤²à¤Ĺà¤¬":1615,"Ġà¤¹à¤®à¤¨":1616,"à¤¦à¤ķà¤ķ":1617,"Ġà¤Ĳà¤¤":1618,"à¤¼à¥į":1619,"Ġà¤¹à¤®à¤°à¤¹":1620,"à¤ĵà¤¹":1621,"à¤¦à¤°à¤Ĺ":1622,"Ġà¤ķà¤ķ":1623,"à¥§à¥®":1624,"Ġà¤¦à¤®":1625,"Ġà¤ıà¤°":1626,"Ġà¤ķà¤¦":1627,"Ġà¤ķà¤ķà¤°":1628,"Ġà¤®à¤¯":1629,"Ġà¤¬à¤²à¤µ":1630,"Ġà¤®à¤®":1631,"Ġà¤Ńà¤Ł":1632,"à¤°à¤®à¤£":1633,"à¤ķà¤²à¤¨":1634,"Ġà¤¨à¤Ĺ":1635,"Ġà¤īà¤¤à¤°":1636,"à¤Ĩà¤°à¤ıà¤²":1637,"à¤Ĺà¤ľ":1638,"à¤¯à¤ķà¤¯":1639,"Ġà¤ĳà¤Ł":1640,"à¤£à¤µ":1641,"Ġà¤¤à¤ķà¤¨":1642,"Ġà¤Ĺà¤¦":1643,"\"à¥¤":1644,"Ġà¤ħà¤®à¤°":1645,"Ġà¤¬à¤ļà¤¨":1646,"Ġà¤®à¤¹à¤°":1647,"Ġ&":1648,"Ġà¤µà¤ľà¤¨":1649,"à¤ĸà¤Ń":1650,"Ġà¤¸à¤°à¤²":1651,"Ġà¤ļà¤°à¤£à¤ķà¤®à¤²":1652,"Ġà¤¸à¤¸":1653,"Ġà¤ħà¤Ī":1654,"à¤¦à¤°à¤ķ":1655,"Ġà¤¹à¤°à¤£":1656,"Ġà¤°à¤®":1657,"Ġà¤ķà¤°à¤²à¤ķ":1658,"à¤°à¤®à¤ķ":1659,"Ġà¤ıà¤¸à¤¸":1660,"Ġ$,":1661,"-]":1662,"Ġà¤ĳà¤¨":1663,"à¤īà¤¤":1664,"à¤ħà¤¹":1665,"à¤ħà¤¸":1666,"Ġà¤ķà¤ĸà¤¨à¤¹":1667,"Ġà¤Ĩà¤¬à¤¯":1668,"à¤Łà¤µ":1669,"Ġà¤ķà¤ļ":1670,"Ġà¤ªà¤°à¤¨":1671,"Ġà¤īà¤ªà¤¹":1672,"Ġà¤ĩà¤¸à¤®":1673,"à¥§à¥¯":1674,"Ġ]":1675,"à¤²à¤ľ":1676,"Ġà¤ªà¤ŀ":1677,"Ġà¤ļà¤¯à¤¨":1678,"à¤ĵà¤¤":1679,"à¤ļà¤°à¤²":1680,"Ġà¤¸à¤¬à¤®":1681,"à¤¿?":1682,"à¤µà¤Ĺ":1683,"à¥ģ,":1684,"Ġà¤¹à¤¤":1685,"à¥§à¥§":1686,"Ġà¤ĭà¤¤":1687,"à¤¤à¤°à¤¤":1688,"Ġà¤¨à¤¤":1689,"Ġà¤·":1690,"à¤ķà¤Ĺ":1691,"Ġà¤®à¤ļ":1692,"à¤Ŀà¤ķà¤°":1693,"à¤īà¤ªà¤°":1694,"Ġà¤ľà¤¤à¤¹":1695,"à¤ªà¤¬":1696,"à¤Īà¤¯":1697,"à¤«à¤®":1698,"Ġà¤¨à¤Ī":1699,"à¤ļà¤¸":1700,"Ġà¤®à¤¨à¤®":1701,"à¤Ķ":1702,"Ġà¤ĳà¤¯à¤²":1703,"à¤¦à¤¨à¤ķ":1704,"Ġà¤ħà¤·":1705,"à¤·à¤§":1706,"Ġà¤ļà¤²à¤¬":1707,"Ġà¤¦à¤µ":1708,"à¤ĸà¤²à¤¹":1709,"à¥¨à¥¦":1710,"Ġà¤ħà¤¸à¤°":1711,"Ġà¤ľà¤¤à¤¨":1712,"Ġà¤Ĩà¤¸à¤¨":1713,"Ġà¤ĳà¤°":1714,"Ġà¤Ĩà¤°à¤ķ":1715,"Ġà¤Īà¤¸":1716,"Ġà¤Ĩà¤°à¤ª":1717,"à¤¦à¤ķà¤¨":1718,"Ġ%":1719,"à¥ĩ)à¥¤":1720,"à¤§à¤²":1721,"Ġà¤ªà¤ļ":1722,"Ġà¤¦à¤°à¤Ń":1723,"Ġ(-":1724,"Ġà¤¬à¤°à¤ķà¤°":1725,"Ġà¤ľà¤¨à¤ķà¤ľ":1726,"à¤¦à¤¸":1727,"Ġà¤ķà¤°à¤¯à¤µ":1728,"Ġà¤Ĺà¤¬":1729,"Ġà¤ķà¤ĩà¤²à¤¥":1730,"à¤Ĩà¤°à¤Ł":1731,"Ġ);":1732,"à¤²à¤¨à¤ķ":1733,"Ġà¤ľà¤¸":1734,"à¥¤à¥¤":1735,"Ġà¤²à¤ľ":1736,"à¤Īà¤¸":1737,"Ġà¤¸à¤¹à¤Ń":1738,"à¤ĸà¤²à¤ķ":1739,"Ġà¤ĵà¤¬":1740,"Ġà¤¨à¤µà¤®":1741,"à¤¨à¤¬à¤°":1742,"Ġà¤¸à¤Ĺ":1743,"Ġà¤¬à¤Ł":1744,"Ġà¤¬à¤ĸ":1745,"Ġà¤ķà¤°à¤¹":1746,"à¥ĩà¤ģ,":1747,"à¤ķà¤²à¤²":1748,"Ġà¤ķà¤ªà¤²":1749,"à¤·à¤£à¤ķ":1750,"Ġà¤Ĭà¤°":1751,"Ġà¤ķà¤¡":1752,"à¤¤à¤Ĺ":1753,"--":1754,"Ġà¤µà¤¨à¤µ":1755,"Ġà¤ļà¤²à¤¯":1756,"Ġà¤¸à¤®à¤¯à¤ķ":1757,"Ġ[-]":1758,"Ġà¤ħà¤¨à¤²":1759,"à¤Ĩà¤¨":1760,"à¤½à¤¸":1761,"Ġà¤īà¤ªà¤ķà¤°à¤£":1762,"Ġà¤®à¤¨à¤¹":1763,"à¥Ģ]":1764,"à¤¥à¤µ":1765,"à¤°à¤ķà¤¨":1766,"à¤ªà¤¶":1767,"à¤¦à¤ª":1768,"Ġà¤µà¤ľ":1769,"à¤°à¤²à¤ķ":1770,"à¥Ģà¥¥à¥¥":1771,"à¤Ńà¤¨":1772,"Ġà¤Ĩà¤Īà¤Ĩà¤°":1773,"Ġà¤ªà¤£":1774,"Ġà¤²à¤²":1775,"Ġà¤°à¤¹à¤²à¤¨":1776,"Ġâ":1777,"à¤µà¤¡":1778,"Ġà¤®à¤®à¤¤":1779,"à¥ģà¥¤":1780,"Ġà¤ħà¤¸à¤«à¤²à¤¤":1781,"Ġà¤¸à¤®à¤Ŀà¤¤":1782,"Ġà¤¨à¤ľà¤¦":1783,"Ġà¤ĵà¤µ":1784,"Ġà¤ıà¤ıà¤²à¤ľ":1785,"à¤²à¤ª":1786,"Ġà¤§à¤¯":1787,"Ġà¤Ľà¤µ":1788,"à¤Īà¤ķ":1789,"à¤°à¤¦à¤ľ":1790,"Ġà¤īà¤¨à¤®":1791,"Ġà¤Ĩà¤Īà¤Ł":1792,"à¤Ĥà¥¤":1793,"Ġà¤Ĩà¤®à¤¤":1794,"Ġà¤ıà¤¨à¤°":1795,"Ġà¤īà¤¤à¤¨":1796,"à¤®à¤Ń":1797,"à¤¦à¤°à¤¤":1798,"Ġà¤¹à¤Ī":1799,"Ġà¤īà¤§":1800,"Ġà¤¨à¤°à¤ķ":1801,"Ġà¤¤à¤°à¤ķ":1802,"à¤µà¤²à¤ªà¤®":1803,"à¤ľà¤¨à¤°à¤²":1804,"Ġà¥§à¥§":1805,"\",":1806,"Ġà¤®à¤°à¤£":1807,"Ġà¤¨à¤ľ":1808,"Ġà¤ıà¤¹à¤ķ":1809,"à¤Ŀà¤¨":1810,"à¤ĩà¤¨à¤®":1811,"Ġà¤ªà¤¸à¤°":1812,"Ġà¤®à¤¹à¤²":1813,"à¤Łà¤ª":1814,"à¤¶à¤¨à¤ķ":1815,"à¥Ģà¤Ĥ:":1816,"Ġà¤ķà¤®à¤°":1817,"Ġà¤ıà¤«à¤ıà¤®à¤¸":1818,"à¥ĩà¤Ĥ;":1819,"Ġà¤ķà¤°à¤½":1820,"Ġà¤¤à¤Ł":1821,"Ġà¤ıà¤¹à¤¸":1822,"Ġà¤®à¤¹à¤¸":1823,"Ġà¤°à¤ĸà¤²à¤¨":1824,"Ġà¤¬à¤ļà¤¤":1825,"Ġà¥§à¥¨":1826,"Ġà¤Ĩà¤¯à¤¬":1827,"Ġà¤®à¤Ĺ":1828,"Ġà¤®à¤°à¤®":1829,"Ġà¤¬à¤¶à¤°":1830,"Ġà¤ķà¤¯à¤²à¤¥":1831,"Ġà¤ħà¤Ĺà¤²":1832,"Ġà¤¤à¤¹à¤¨":1833,"à¤Ńà¤ķà¤°":1834,"Ġà¤ĩà¤¸à¤¸":1835,"à¤¸à¤®à¤¯":1836,"\":":1837,"à¤¯à¤ı":1838,"Ġà¤ľà¤¤à¤ķ":1839,"Ġà¤¯à¤¸":1840,"à¤ĺà¤Łà¤¨":1841,"Ġ-à¥¤":1842,"à¤§à¤®":1843,"Ġà¤ĸà¤¸à¤²":1844,"Ġà¤¬à¤ļà¤²":1845,"à¤°à¤ªà¤¤":1846,"Ġà¤ħà¤ĩà¤Ľ":1847,"Ġà¤¨à¤ŀ":1848,"Ġà¤¹à¤ł":1849,"à¤Ĺà¤ª":1850,"à¤Ĺà¤µ":1851,"à¤ĥ,":1852,"à¤¾]":1853,"à¥ĩ-":1854,"à¤²à¤¦":1855,"Ġà¤ªà¤łà¤¨":1856,"à¤¶à¤ľ":1857,"à¥ĥ.":1858,"Ġà¤ħà¤¸à¤¤":1859,"à¤¸à¤¯":1860,"Ġà¤®à¤¶":1861,"à¤Ĺà¤µà¤¤":1862,"à¤£à¤µà¤¤":1863,"à¤Ńà¤¯":1864,"Ġà¤ĵà¤ķ":1865,"Ġà¤ĸà¤²":1866,"Ġà¤¸à¤Ńà¤Ł":1867,"à¤Łà¤¨à¤Ĺà¤°":1868,"Ġà¤¬à¤¤à¤¬":1869,"Ġà¤ªà¤¥":1870,"Ġà¤Ĺà¤ľ":1871,"à¤¹à¤Ł":1872,"à¤£à¤®":1873,"Ġà¤¤à¤²":1874,"Ġà¤ħà¤¸à¤®":1875,"Ġà¤°à¤ĸà¤²à¤ķ":1876,"Ġà¤ľà¤¨à¤®":1877,"Ġà¤ĵà¤¤à¤¬":1878,"à¤°à¤ł":1879,"à¤¸à¤µà¤°":1880,"à¥Īà¤ĥ":1881,"à¥ĩà¤Ĥ\"":1882,"Ġà¤ľà¤¨à¤¹":1883,"à¥¨à¥©":1884,"Ġà¤¦à¤½":1885,"à¤Ľà¤²à¤¨":1886,"à¤ļà¤µ":1887,"Ġà¤īà¤Ĺ":1888,"à¤łà¤ľ":1889,"à¤µà¤¨à¤®":1890,"Ġ-)":1891,"Ġà¤¸à¤¤à¤¤":1892,"à¤ķà¤ľ":1893,"à¤ķà¤¶":1894,"à¤ķà¤¤à¤®":1895,"Ġà¤¸à¤¨à¤ķ":1896,"à¤ĩà¤«":1897,"Ġà¤ĸà¤¬à¤°":1898,"à¤Ĩà¤°à¤ıà¤¸":1899,"Ġà¤¸à¤®à¤Ŀà¤¨":1900,"Ġà¤ıà¤¨à¤Ł":1901,"Ġà¤ķà¤¤à¤¬":1902,"à¤°à¤Ĺà¤¤":1903,"à¥Ģ(":1904,"à¥Ģà¤ģ":1905,"Ġà¤¨à¤¨":1906,"Ġà¤ªà¤°à¤¶":1907,"Ġà¤ķà¤¹à¤²à¤¹":1908,"Ġ\"[":1909,"Ġà¤¦à¤¶à¤°à¤¥à¤ľ":1910,"à¤µà¤¥":1911,"Ġà¤ķà¤°à¤²à¤¨":1912,"Ġà¤§à¤¯à¤²":1913,"Ġà¤Ĩà¤µà¤¤":1914,"à¤·à¤£à¤ľ":1915,"Ġà¤ħà¤¸à¤¹à¤®à¤¤":1916,"à¤ķà¤²à¤¤":1917,"à¤¶à¤µ":1918,"à¤ıà¤°":1919,"à¤¿\":":1920,"à¤ĭ":1921,"Ġà¤ıà¤¯":1922,"Ġà¤īà¤ªà¤µ":1923,"à¤²à¤ķà¤¨":1924,"à¤ĵà¤ķà¤°":1925,"Ġà¤ľà¤ķ":1926,"Ġà¤Ķà¤·à¤§":1927,"Ġà¥§à¥ª":1928,"Ġà¤ľà¤¤à¤ı":1929,"à¤°à¤¯à¤¤":1930,"Ġà¤¬à¤§":1931,"Ġà¤ıà¤¡à¤¬":1932,"à¤ľà¤§":1933,"à¤īà¤²":1934,"à¥¨à¥ª":1935,"Ġà¤¦à¤¶à¤®":1936,"Ġà¤¨à¤µà¤°":1937,"Ġà¤ıà¤ı":1938,"à¤ľà¤µ":1939,"Ġà¤Ńà¤°à¤¦":1940,"Ġà¤ĩà¤µ":1941,"Ġà¤Ńà¤¯à¤Ń":1942,"Ġà¤®à¤¨à¤ķ":1943,"Ġà¤²à¤®":1944,"à¤¼à¥ĩà¤Ĥ,":1945,"Ġà¤ıà¤¤à¤¹":1946,"à¤¬à¤¥":1947,"Ġà¤°à¤®à¤£":1948,"Ġà¤Ľà¤¤":1949,"à¤°à¤¸à¤°":1950,"à¤°à¤¸à¤Ń":1951,"Ġà¤īà¤ªà¤®":1952,"à¥¨à¥¬":1953,"Ġ&;":1954,"à¤¹à¤¦":1955,"à¤µà¤ķà¤°":1956,"Ġà¤¬à¤°à¤¦":1957,"à¤·à¤¯à¤ķ":1958,"Ġà¤ĵà¤²":1959,"Ġà¤ĵà¤µà¤°":1960,"Ġà¤ĸà¤¤":1961,"Ġà¤¸à¤ķà¤¬":1962,"Ġà¤¸à¤¹à¤¨":1963,"Ġà¤Ĩà¤¦à¤°à¤ª":1964,"Ġà¤ľà¤¹à¤¨":1965,"Ġà¤Ĩà¤ķà¤¸":1966,"à¥Įà¤Ĥà¥¤":1967,"à¤¹à¤¯":1968,"Ġà¤ªà¤ĩ":1969,"à¤Ĺà¤Łà¤¨":1970,"à¤ıà¤¹à¤¨":1971,"Ġà¤¶à¤®":1972,"Ġà¤ķà¤¹à¤¥":1973,"à¤ĵà¤¸":1974,"Ġà¤°à¤ĸà¤°à¤ĸ":1975,"à¥¨à¥Ń":1976,"à¥Ģ)à¥¤":1977,"Ġà¤ľà¤¤à¤¬":1978,"à¤®à¤¹à¤¤":1979,"Ġà¤ªà¤°à¤²":1980,"à¤µà¤²à¤ķ":1981,"à¤°à¤¦à¤¸":1982,"à¤ħà¤Ĺà¤°":1983,"Ġà¤ħà¤¯à¤²à¤¹":1984,"Ġà¤Ĺà¤¢":1985,"à¤ĩà¤ª":1986,"Ġà¤ħà¤¨à¤ľ":1987,"à¤Ĩà¤Ĺ":1988,"Ġà¤īà¤¦à¤¯":1989,"Ġà¤ħà¤¸à¤Ĺà¤°":1990,"à¤īà¤Ł":1991,"à¤°à¤µà¤£":1992,"à¤°à¤²à¤¯":1993,"à¤µà¤ļà¤¨":1994,"à¤¦à¤¬":1995,"Ġà¤Ńà¤¸":1996,"à¤ıà¤µ":1997,"Ġà¤ļà¤²à¤¨":1998,"Ġà¤¸à¤®à¤¨":1999,"à¥¨à¥«":2000,"à¤®à¤¬":2001,"Ġà¤ıà¤²à¤¨":2002,"Ġà¤ıà¤ıà¤®":2003,"à¤Ńà¤¦":2004,"à¤¯à¤°à¤¨":2005,"à¤Ĩà¤Īà¤Ĩà¤Ī":2006,"Ġà¥§à¥©":2007,"à¤¯à¤Ł":2008,"à¤ªà¤¡":2009,"Ġà¤¬à¤ķ":2010,"Ġà¤ıà¤¯à¤°":2011,"Ġà¤¶à¤¨":2012,"Ġà¤®à¤¨à¤¸":2013,"Ġà¤ıà¤ļà¤Ĩà¤°":2014,"Ġà¤¬à¤°à¤ĸ":2015,"à¤Ĭà¤ªà¤°":2016,"Ġà¤®à¤ĸ":2017,"Ġà¤²à¤¯à¤ķà¤¯":2018,"Ġà¤ĩà¤ľ":2019,"à¤īà¤ķ":2020,"Ġ'-":2021,"à¤Łà¤¨à¤°":2022,"à¥¨à¥¯":2023,"Ġà¥§à¥«":2024,"Ġà¤Ĩà¤īà¤Ł":2025,"à¤¨à¤µà¤°":2026,"à¤¯à¤Ń":2027,"Ġà¤¹à¤¡":2028,"Ġà¤µà¤¹à¤¨":2029,"Ġà¤¸à¤®à¤¤":2030,"à¤°à¤¹à¤°":2031,"Ġà¤ľà¤Ĺà¤¦":2032,"Ġà¤¹à¤ķ":2033,"à¤Ńà¤µà¤¨":2034,"à¤¼à¥Ĥ":2035,"Ġà¤ĳà¤ªà¤°":2036,"à¤°à¤¦à¤¤":2037,"à¤²à¤ļ":2038,"à¤§à¤¨à¤ķ":2039,"à¤¡à¤¶":2040,"à¥¨à¥®":2041,"Ġà¥§à¥¬":2042,"à¤°à¤²à¤¨":2043,"Ġà¤ķà¤ĩ":2044,"Ġà¤ıà¤¶":2045,"Ġà¤īà¤łà¤¤":2046,"Ġà¤ħà¤¡":2047,"à¤ªà¤¸à¤¨":2048,"à¤¦à¤¤":2049,"à¤ıà¤ª":2050,"à¤½à¤§":2051,"Ġà¤ıà¤¨à¤ıà¤²":2052,"à¥©à¥©":2053,"Ġà¤ķà¤¤à¤¨":2054,"à¤µà¤²à¤¨":2055,"à¤µà¤°à¤¸":2056,"Ġà¤Ĩà¤«":2057,"à¤Łà¤¸à¤¨":2058,"Ġà¤ıà¤ķà¤ıà¤ķ":2059,"Ġà¤¹à¤®à¤²":2060,"à¤¯à¤¤à¤¯":2061,"à¥ĩ);":2062,"Ġà¤ĭà¤£à¤¦":2063,"ĭâĢ":2064,"à¤°à¤ĺ":2065,"Ġà¤ħà¤ĸà¤¨":2066,"Ġà¤Ĩà¤°à¤¤":2067,"Ġà¤ıà¤¹à¤®":2068,"Ġà¤«à¤²à¤¸":2069,"Ġà¤ľà¤¬à¤°à¤¦à¤¸":2070,"ĠâĢĭâĢ":2071,"Ġà¥§à¥Ń":2072,"ĠâĢĭâĢĭ":2073,"à¤¸à¤Ł":2074,"à¤ķà¤¬à¤¸à¤¨":2075,"à¤¯à¤¨à¤ķ":2076,"à¤¸à¤¬à¤°":2077,"à¤¬à¤µ":2078,"à¤ªà¤°à¤®":2079,"Ġà¤ħà¤µà¤Ĺà¤¤":2080,"Ġà¤¬à¤Ĺ":2081,"à¤Ĩà¤¬":2082,"à¤¯à¤¤à¤¨":2083,"à¤ĵà¤²à¤ķ":2084,"Ġà¤¬à¤ļà¤¬":2085,"à¤ķà¤½":2086,"Ġà¤ªà¤Ľ":2087,"à¤¦à¤¯à¤ķ":2088,"Ġà¤Ĩà¤¨à¤²":2089,"Ġà¤¤à¤ľ":2090,"Ġà¤Ńà¤ĩà¤²":2091,"Ġà¤ĩà¤¦":2092,"à¤ħà¤¯":2093,"Ġà¤¬à¤ľà¤¬":2094,"Ġà¤ıà¤«à¤ıà¤®à¤ľ":2095,"'à¥¤":2096,"Ġà¤ħà¤ļà¤²":2097,"à¤ªà¤°à¤¤":2098,"Ġà¤Ĩà¤¸à¤ķ":2099,"à¥Ģà¤Ĥà¥¥":2100,"Ġà¤ķà¤ªà¤Łà¤ª":2101,"Ġà¤¸à¤«":2102,"Ġà¤ľà¤ľ":2103,"à¤£à¤°":2104,"à¤£à¤¸":2105,"Ġà¤¬à¤¨à¤¯":2106,"à¤°à¤ķà¤µ":2107,"à¤Ŀà¤ķ":2108,"à¤¾),":2109,"Ġà¤®à¤¦à¤¤":2110,"à¤¯à¤½":2111,"Ġà¤®à¤ķ":2112,"Ġà¤¤à¤¤à¤¯":2113,"à¤ĸà¤¸":2114,"à¤ķà¤°à¤¹":2115,"Ġà¤Ĩà¤Ĺà¤®à¤¨":2116,"Ġà¤Ĩà¤ļà¤°à¤£à¤ķ":2117,"ĪĻ":2118,"à¤¾âĢĻ":2119,"à¤¤à¤¦":2120,"à¤²à¤¸à¤¨":2121,"à¤®à¤µà¤°":2122,"à¤Ĺà¤ķà¤°":2123,"Ġà¤µà¤°à¤ķ":2124,"à¤ħà¤¤":2125,"Ġà¤¸à¤®à¤Ŀà¤¦":2126,"Ġà¤ıà¤²à¤°":2127,"à¤Ĳà¤ķ":2128,"à¤¨à¤¥":2129,"à¤Ĺà¤²à¤ķ":2130,"Ġà¤¤à¤²à¤µ":2131,"à¤ĸà¤®":2132,"à¤ĺà¤ķ":2133,"à¤ĵà¤ª":2134,"ĠâĪĻ":2135,"à¤²à¤²à¤ķ":2136,"Ġà¤²à¤²à¤ķ":2137,"Ġà¤Ĺà¤¡":2138,"Ġà¤ĺà¤°à¤®":2139,"à¥©à¥«":2140,"Ġà¤¸à¤¦à¤°":2141,"à¤¸à¤ļ":2142,"Ġà¤¨à¤µà¤¨":2143,"à¤Ĺà¤¶":2144,"à¤¬à¤¯à¤µà¤²":2145,"à¤£à¤Ĺ":2146,"Ġà¤²à¤¹":2147,"à¥ĩà¤Ĥ)à¥¤":2148,"à¤ĩà¤Łà¤°":2149,"Ġà¤¯à¤®à¤°":2150,"Ġà¤¸à¤®à¤¯à¤®":2151,"à¥Ģà¤Ĥ)":2152,"à¤¬à¤°à¤²":2153,"Ġà¤ıà¤¸à¤ıà¤¸":2154,"Ġà¤ķà¤²à¤¶":2155,"Ġà¤īà¤¸à¤¸":2156,"à¥©à¥¦":2157,"Ġà¤¸à¤ļà¤®":2158,"Ġà¥§à¥®":2159,"Ġà¤ħà¤ł":2160,"Ġà¤ħà¤Łà¤²":2161,"Ġà¤ľà¤¯à¤¤":2162,"Ġà¤¨à¤¬":2163,"Ġà¤¬à¤¸à¤²":2164,"à¤Łà¤°à¤¸à¤¨":2165,"Ġà¤¦à¤¶à¤ķ":2166,"Ġà¤Īà¤°":2167,"à¤°à¤¤à¤®":2168,"à¤Īà¤ĵà¤¸":2169,"Ġà¤ªà¤¹à¤°":2170,"Ġà¤¹à¤°à¤·":2171,"Ġà¤ľà¤¨à¤°à¤²":2172,"à¥©à¥ª":2173,"à¤¨à¤ļ":2174,"à¤Ĺà¤ł":2175,"Ġà¤¶à¤¹":2176,"à¥ī.":2177,"à¤°à¤®à¤£à¤ķ":2178,"à¤¿\"à¥¤":2179,"à¤¨à¤¶":2180,"Ġà¤¸à¤ŀ":2181,"à¥Ģ.":2182,"Ġà¤¬à¤¦à¤¨":2183,"Ġà¤ıà¤¨à¤µ":2184,"Ġà¤¶à¤ł":2185,"à¤łà¤®":2186,"Ġà¤°à¤¹à¤²à¤¹":2187,"Ġà¤Ĩà¤¦à¤°à¤£":2188,"à¤ħà¤Ń":2189,"Ġà¤¦à¤§":2190,"à¤ĩà¤¸à¤ķ":2191,"à¤Īà¤¨":2192,"à¥Įà¥¤":2193,"Ġà¤Ĩà¤¦à¤¤":2194,"Ġà¤ħà¤°à¤¬":2195,"Ġà¤ıà¤¨à¤¡à¤¬":2196,"à¤ıà¤«à¤ıà¤®":2197,"Ġà¤ľà¤¨à¤ķà¤ķ":2198,"Ġà¤ıà¤ļà¤Ĩà¤°à¤Īà¤ĵà¤¸":2199,"',":2200,"Ġà¤¬à¤°à¤¤":2201,"à¥Īà¥¥":2202,"Ġà¤Ľà¤ĩ":2203,"Ġà¤ļà¤¹":2204,"Ġà¥¤à¥¤":2205,"Ġà¤§à¤®à¤ķ":2206,"à¤Īà¤®":2207,"Ġ(,":2208,"Ġà¤Ĩà¤ĩà¤ķ":2209,"à¥«à¥¦":2210,"Ġà¤ķà¤¨à¤ķ":2211,"à¤¨à¤Ĺà¤°":2212,"à¤Łà¤¹":2213,"à¤§à¤°à¤£":2214,"à¤¥à¤ª":2215,"Ġà¤ĩà¤¨à¤®":2216,"à¥¨à¥¨":2217,"à¥©à¥Ń":2218,"Ġà¤¬à¤¦à¤²à¤¨":2219,"à¤²à¤Ł":2220,"à¤¯à¤Łà¤¨":2221,"à¤¦à¤¦":2222,"Ġà¤Ĩà¤®à¤ķ":2223,"Ġà¤°à¤ļà¤¯":2224,"Ġà¤²à¤ļ":2225,"à¤¡à¤ª":2226,"à¤ĸà¤ª":2227,"à¤ıà¤ıà¤¸":2228,"Ġà¤¶à¤°à¤¦":2229,"à¤¼à¥ĩà¥¤":2230,"Ġà¤ħà¤§à¤®":2231,"à¤¯à¤µà¤°":2232,"à¤½à¤ª":2233,"Ġ-)à¥¤":2234,"à¥©à¥¬":2235,"à¥©à¥¯":2236,"Ġà¤ªà¤µà¤¨à¤¸":2237,"à¥ĩ]":2238,"Ġà¤ªà¤Ľà¤¤":2239,"à¤ļà¤²à¤ķ":2240,"Ġà¤ļà¤£":2241,"à¤®à¤²à¤ķ":2242,"à¤Ĺà¤¤à¤ķ":2243,"à¤°à¤®à¤®":2244,"Ġ'[":2245,"Ġà¤Ńà¤Ĺà¤µà¤¦":2246,"à¥©à¥®":2247,"Ġà¤ķà¤ĩà¤¸":2248,"Ġà¤¨à¤²":2249,"à¤ıà¤ķà¤°":2250,"Ġà¤ķà¤¹à¤²à¤¸":2251,"Ġà¤ĺà¤®":2252,"Ġà¤°à¤ĸà¤µ":2253,"Ġ''":2254,"à¤ıà¤ļà¤ıà¤²":2255,"Ġà¤Ĳà¤¶":2256,"Ġà¥§à¥¯":2257,"Ġà¤Ĺà¤£à¤¤":2258,"à¤¹à¤¨à¤ķ":2259,"à¤Łà¤²à¤¨":2260,"à¤¶à¤¦":2261,"Ġà¤ªà¤°à¤ª":2262,"Ġà¤Ńà¤ı":2263,"Ġà¤Ķà¤¸à¤¤":2264,"à¥¨à¥§":2265,"Ġà¤²à¤ķà¤¡":2266,"Ġà¤ıà¤¯à¤°à¤µ":2267,"à¤¨à¤Ń":2268,"à¤¯à¤ľà¤¨à¤ķ":2269,"Ġà¤µà¤Ĺ":2270,"Ġà¤¦à¤¤":2271,"Ġà¤ªà¤°à¤¹":2272,"à¤ĸà¤µ":2273,"Ġà¤īà¤ĸ":2274,"à¤«à¤¤":2275,"à¤¤à¤°à¤°":2276,"à¤ªà¤Łà¤¤":2277,"à¤ĳà¤«":2278,"Ġà¤ªà¤¸à¤°à¤²":2279,"Ġà¤¨à¤µà¤¨à¤µ":2280,"Ġà¤¸à¤¹à¤²":2281,"Ġà¤¨à¤ª":2282,"à¤·à¤ľà¤¨à¤ķ":2283,"à¤ľà¤ĩà¤¸":2284,"à¤Ľà¤²à¤ĸ":2285,"à¤¶à¤¸":2286,"à¤ĸà¤¥":2287,"Ġà¤ĸà¤Ĺ":2288,"à¤°à¤ķà¤²":2289,"à¤Ĩà¤°à¤¸":2290,"Ġ):":2291,"Ġà¤¬à¤ļà¤ªà¤¨":2292,"à¤¹à¤°à¤£à¤ķ":2293,"Ġà¤®à¤ľà¤¦":2294,"Ġà¤īà¤ªà¤¨à¤¯à¤¨":2295,"Ġ'-'":2296,"à¤ķà¤«":2297,"à¤®à¤¸à¤®":2298,"à¤ıà¤¡":2299,"Ġà¤¶à¤¬à¤°":2300,"Ġà¤īà¤ªà¤ĸ":2301,"à¤¯à¤¤à¤®":2302,"Ġà¤®à¤¨à¤¬":2303,"Ġà¤Ĩà¤¯à¤ķà¤°":2304,"à¤ªà¤£à¤¨":2305,"Ġà¤µà¤ļà¤¨à¤¬à¤¦":2306,"Ġà¤ľà¤Ĺà¤¦à¤®":2307,"Ġà¤ľà¤²à¤¨":2308,"Ġà¤¨à¤ķà¤²":2309,"à¥Ī\"":2310,"Ġà¤²à¤¤":2311,"à¤¥à¤¸":2312,"Ġà¤Ńà¤¨":2313,"à¤ĩà¤Łà¤¨":2314,"à¥ĭà¤Ĥ\"":2315,"à¤łà¤¤":2316,"à¤Ĩà¤°à¤ı":2317,"à¥Ģà¤Ĥ)à¥¤":2318,"à¤īà¤ª":2319,"Ġà¤¸à¤¡":2320,"à¥Ģ/":2321,"à¤µà¤¸à¤®":2322,"Ġà¤¹à¤¥":2323,"Ġà¤¦à¤¨":2324,"à¤¶à¤ª":2325,"à¤¶à¤¬":2326,"à¥ĩà¤Ĥ'":2327,"Ġà¤Ĺà¤Ĺà¤¨":2328,"à¤ıà¤ľ":2329,"Ġà¤Ľà¤²à¤¯":2330,"à¤¼à¥ĩà¤Ĥà¥¤":2331,"Ġà¤īà¤ªà¤ľ":2332,"à¥Īà¤Ĥ:":2333,"à¤ŀà¤µà¤²":2334,"à¤ĸà¤²à¤¥":2335,"à¥ªà¥«":2336,"Ġà¤°à¤¹à¤¯à¤µà¤²":2337,"à¤°à¤®à¤¨":2338,"Ġà¤¸à¤¹à¤ľà¤¹":2339,"Ġ--":2340,"à¥ĩà¥ĩ":2341,"à¤ªà¤¹à¤°":2342,"Ġà¤¨à¤ļ":2343,"à¤·à¤§à¤°":2344,"à¤Ľà¤¬":2345,"Ġà¤Ńà¤Ĺà¤¤":2346,"à¤Ńà¤®":2347,"Ġà¤ħà¤¨à¤°":2348,"à¤¯à¤ķà¤¶":2349,"Ġà¤īà¤łà¤¬":2350,"Ġà¤īà¤¨à¤¸":2351,"Ġà¤Ĳà¤Ĺà¤²":2352,"à¥©à¥§":2353,"à¥ªà¥¬":2354,"à¤¯à¤£à¤ķ":2355,"à¥¦à¥¦":2356,"Ġà¤¦à¤®à¤¨à¤ķ":2357,"à¥ĩà¥¥à¥¥":2358,"Ġà¤®à¤¥":2359,"Ġà¤¨à¤Ń":2360,"Ġà¤µà¤ľà¤¹":2361,"Ġà¤ªà¤°à¤µ":2362,"à¤ŀà¤¤":2363,"à¤ľà¤¨à¤¨":2364,"à¤¨à¤²à¤¹":2365,"à¤¨à¤µà¤¤":2366,"à¤Ĥ,":2367,"Ġà¤ľà¤¯à¤¨":2368,"à¤·à¤¬":2369,"à¤·à¤¸à¤Ń":2370,"à¤Ľà¤²à¤ķ":2371,"Ġà¤ĸà¤ľ":2372,"à¤Īà¤Īà¤¯":2373,"Ġà¤ĩà¤·":2374,"à¤Ĩà¤ķ":2375,"Ġà¤¡à¤ļ":2376,"à¤½à¤½":2377,"à¥ªà¥Ń":2378,"à¥«à¥¬":2379,"à¤¨à¤«":2380,"à¤¨à¤°à¤ķ":2381,"à¤¤à¤ķà¤¨":2382,"à¤²à¤®à¤¨":2383,"Ġà¤ħà¤ĩ":2384,"Ġà¤ĩà¤Łà¤²":2385,"à¥ī,":2386,"à¤īà¤¨à¤ķà¤°":2387,"à¤Łà¤°à¤²":2388,"à¥©à¥¨":2389,"Ġà¤ıà¤®à¤Ĩà¤°à¤Ł":2390,"à¤¾?":2391,"à¤²à¤²à¤¨":2392,"à¤ªà¤ª":2393,"Ġà¤¨à¤¶":2394,"Ġà¤µà¤¤":2395,"Ġà¤Ľà¤¬":2396,"à¤¡à¤°à¤¸à¤¨":2397,"Ġà¤Ĺà¤®à¤¨":2398,"Ġà¤ªà¤°à¤¤":2399,"Ġà¤ªà¤°à¤¦":2400,"à¤ıà¤®à¤¸":2401,"à¤Ĩà¤¦":2402,"à¤ĺà¤¨à¤ķà¤°":2403,"à¤°à¤¦à¤ķ":2404,"à¤¸à¤ķà¤¤":2405,"à¥ªà¥¯":2406,"à¥«à¥®":2407,"Ġà¤Ĺà¤£à¤ªà¤¤":2408,"à¤¹à¤µ":2409,"à¤¹à¤ª":2410,"Ġà¤®à¤ķà¤°":2411,"Ġà¤®à¤Ľà¤²":2412,"Ġà¤Ĩà¤ĩà¤¤":2413,"à¤§à¤ª":2414,"à¤£à¤ª":2415,"Ġà¤ķà¤°à¤²à¤¥":2416,"Ġà¤Ńà¤Łà¤ķ":2417,"à¤ıà¤®à¤ľ":2418,"à¤«à¤¹à¤®":2419,"à¤Ĩà¤īà¤Ł":2420,"à¤ħà¤¦":2421,"Ġà¤¨à¤µà¤µ":2422,"à¥ªà¥¦":2423,"à¤°à¤ļà¤²à¤¨":2424,"Ġà¤ķà¤£":2425,"à¤¨à¤¤à¤®":2426,"Ġà¤ªà¤½":2427,"à¤ªà¤ķà¤°":2428,"Ġà¤µà¤¯":2429,"Ġà¤²à¤¹à¤°":2430,"à¤ľà¤Ł":2431,"à¤Ĩà¤§":2432,"Ġà¤«à¤Ĺ":2433,"Ġà¤ĺà¤¬à¤°":2434,"à¤¦à¤°à¤²":2435,"à¤·à¤£à¤¹":2436,"Ġà¤ħà¤µà¤ľ":2437,"Ġà¤ķà¤²à¤®":2438,"à¥ªà¥§":2439,"Ġà¤¸à¤®à¤ķà¤ķ":2440,"à¤¨à¤Ĺà¤¤":2441,"à¤¤à¤¨à¤ķ":2442,"Ġà¤¸à¤ľà¤²":2443,"Ġà¤ªà¤Łà¤¨":2444,"à¥ĭà¤ģ":2445,"à¤·à¤¹":2446,"Ġà¤¶à¤¯à¤¨":2447,"Ġà¤¶à¤Ļ":2448,"Ġà¤ļà¤Ł":2449,"à¤¤à¤°à¤¹":2450,"à¤¤à¤µà¤®":2451,"Ġà¤ľà¤¨à¤¸":2452,"à¥«à¥Ń":2453,"Ġà¤¤à¤¦à¤¨à¤¨":2454,"à¤®à¤ł":2455,"à¤¸à¤¨à¤ķ":2456,"Ġà¤ľà¤²à¤ķ":2457,"à¤ıà¤ıà¤²":2458,"à¤ıà¤²à¤ª":2459,"Ġà¤ħà¤¤à¤ıà¤µ":2460,"à¤¸à¤²à¤°":2461,"Ġà¤Ĺà¤²à¤¤à¤«à¤¹à¤®":2462,"Ġà¤®à¤¤à¤Ń":2463,"Ġà¤ľà¤Ĺà¤ľ":2464,"Ġà¤Ĺà¤£à¤°":2465,"Ġà¤¨à¤Ĺà¤°à¤ķ":2466,"à¥ĭà¥¥":2467,"à¤Ľà¤°":2468,"Ġà¤¤à¤µ":2469,"à¤ķà¤°à¤ľ":2470,"Ġà¤¶à¤¶":2471,"Ġà¤ıà¤ķà¤ľ":2472,"à¤¼à¥ĩ,":2473,"Ġà¤§à¤°à¤£":2474,"à¤Īà¤²":2475,"Ġà¤¸à¤Ńà¤¸":2476,"à¤īà¤¡":2477,"Ġà¤Ĩà¤ļà¤®à¤¨":2478,"à¤ĩà¤¨à¤¬à¤°":2479,"à¤¸à¤²à¤®":2480,"Ġà¤ıà¤¸à¤ıà¤ıà¤¸à¤Ĩà¤°":2481,"à¥į:":2482,"à¤¿),":2483,"Ġà¤®à¤°à¤²":2484,"Ġà¤¦à¤¹à¤²":2485,"Ġà¤Ľà¤ª":2486,"à¤ļà¤ķà¤°":2487,"à¤¡à¤µà¤¤":2488,"à¥ĩà¤ģà¥¤":2489,"à¤Ĩà¤µà¤ľ":2490,"à¤½à¤¹":2491,"Ġà¤ĳà¤ķ":2492,"Ġà¤ıà¤¸à¤ĵà¤ª":2493,"Ġà¤Ŀà¤Ĺà¤¡":2494,"Ġà¤®à¤°à¤¬":2495,"à¥ªà¥®":2496,"Ġà¤ľà¤ĸà¤¨à¤¹":2497,"Ġà¤Ĩà¤ľà¤ķà¤²":2498,"à¤ıà¤ķà¤Ł":2499,"Ġà¤Ĩà¤ĵà¤¤":2500,"à¤ĭà¤£":2501,"à¤¾à¤ĥà¥¤":2502,"Ġà¤ķà¤¶":2503,"à¤¤à¤¶":2504,"Ġà¤¸à¤Ĺà¤°":2505,"à¤Ĥà¥¥":2506,"Ġà¤ªà¤Ļ":2507,"Ġà¤Ĩà¤¡":2508,"Ġà¤Ĩà¤ıà¤²":2509,"Ġà¤¬à¤Ĺà¤²":2510,"à¤Ĺà¤ļ":2511,"à¤Ĺà¤°à¤£":2512,"à¤ļà¤¦":2513,"à¤¡à¤¤":2514,"Ġà¤Īà¤ª":2515,"Ġà¤ħà¤§à¤°":2516,"Ġà¤ĩà¤ķà¤Ł":2517,"à¤ıà¤²à¤¨":2518,"Ġà¤Łà¤ķà¤°":2519,"à¤µà¤¨à¤¸":2520,"à¤¶à¤¨à¤°":2521,"à¤ĵà¤²à¤¨":2522,"à¥ªà¥¨":2523,"Ġà¤ıà¤®à¤ıà¤«":2524,"Ġà¥¨à¥ª":2525,"Ġà¤ķà¤µà¤ļ":2526,"-,":2527,"à¤°à¤ķà¤°":2528,"Ġà¤ħà¤ķà¤°":2529,"Ġà¤¨à¤Ł":2530,"Ġà¤¹à¤°à¤¦":2531,"à¤ľà¤¸à¤¨":2532,"Ġà¤¤à¤®à¤¸":2533,"Ġà¤¬à¤¨à¤¨":2534,"Ġà¤ĵà¤ķà¤°à¤¹":2535,"Ġà¤°à¤¹à¤²à¤¥":2536,"à¤½à¤¨":2537,"Ġà¤ħà¤µà¤Ĺ":2538,"Ġà¤¬à¤¢à¤²":2539,"à¤ıà¤¨à¤Ł":2540,"Ġà¤¢à¤ķ":2541,"à¤°à¤ªà¤°":2542,"à¤°à¤ķà¤°à¤£":2543,"à¤ķà¤Łà¤¤":2544,"Ġà¤¨à¤ı":2545,"à¤Łà¤¦":2546,"Ġà¤Ńà¤¦":2547,"à¤Ĩà¤ª":2548,"Ġà¤ķà¤ĩà¤²à¤ĸ":2549,"Ġà¤¸à¤Ńà¤®":2550,"Ġà¤ĺà¤°à¤µ":2551,"Ġà¤¬à¤¹à¤¯":2552,"à¤īà¤ªà¤¯":2553,"Ġà¤ªà¤ķà¤µ":2554,"à¤°à¤¹à¤ķ":2555,"à¤°à¤¶à¤¸":2556,"Ġ,-,":2557,"à¤·à¤ķà¤ķ":2558,"à¤¨à¤¸à¤Ń":2559,"Ġà¤ľà¤²à¤¸":2560,"à¥¬à¥Ń":2561,"à¤¿'à¥¤":2562,"à¤¾)à¥¤":2563,"à¤¿)à¥¤":2564,"à¤¹à¤¹":2565,"à¤¹à¤°à¤ķ":2566,"Ġà¤ľà¤¯à¤®":2567,"Ġà¤Ĩà¤ĩà¤¸":2568,"à¤§à¤¯":2569,"Ġà¤°à¤Ļ":2570,"Ġà¤²à¤¬":2571,"à¤Ľà¤µ":2572,"à¤ĸà¤¯à¤µà¤²":2573,"Ġà¤Ńà¤¤":2574,"à¤ĩà¤¶":2575,"à¤ªà¤¨à¤ķ":2576,"Ġà¤ĩà¤¦à¤®":2577,"à¤°à¤¸à¤®":2578,"à¤ĺà¤²":2579,"à¤ŀà¤ķ":2580,"Ġà¤²à¤Ĺà¤¨":2581,"à¤®à¤ķà¤¥":2582,"à¤°à¤¹à¤®":2583,"Ġà¤Ĩà¤¬à¤¥":2584,"Ġà¤Ĩà¤ĩà¤Ĺ":2585,"Ġà¤ıà¤µà¤®":2586,"Ġà¤·à¤·":2587,"à¤°à¤Ł":2588,"à¤¿âĢĻ":2589,"Ġà¤¸à¤¶à¤ķ":2590,"Ġà¤Ĩà¤¯à¤¤":2591,"à¤Ĺà¤Ń":2592,"à¤·à¤µ":2593,"à¤·à¤¸à¤ķ":2594,"à¤Ńà¤¸":2595,"Ġà¤ļà¤®":2596,"Ġà¤ħà¤¨à¤¸":2597,"à¤µà¤¨à¤¶":2598,"Ġà¤¤à¤ķà¤²":2599,"Ġà¤īà¤łà¤µà¤²":2600,"Ġà¤ĺà¤°à¤¬":2601,"Ġà¤ªà¤°à¤®à¤ª":2602,"à¥«à¥§":2603,"à¥¬à¥¦":2604,"à¤ıà¤®à¤ı":2605,"Ġà¤¬à¤¦à¤²à¤²":2606,"à¤Ńà¤Ĺà¤µ":2607,"Ġà¤ľà¤ĩà¤¤":2608,"à¤¦à¤¸à¤Ń":2609,"Ġà¤¹à¤µà¤¨":2610,"à¤Łà¤°à¤¸":2611,"à¤¥à¤¹":2612,"à¤Ľà¤¯":2613,"à¤¡à¤ĵ":2614,"Ġà¤¥à¤°":2615,"à¤¸à¤®à¤Ŀ":2616,"Ġà¤ıà¤¨à¤ľ":2617,"à¥ªà¥©":2618,"Ġà¤ľà¤²à¤§":2619,"à¥«à¥¨":2620,"à¥«à¥«":2621,"à¥¬à¥®":2622,"à¤°à¤ļà¤£":2623,"Ġà¤ıà¤¸à¤ıà¤ıà¤ª":2624,"à¤Ķà¤¦":2625,"à¤²à¤Ŀ":2626,"à¤Ĺà¤²à¤¨":2627,"à¤¬à¤Ī":2628,"à¤§à¤¸":2629,"Ġà¤Ľà¤¯":2630,"à¤ĸà¤¹":2631,"à¤ĸà¤£":2632,"Ġà¤Ńà¤µà¤¸":2633,"Ġà¤§à¤¨à¤°":2634,"Ġà¤ħà¤¨à¤®":2635,"à¤°à¤£à¤¤":2636,"à¤Ĩà¤¹":2637,"à¤ĵà¤°":2638,"Ġà¤Ĭà¤¨":2639,"Ġà¤Ĩà¤¨à¤¬":2640,"à¥ªà¥ª":2641,"à¥«à¥©":2642,"Ġà¤ıà¤®à¤Ĩà¤°":2643,"Ġà¥¨à¥§":2644,"Ġà¤¸à¤ªà¤¨à¤¹":2645,"Ġà¤¨à¤ľà¤°à¤¬":2646,"Ġà¤¨à¤µà¤ķ":2647,"Ġà¤¬à¤°à¤ķ":2648,"à¤Łà¤Ĺ":2649,"Ġà¤ıà¤·":2650,"Ġà¤Ĺà¤ļ":2651,"Ġà¤Ĺà¤¹à¤°":2652,"Ġà¤Ľà¤²à¤ķ":2653,"Ġà¤Īà¤¯à¤°":2654,"Ġà¤ħà¤¨à¤Ĺ":2655,"à¤Ĩà¤®":2656,"Ġà¤Ĩà¤°à¤Ĩà¤°à¤Ł":2657,"à¥Ģà¤Ĥ;":2658,"à¤¦à¤¨à¤¶":2659,"Ġà¤łà¤ķ":2660,"âĢĶ":2661,"à¤ıà¤ļà¤¸":2662,"à¥«à¥ª":2663,"à¥«à¥¯":2664,"à¤¨à¤¸à¤°":2665,"à¤¨à¤¯à¤¨":2666,"à¤¨à¤¯à¤µà¤²":2667,"à¤²à¤¡":2668,"à¤²à¤«":2669,"Ġà¤®à¤Ĺà¤¨":2670,"à¤¦à¤ľ":2671,"Ġà¤¦à¤¯à¤µ":2672,"Ġà¤°à¤¯":2673,"à¤¥à¤¶":2674,"à¤ļà¤¡":2675,"Ġà¤ĸà¤¨à¤¨":2676,"à¤¹à¤²à¤ķ":2677,"Ġà¤īà¤ªà¤¸à¤®":2678,"Ġà¤¬à¤¹à¤°":2679,"à¤Łà¤°à¤µà¤°":2680,"à¤¬à¤°à¤«":2681,"à¤ħà¤ªà¤°":2682,"à¤¯à¤¸à¤Ń":2683,"Ġà¤ĭà¤Ĺ":2684,"à¤ĳà¤ªà¤°":2685,"Ġà¤ķà¤²à¤ķ":2686,"à¤¤à¤ľà¤¨":2687,"à¤¤à¤¶à¤¤":2688,"à¤¯à¤²à¤ķ":2689,"Ġà¤¸à¤¯":2690,"Ġà¤ħà¤°à¤£":2691,"Ġà¤¨à¤ĸ":2692,"à¤Ĺà¤°à¤ķ":2693,"à¤ģ)":2694,"à¤Ľà¤¡":2695,"à¤ļà¤®à¤¨":2696,"à¤ĸà¤ķà¤°":2697,"à¤ĩà¤ªà¤°à¤ķ":2698,"Ġà¤Īà¤¬":2699,"Ġà¤ĸà¤Ł":2700,"à¤¾à¤ģà¥¤":2701,"à¤µà¤°à¤ª":2702,"à¤ħà¤¬":2703,"Ġà¤ľà¤¨à¤¬":2704,"Ġà¤ªà¤¢à¤²":2705,"Ġà¤ªà¤¢à¤¬":2706,"Ġà¤ķà¤Īà¤²à¤ķ":2707,"Ġà¤°à¤ķà¤®":2708,"Ġà¤Ńà¤°à¤¤à¤ķ":2709,"Ġà¤·à¤¡":2710,"à¤°à¤Ĺà¤°":2711,"à¤°à¤ĸà¤°":2712,"à¤¨à¤ľà¤¨à¤ķ":2713,"Ġà¤¨à¤¸":2714,"Ġà¤¨à¤®à¤¨":2715,"Ġà¤¹à¤ı":2716,"Ġà¤¹à¤¯à¤¤":2717,"à¤Ĺà¤¢":2718,"Ġà¤µà¤¸à¤¨":2719,"Ġà¤¦à¤ĩà¤²":2720,"à¤¶à¤ķà¤¨":2721,"à¤¡à¤ľ":2722,"Ġà¤Ĺà¤°à¤®":2723,"Ġà¤Ĺà¤°à¤ľ":2724,"Ġà¤ªà¤°à¤ŀ":2725,"à¤Ńà¤²":2726,"à¤ĩà¤¸à¤²":2727,"Ġà¤ĸà¤¨":2728,"à¤ľà¤¨à¤®":2729,"à¥Ģ)(":2730,"Ġà¤ıà¤¡à¤µà¤°":2731,"Ġà¤ªà¤µà¤¨à¤ª":2732,"Ġà¤¦à¤°à¤¬à¤ľ":2733,"Ġà¤ıà¤ıà¤Ĩà¤°":2734,"Ġà¤ĵà¤µà¤°à¤Łà¤¨":2735,"Ġà¤¹à¤°à¤¦à¤®":2736,")(":2737,"à¤¯à¤°à¤¤":2738,"à¤®à¤ªà¤°":2739,"à¤¸à¤ķà¤°":2740,"à¤¸à¤µà¤ķ":2741,"à¤Ĺà¤°à¤®":2742,"à¤Ĺà¤£à¤ķ":2743,"à¥Ĥà¥¥":2744,"Ġà¤¯à¤ķ":2745,"Ġà¤ļà¤°à¤®":2746,"à¤¿à¥¤âĢĻ":2747,"à¤¼à¥ģ":2748,"Ġà¤§à¤ķ":2749,"Ġà¤Łà¤Ĺ":2750,"à¤¤à¤°à¤«":2751,"Ġà¤¥à¤ķ":2752,"à¤Łà¤°à¤Ł":2753,"Ġà¤¤à¤°à¤¹à¤¤à¤°à¤¹":2754,"à¤¯à¤°à¤«":2755,"à¤ıà¤¸à¤ľ":2756,"Ġà¤ıà¤ıà¤®à¤Ĩà¤°à¤ıà¤¸":2757,"à¤ıà¤«à¤ıà¤®à¤Īà¤¯":2758,"à¤¾à¥ħ":2759,"à¤ķà¤£":2760,"à¤¯à¤¡à¤¨":2761,"à¤¹à¤£":2762,"Ġà¤ªà¤²à¤ķ":2763,"Ġà¤ªà¤Łà¤ķ":2764,"à¤µà¤°à¤®":2765,"Ġà¤ħà¤ĺ":2766,"à¥Ī)":2767,"Ġà¤ıà¤¤à¤¨":2768,"à¤ľà¤ĸà¤¨":2769,"Ġà¤¶à¤¸":2770,"Ġà¤ĵà¤¸":2771,"à¤¼à¤Ĥ":2772,"Ġà¤¸à¤¬à¤¹":2773,"Ġà¤ĳà¤¡":2774,"Ġà¤¹à¤°à¤ĸ":2775,"Ġà¤Ĳà¤¨":2776,"Ġà¤Ńà¤°à¤ª":2777,"Ġà¤ħà¤Ĺà¤¹à¤¨":2778,"Ġà¤®à¤¤à¤¦":2779,"à¥¬à¥§":2780,"à¥Ńà¥¦":2781,"à¤ıà¤®à¤Ĩà¤Ī":2782,"Ġà¤°à¤£à¤§":2783,"))":2784,"à¤°à¤§à¤°":2785,"Ġà¤ķà¤Łà¤ķ":2786,"à¤¤à¤¦à¤¨":2787,"à¤²à¤¶":2788,"à¤¯à¤¸à¤¨":2789,"à¤®à¤ķà¤°à¤£":2790,"à¥ģà¥¥":2791,"Ġà¤¨à¤ķà¤¦":2792,"Ġà¤¬à¤°à¤¹":2793,"à¤Łà¤Ń":2794,"Ġà¤ıà¤®à¤ľ":2795,"à¤·à¤¯à¤®":2796,"Ġà¤°à¤¨":2797,"Ġà¤²à¤µ":2798,"à¤ľà¤¯à¤ķ":2799,"à¤ľà¤°à¤¨":2800,"à¤ļà¤¹":2801,"Ġà¤īà¤¸à¤®":2802,"à¤Īà¤ª":2803,"à¤łà¤°":2804,"Ġà¤¡à¤¨":2805,"à¤°à¤®à¤°":2806,"à¤°à¤²à¤¹":2807,"à¤ıà¤ļà¤¡":2808,"à¥¬à¥¯":2809,"Ġà¤ķà¤®à¤²à¤ķ":2810,"Ġà¤¨à¤Ĺà¤°à¤ª":2811,"Ġ(-)":2812,"Ġà¤ļà¤²à¤¯à¤µà¤²":2813,"à¤ķà¤¥à¤¨":2814,"à¤®à¤°à¤¸":2815,"à¤¸à¤§":2816,"à¤¸à¤Ļ":2817,"Ġà¤¨à¤Łà¤°":2818,"Ġà¤Ĩà¤²à¤¸":2819,"Ġà¤¬à¤¬":2820,"Ġà¤¦à¤®à¤¨":2821,"à¤·à¤¯à¤µà¤¸":2822,"Ġà¤Ľà¤ķ":2823,"Ġà¤ķà¤°à¤²à¤ĸ":2824,"Ġà¤¤à¤¡":2825,"Ġà¤¯à¤¯":2826,"à¤°à¤¤à¤µà¤°":2827,"Ġà¤ĩà¤¸à¤¨":2828,"à¤²à¤ķà¤¯":2829,"à¤µà¤¤à¤¨":2830,"Ġà¤¹à¤°à¤¬":2831,"Ġà¤Ŀà¤Ł":2832,"Ġà¤ĺà¤°à¤ĺà¤°":2833,"Ġà¤ħà¤¬à¤¸":2834,"à¤Łà¤ķà¤ķ":2835,"Ġà¤Ĩà¤Īà¤¸":2836,"à¥¬à¥ª":2837,"Ġà¥¨à¥¨":2838,"Ġà¥¨à¥©":2839,"à¥ĩ),":2840,"Ġ(\"\")":2841,"Ġà¤ĩà¤¨à¤ķà¤®":2842,"Ġ/)":2843,"Ĺı":2844,"à¥ĩ.":2845,"à¤¯à¤ľà¤¨":2846,"à¥ĢâĢĻ":2847,"Ġà¤ħà¤¹à¤²":2848,"Ġà¤ħà¤¯à¤¬":2849,"Ġà¤²à¤Ľ":2850,"à¤¶à¤¹":2851,"Ġà¤ķà¤°à¤£":2852,"à¤ĩà¤µà¤°":2853,"Ġà¤ĵà¤ª":2854,"Ġà¤ļà¤ª":2855,"à¤°à¤£à¤®":2856,"Ġà¤Ķà¤°à¤¤":2857,"à¤¨à¤°à¤°":2858,"à¤¨à¤µà¤ķ":2859,"Ġà¤ıà¤¨à¤Īà¤¸":2860,"à¤ıà¤ļà¤ª":2861,"Ġà¤Ĳà¤ķ":2862,"Ġà¤¨à¤µà¤¦":2863,"Ġà¤ľà¤²à¤ª":2864,"))à¥¤":2865,"à¤°à¤¨à¤ķ":2866,"à¤®à¤«à¤²":2867,"Ġà¤ħà¤ľà¤¨":2868,"Ġà¤ľà¤Ĺà¤¨":2869,"Ġà¤ľà¤¯à¤¬":2870,"à¥Īà¥Ī":2871,"Ġà¤ıà¤®à¤ķ":2872,"Ġà¤ıà¤®à¤¸":2873,"à¤£à¤¹":2874,"Ġà¤°à¤ļà¤²":2875,"à¤ļà¤Ĺ":2876,"Ġà¤Ńà¤µà¤¤":2877,"à¤¼à¥Į":2878,"à¤°à¤ķà¤¤":2879,"à¤ĺà¤®":2880,"à¤Ĺà¤¤à¤¤":2881,"Ġà¤ķà¤¹à¤²à¤ķà¤¨":2882,"Ġà¤ķà¤¯à¤²à¤ĸ":2883,"Ġà¤¹à¤°à¤¯à¤µà¤²":2884,"à¤ªà¤ķà¤¤":2885,"à¤¹à¤¨à¤¤":2886,"Ġà¤ķà¤¥à¤®à¤ª":2887,"Ġà¤ĭà¤£à¤ķ":2888,"à¥¬à¥«":2889,"Ġà¤¤à¤¨à¤¯":2890,"Ġà¤¦à¤¶à¤°à¤¥à¤ķ":2891,"Ġà¤Ľà¤łà¤®":2892,"ĠâĹı":2893,"à¤°à¤¬à¤°":2894,"à¤¨à¤ªà¤°":2895,"à¤ķà¤¤à¤°":2896,"à¤²à¤¹à¤°":2897,"Ġà¤ħà¤®à¤²":2898,"Ġà¤Ĩà¤ı":2899,"à¤Ĺà¤«à¤²":2900,"Ġà¤µà¤°à¤£":2901,"à¤¬à¤½":2902,"à¤§à¤ķà¤°":2903,"Ġà¤ıà¤²à¤¹":2904,"à¤£à¤¦":2905,"Ġà¤²à¤Ł":2906,"Ġà¤īà¤¬":2907,"Ġà¤ĵà¤¤à¤¨":2908,"Ġà¤ļà¤®à¤¤":2909,"Ġà¤ħà¤¨à¤¬":2910,"Ġà¤ĩà¤¤à¤°":2911,"Ġà¤ĩà¤¨à¤²":2912,"à¤Ĩà¤¶":2913,"Ġà¤«à¤Ł":2914,"à¤¤à¤°à¤®":2915,"à¤£à¤¯à¤¨":2916,"à¤µà¤²à¤®":2917,"Ġà¤ĺà¤°à¤¹":2918,"à¤ľà¤¨à¤¶":2919,"à¤īà¤¨à¤ķ":2920,"Ġà¤ľà¤¨à¤ľ":2921,"à¤ıà¤¸à¤¡":2922,"Ġà¤Ĭà¤ķà¤°":2923,"à¥Ģ),":2924,"à¤ļà¤²à¤¥":2925,"Ġà¤ıà¤®à¤µ":2926,"à¥¬à¥©":2927,"Ġà¤īà¤®à¤¡":2928,"à¤¸à¤¹à¤¯":2929,"Ġà¤¤à¤°à¤ķà¤¸":2930,"Ġà¤ıà¤®à¤ıà¤«à¤ıà¤²à¤ª":2931,"\"),":2932,"à¤¨à¤¸à¤®":2933,"à¤¤à¤ĸà¤¨":2934,"Ġà¤ħà¤¦à¤°":2935,"Ġà¤ľà¤Ĺà¤²":2936,"Ġà¤µà¤Ł":2937,"Ġà¤µà¤¨à¤¸":2938,"à¤§à¤¬":2939,"à¤·à¤Ń":2940,"Ġà¤²à¤¯à¤²":2941,"à¤ľà¤ķà¤°":2942,"à¤ĩà¤¹":2943,"Ġà¤īà¤ķà¤¸":2944,"à¤ķà¤°à¤ķ":2945,"Ġà¤¸à¤®à¤§":2946,"Ġà¤§à¤¨à¤ķ":2947,"à¤Ĩà¤ªà¤ķ":2948,"Ġà¤¸à¤ķà¤²à¤¹":2949,"à¤¯à¤®à¤¯":2950,"à¤ªà¤°à¤ıà¤¨":2951,"Ġà¤ķà¤¯à¤²à¤¸":2952,"Ġà¤ħà¤¹à¤®":2953,"Ġà¤Ĩà¤¯à¤°à¤¨":2954,"à¤°à¤¹à¤µ":2955,"à¤Łà¤°à¤«":2956,"Ġà¤ľà¤¹à¤°":2957,"Ġà¤¬à¤¢à¤¬":2958,"à¥Ĥà¤ģà¥¤":2959,"Ġà¤Ĩà¤¨à¤¯":2960,"à¤¡à¤²à¤Łà¤¨":2961,"à¥¬à¥¨":2962,"à¥Ńà¥§":2963,"à¥Ńà¥®":2964,"à¤ĩà¤¬à¤¹":2965,"à¤¸à¤¬à¤¸":2966,"Ġà¤ķà¤Łà¤²":2967,"Ġà¤¸à¤¤à¤°":2968,"à¤¹à¤¬à¤°":2969,"à¤®à¤®à¤°à¤£":2970,"à¥ĭà¤ĥ":2971,"Ġà¤ħà¤ĵà¤¤":2972,"à¤ªà¤²à¤¬":2973,"Ġà¤Ĩà¤¸à¤®":2974,"Ġà¤¬à¤Łà¤°à¤µà¤°":2975,"à¥Ĥ\"":2976,"à¥Ĥà¤ĥ":2977,"Ġà¤ıà¤£":2978,"Ġà¤ıà¤ıà¤«":2979,"à¤£à¤¤à¤¯":2980,"Ġà¤²à¤ª":2981,"Ġà¤Ľà¤Ł":2982,"à¤ļà¤Ń":2983,"à¤ĩà¤Ĺ":2984,"à¤ķà¤°à¤ª":2985,"à¤¼à¥ī":2986,"Ġà¤ħà¤¨à¤¦à¤°":2987,"à¤¹à¤²à¤¨":2988,"à¤ıà¤²à¤ľ":2989,"à¤ıà¤²à¤¡":2990,"à¤łà¤²":2991,"Ġà¤Ķà¤¤":2992,"Ġà¤¥à¤²":2993,"à¤°à¤¹à¤ķà¤°":2994,"Ġà¤ªà¤¤à¤¨":2995,"à¤Ĩà¤Īà¤Ł":2996,"à¤¯à¤¬à¤²":2997,"Ġà¤«à¤²à¤¦":2998,"à¤°à¤Ĺà¤Ł":2999,"Ġà¤ķà¤Ľ":3000,"à¤¤à¤¸à¤Ń":3001,"Ġà¤¸à¤°à¤¯":3002,"Ġà¤¬à¤ķà¤²":3003,"à¤Łà¤Ľ":3004,"Ġà¤ıà¤¡à¤¨":3005,"Ġà¤²à¤Łà¤ķ":3006,"Ġà¤ĵà¤¢":3007,"à¤¼à¤¿à¤Ĥ":3008,"à¤¯à¤ķà¤¨":3009,"Ġà¤¸à¤ķà¤¨":3010,"à¤ĩà¤¤à¤¯":3011,"à¤ŀà¤ª":3012,"Ġà¤ıà¤ļà¤ķ":3013,"Ġà¤ıà¤¸à¤¡":3014,"Ġà¤ıà¤¨à¤¸":3015,"Ġà¤ıà¤¨à¤ı":3016,"à¤Łà¤²à¤®":3017,"à¤¡à¤²à¤°":3018,"à¥Ńà¥ª":3019,"à¥®à¥§":3020,"Ġà¥¨à¥¬":3021,"à¤°à¤Ŀ":3022,"Ġà¤ªà¤¤à¤µ":3023,"Ġà¤®à¤ķà¤¸":3024,"Ġà¤¬à¤®":3025,"Ġà¤µà¤ļ":3026,"à¤¬à¤ļ":3027,"à¤Ľà¤²à¤¥":3028,"Ġà¤Ĺà¤¦à¤¹":3029,"Ġà¤Ńà¤°à¤¨":3030,"Ġà¤ĵà¤ł":3031,"Ġà¤ıà¤ķà¤¸":3032,"Ġà¤¹à¤®à¤¸à¤¬":3033,"à¤ĺà¤µ":3034,"à¥§à¥§à¥¨":3035,"Ġà¤Ĩà¤¬à¤ķ":3036,"à¤ıà¤¸à¤Ł":3037,"Ġà¤¸à¤°à¤²à¤¤":3038,"Ġà¤Ŀà¤°à¤¨":3039,"à¤®à¤°à¤¨":3040,"à¤Łà¤²à¤°":3041,"Ġà¤¬à¤°à¤ļ":3042,"à¤ĩà¤Łà¤ķ":3043,"à¥¬à¥¬":3044,"Ġà¥¨à¥«":3045,"Ġà¤®à¤ķà¤¸à¤¦":3046,"à¤¿]":3047,"à¤¨à¤°à¤Ń":3048,"à¤ķà¤ªà¤°":3049,"à¤²à¤ļà¤¸":3050,"à¤¯à¤²à¤¨":3051,"à¥ĭ\"":3052,"à¤¸à¤°à¤¸":3053,"Ġà¤ľà¤°à¤²":3054,"à¤ªà¤Ń":3055,"à¤ªà¤¹à¤²":3056,"à¤¦à¤§":3057,"à¤¦à¤ľà¤¨à¤ķ":3058,"Ġà¤Ĩà¤¯à¤ķ":3059,"Ġà¤Ĩà¤ĩà¤Ł":3060,"à¤·à¤¹à¤°":3061,"Ġà¤°à¤ľà¤¨":3062,"à¤ģ\"":3063,"à¤Ľà¤²à¤¹":3064,"à¤¡à¤°à¤¬":3065,"à¤ĸà¤¡":3066,"Ġà¤Īà¤¡à¤¬":3067,"Ġà¤¡à¤®à¤°":3068,"Ġà¤ĺà¤Łà¤²":3069,"à¤īà¤ľ":3070,"à¥Ģ))":3071,"à¥Ģ):":3072,"à¤µà¤ľà¤ķ":3073,"à¥Ńà¥¨":3074,"à¥Ńà¥©":3075,"Ġà¤¬à¤¦à¤²à¤¤":3076,"à¤¯à¤°à¤ķ":3077,"à¤Ĥ.":3078,"à¤¹à¤¸à¤Ń":3079,"Ġà¤Ĩà¤ĩà¤¨":3080,"Ġà¤Ĩà¤¡à¤®":3081,"Ġà¤µà¤«":3082,"à¤ľà¤Ĺà¤°":3083,"à¥ĩà¤Ĥ),":3084,"Ġà¤ªà¤°à¤«":3085,"à¤ıà¤¦":3086,"à¤ıà¤¨à¤¸":3087,"à¤ĩà¤ı":3088,"Ġà¤īà¤Ń":3089,"Ġà¤ļà¤ķà¤µ":3090,"à¤Īà¤Ĩà¤°":3091,"à¥Į,":3092,"à¤ıà¤²à¤ķ":3093,"Ġà¤Ĩà¤µà¤§":3094,"à¤²à¤ķà¤ķ":3095,"Ġà¤¸à¤¹à¤ľà¤¤":3096,"à¤·à¤£à¤®":3097,"à¤Łà¤°à¤¡":3098,"Ġà¤ħà¤µà¤¯à¤µ":3099,"à¤ıà¤¸à¤ı":3100,"à¤¤à¤¨à¤¶":3101,"Ġà¤Ńà¤Ĺà¤µà¤¨":3102,"Ġà¤ıà¤¸à¤Ĩà¤°":3103,"Ġà¤ħà¤Ĺà¤®":3104,"Ġà¤ıà¤²à¤Ĩà¤°":3105,"à¥Ńà¥¯":3106,"à¥®à¥¦":3107,"à¤Ķà¤°":3108,"à¤°à¤µà¤²":3109,"à¤²à¤«à¤²":3110,"à¤®à¤ķà¤°":3111,"Ġà¤ªà¤ĸ":3112,"Ġà¤ħà¤£":3113,"Ġà¤Ĩà¤°à¤£":3114,"à¤Ĺà¤£à¤¨":3115,"Ġà¤¦à¤°à¤µ":3116,"Ġà¤¦à¤¹à¤¨":3117,"à¤·à¤ķà¤¨":3118,"Ġà¤Ńà¤°à¤¬":3119,"à¤ıà¤¡à¤®":3120,"à¤ĩà¤ĸ":3121,"à¤ĩà¤ķà¤²":3122,"à¤ĩà¤®à¤¨":3123,"Ġà¤īà¤µ":3124,"Ġà¤¶à¤¯":3125,"à¤Īà¤Ľ":3126,"Ġà¤Ĩà¤µà¤°à¤£":3127,"Ġà¤Ĩà¤°à¤ľ":3128,"Ġà¤¸à¤Ńà¤¹à¤ķ":3129,"Ġà¤®à¤¨à¤Ĺà¤¢":3130,"Ġà¤ħà¤µà¤¤à¤°":3131,"Ġà¤ħà¤Ńà¤¯":3132,"Ġà¤ıà¤¨à¤¬":3133,"Ġà¤¸à¤¤à¤¹":3134,"ĠâĢĶ":3135,"à¤ªà¤Łà¤¬":3136,"à¥Ńà¥«":3137,"à¥Ńà¥¬":3138,"à¥Ńà¥Ń":3139,"à¥®à¥¨":3140,"Ġà¤ľà¤¨à¤ķà¤¸":3141,"Ġà¤¦à¤¶à¤Ń":3142,"Ġà¤¶à¤ªà¤¥à¤ªà¤¤":3143,"Ġà¤Ĩà¤łà¤®":3144,"---":3145,"Ġà¤ĵà¤µà¤°à¤¸":3146,"Ġ?":3147,"à¤µà¤Ĺà¤£":3148,"à¤¸à¤²à¤¯":3149,"à¤¦à¤°à¤¸":3150,"à¥Ī?":3151,"Ġà¤¦à¤¦":3152,"à¤¥à¤ªà¤°":3153,"à¤ľà¤¬à¤ķ":3154,"à¤¡à¤«":3155,"à¤¼à¥Ģà¥¤":3156,"Ġà¤§à¤¡":3157,"Ġà¤¹à¤®à¤ħà¤¹":3158,"Ġà¤ĩà¤¥":3159,"Ġà¤ħà¤ªà¤ķ":3160,"à¤¸à¤°à¤²":3161,"à¤µà¤¤à¤ķ":3162,"Ġà¤ħà¤µà¤¹à¤Ł":3163,"à¤®à¤¨à¤µà¤®":3164,"Ġà¤¯à¤¹à¤¨":3165,"à¤Ĺà¤²à¤®à¤¯":3166,"Ġà¤Ĩà¤Ĺà¤®":3167,"à¤ıà¤¸à¤ª":3168,"à¤¨à¤°à¤Łà¤¨":3169,"Ġà¤Ĩà¤¶à¤¯":3170,"Ġà¤¨à¤µà¤Ĺ":3171,"Ġà¤ıà¤®à¤¡à¤¬":3172,"Ġà¤¬à¤¸à¤¹":3173,"à¤°à¤µà¤¤":3174,"à¤²à¤ªà¤¤":3175,"à¤¯à¤ļà¤ķ":3176,"Ġà¤¸à¤¶à¤°":3177,"à¤®à¤µà¤¶":3178,"Ġà¤ªà¤¯":3179,"à¥ĭ'":3180,"à¥ĭ:":3181,"Ġà¤®à¤Ł":3182,"Ġà¤®à¤°à¤¤":3183,"Ġà¤®à¤Ĺà¤¹":3184,"Ġà¤¨à¤°à¤¨":3185,"Ġà¤Ĩà¤ĩà¤µ":3186,"à¥Ī'":3187,"à¥Ī\":":3188,"à¤Ĺà¤µà¤¶":3189,"à¤£à¤§":3190,"à¤£à¤®à¤¯":3191,"Ġà¤²à¤ªà¤Ł":3192,"Ġà¤ķà¤°à¤ı":3193,"à¤¡à¤¸à¤°":3194,"Ġà¤ĵà¤ķà¤¬":3195,"Ġà¤Īà¤¨":3196,"Ġà¤ıà¤ķà¤¤à¤°à¤«":3197,"Ġà¤ĸà¤¬":3198,"Ġà¤īà¤ªà¤ª":3199,"Ġà¤ĺà¤£":3200,"Ġà¤¸à¤¹à¤°à¤¸":3201,"à¤īà¤®":3202,"à¤°à¤¹à¤¸":3203,"Ġà¤Ĩà¤¬à¤¯à¤µà¤²":3204,"Ġà¤§à¤°à¤¬":3205,"à¤¯à¤¸à¤®":3206,"à¤°à¤²à¤¯à¤ķ":3207,"à¥Ĥà¤ģ,":3208,"Ġà¤Ĳà¤Ľ":3209,"Ġà¤ªà¤łà¤¬":3210,"à¤¾à¤ĥà¥¥":3211,"Ġà¤ħà¤ĸà¤£":3212,"à¤°à¤Ĺà¤£":3213,"à¥ĩ')":3214,"à¤¯à¤¹à¤®":3215,"à¤¹à¤¥":3216,"à¤®à¤Ł":3217,"à¥ĭ)":3218,"Ġà¤ħà¤µà¤¨":3219,"à¥ģà¥ģ":3220,"Ġà¤¬à¤¹à¤²":3221,"à¤Ĺà¤®à¤¤":3222,"à¤£à¤¶":3223,"à¤£à¤¸à¤®":3224,"Ġà¤°à¤Ł":3225,"à¤Ľà¤ª":3226,"à¤Ńà¤¤":3227,"à¤ĩà¤¨à¤²":3228,"Ġà¤Īà¤Łà¤¨":3229,"à¤¼à¥Ģ,":3230,"Ġà¤ĸà¤£":3231,"Ġà¤«à¤°à¤ķ":3232,"Ġà¤°à¤¹à¤ı":3233,"à¤Ĩà¤°à¤Ĩà¤Ī":3234,"à¤°à¤®à¤¹":3235,"à¤µà¤°à¤¨":3236,"Ġà¤ķà¤¹à¤¬à¤¨":3237,"à¤¯à¤¤à¤ķ":3238,"Ġà¤ıà¤«à¤ıà¤«":3239,"Ġà¤²à¤Ĺà¤²à¤¹":3240,"Ġà¤ĳà¤«à¤¸":3241,"à¤¨à¤¦à¤¯":3242,"à¤ıà¤«à¤ıà¤Ł":3243,"à¥®à¥©":3244,"à¤¾\"à¥¤":3245,"à¥§à¥¦à¥ª":3246,"Ġà¤ıà¤¡à¤µ":3247,"Ġà¤ķà¤ĩà¤ıà¤ķ":3248,"Ġà¤ķà¤²à¤ķà¤¤":3249,"à¤°à¤¹à¤²":3250,"à¤°à¤ŀ":3251,"à¥ĩà¥ħ":3252,"à¤¤à¤µà¤¤":3253,"à¤¹à¤µà¤°":3254,"à¤¹à¤ķà¤¨":3255,"à¤®à¤ĺ":3256,"à¤®à¤®à¤¯":3257,"à¤µà¤¸à¤°":3258,"à¤µà¤¸à¤ķ":3259,"Ġà¤®à¤Ľà¤°":3260,"Ġà¤ľà¤ĩ":3261,"Ġà¤¬à¤¸à¤¨":3262,"à¤Ĺà¤²à¤¤":3263,"Ġà¤ıà¤¥":3264,"Ġà¤°à¤¬":3265,"Ġà¤²à¤²à¤¨":3266,"à¤¥à¤ķà¤¤":3267,"à¤¡à¤°à¤ľ":3268,"Ġà¤ªà¤°à¤¬":3269,"Ġà¤īà¤Ńà¤°":3270,"Ġà¤īà¤Ńà¤°à¤¤":3271,"Ġà¤ĵà¤Ŀ":3272,"Ġà¤ĵà¤¨à¤°":3273,"Ġà¤ĩà¤¨à¤°":3274,"à¤ıà¤²à¤ı":3275,"Ġà¤¸à¤ķà¤ĩà¤¤":3276,"Ġà¤«à¤¸à¤²":3277,"Ġà¤Ĩà¤°à¤¡":3278,"à¤ĺà¤Ł":3279,"Ġà¤ķà¤¹à¤ĩà¤¤":3280,"Ġà¤ĳà¤¨à¤²":3281,"à¤²à¤ķà¤®":3282,"à¤®à¤ķà¤¤":3283,"à¤°à¤µà¤ķ":3284,"à¤ıà¤¸à¤ıà¤¸à¤Ĩà¤°":3285,"Ġà¤ĩà¤¨à¤¸":3286,"Ġà¤ħà¤¬à¤²":3287,"à¤Ĺà¤¨à¤®":3288,"à¤ªà¤£à¤ķ":3289,"Ġà¤Ĩà¤ĩà¤ı":3290,"Ġà¤Ĩà¤Īà¤ıà¤ļà¤¡":3291,"à¤µà¤°à¤£à¤ķ":3292,"à¥§à¥¦à¥¦":3293,"à¥Ģ\")":3294,"à¤¿',":3295,"Ġà¤°à¤£à¤Ń":3296,"Ġà¤īà¤¤à¤°à¤²":3297,"Ġ$,,":3298,"Ġà¤¬à¤°à¤¤à¤¨":3299,"Ġà¤īà¤Ńà¤°à¤²":3300,"à¤¨à¤¡":3301,"à¤®à¤¸à¤¨":3302,"à¤µà¤°à¤¤":3303,"Ġà¤®à¤¡":3304,"à¤¦à¤¯à¤®":3305,"Ġà¤¬à¤ľà¤¨":3306,"Ġà¤¬à¤¦à¤®":3307,"à¤Ĺà¤Ł":3308,"Ġà¤µà¤¯à¤¸":3309,"Ġà¤¦à¤¯à¤ķà¤¯":3310,"Ġà¤°à¤£à¤¨":3311,"à¤ļà¤¤à¤®":3312,"à¤ĸà¤¨à¤ķ":3313,"à¤ıà¤Ĩà¤°":3314,"à¤Ńà¤Ł":3315,"à¤ĩà¤ļ":3316,"Ġà¤ĵà¤Ī":3317,"Ġà¤¸à¤®à¤µà¤°":3318,"à¤ªà¤¨à¤®":3319,"à¤ªà¤¨à¤ĸ":3320,"Ġà¤ĸà¤¦":3321,"Ġà¤¬à¤¨à¤µ":3322,"Ġà¤¸à¤ķà¤¥":3323,"à¤½à¤Ń":3324,"Ġà¤īà¤ªà¤¸à¤°":3325,"à¤ĵà¤µ":3326,"Ġà¤ħà¤°à¤µ":3327,"Ġà¤¸à¤®à¤¯à¤¸à¤®à¤¯":3328,"à¥§à¥§à¥©":3329,"à¥§à¥§à¥ª":3330,"Ġà¤ľà¤¹à¤®":3331,"Ġà¤¹à¤°à¤²":3332,"Ġ,,":3333,"Ġà¤ıà¤ķà¤Łà¤ķ":3334,"Ġà¤§à¤°à¤²":3335,"Ġà¤ıà¤¸à¤ª":3336,"Ġà¤¬à¤²à¤¬":3337,"Ġà¤Ĳà¤²":3338,"à¤ıà¤¨à¤ľ":3339,"à¥®à¥«":3340,"à¥¯à¥¦":3341,"Ġà¤¸à¤ľà¤Ĺ":3342,"à¥§à¥¦à¥©":3343,"à¥§à¥¨à¥¨":3344,"');":3345,"à¤°à¤¨à¤²":3346,"à¤°à¤§à¤¨":3347,"à¤¨à¤ļà¤°":3348,"à¤¤à¤Ń":3349,"à¤²à¤¯à¤®":3350,"à¤¹à¤µà¤¶":3351,"Ġà¤®à¤Ĺà¤°":3352,"Ġà¤®à¤Ļ":3353,"à¤ªà¤¢":3354,"à¤Ĺà¤§":3355,"à¤¬à¤Ł":3356,"à¥Ĥà¥¥à¥¥":3357,"à¤·à¤ªà¤°":3358,"Ġà¤°à¤Ĺ":3359,"à¥ĩà¤Ĥ]":3360,"Ġà¤Ĺà¤Ļ":3361,"Ġà¤ªà¤°à¤ķ":3362,"à¤ĩà¤ªà¤°":3363,"Ġà¤īà¤ĺ":3364,"à¤ķà¤°à¤®":3365,"Ġà¤¯à¤¨":3366,"Ġà¤Īà¤ķ":3367,"à¤¼à¥Ģà¤Ĥ":3368,"à¤¿à¤Ĥ:":3369,"Ġà¤«à¤²à¤ķ":3370,"Ġà¤ħà¤ªà¤¹à¤°à¤£":3371,"à¤¯à¤¤à¤ķà¤°":3372,"Ġà¤®à¤¹à¤¨":3373,"Ġà¤¸à¤¹à¤°":3374,"Ġà¤¸à¤¹à¤ķ":3375,"Ġà¤¬à¤¹à¤¨":3376,"à¤²à¤¤à¤ķ":3377,"à¤īà¤ł":3378,"à¥§à¥§à¥«":3379,"à¤¬à¤°à¤°":3380,"Ġà¤ıà¤ļà¤ıà¤«à¤ıà¤Ł":3381,"à¤µà¤§à¤¨":3382,"à¤²à¤¬à¤²":3383,"Ġà¤ľà¤°à¤¬":3384,"Ġà¤ļà¤°à¤¨":3385,"Ġà¤¸à¤¨à¤¸":3386,"à¤°à¤¥à¤°":3387,"Ġà¤Ĳà¤ª":3388,"à¤¯à¤¬à¤¹":3389,"Ġà¤Ĩà¤ªà¤¦":3390,"Ġà¤ħà¤¥à¤°":3391,"Ġà¤ķà¤¬à¤¹":3392,"Ġà¤ıà¤¸à¤ıà¤ıà¤¸à¤¸":3393,"à¤¹à¤Ĺ":3394,"à¤®à¤ĺà¤°":3395,"Ġà¤ªà¤ª":3396,"Ġà¤ªà¤¬à¤¨":3397,"Ġà¤®à¤¤à¤µ":3398,"à¤·à¤Ł":3399,"à¤ľà¤µà¤¨":3400,"à¤ıà¤¶":3401,"Ġà¤¶à¤®à¤¨":3402,"Ġà¤ĵà¤ĩ":3403,"Ġà¤ħà¤¨à¤ķ":3404,"à¤°à¤ķà¤ķ":3405,"à¤ıà¤²à¤¯":3406,"à¤²à¤¨à¤ª":3407,"Ġà¤Łà¤¹à¤²":3408,"à¤Ŀà¤¤":3409,"à¤Ŀà¤²à¤¨":3410,"à¤Ŀà¤²à¤¹":3411,"à¤ħà¤ļ":3412,"Ġà¤ħà¤µà¤¹":3413,"à¤Ĺà¤²à¤¸":3414,"Ġà¤ľà¤¨à¤Ĺà¤£à¤¨":3415,"à¤Ĩà¤Īà¤ĵ":3416,"à¤¼à¥Ģ-":3417,"Ġà¤Ĩà¤Īà¤ıà¤²à¤¯":3418,"Ġà¤²à¤Ĺà¤²à¤ĸ":3419,"à¥®à¥¯":3420,"à¥¯à¥ª":3421,"à¤ıà¤®à¤ª":3422,"à¤¾\",":3423,"à¤ľà¤®à¤¹à¤²":3424,"à¥§à¥¦à¥§":3425,"Ġà¤ĵà¤¤à¤ª":3426,"à¥§à¥§à¥§":3427,"Ġà¤½":3428,"à¤°à¤Ľ":3429,"à¤°à¤µà¤¨":3430,"à¥ĩâĢĻ":3431,"à¤¨à¤¹à¤¨":3432,"à¤¯à¤°à¤¸":3433,"à¥Ģ')":3434,"Ġà¤ħà¤Łà¤ķ":3435,"Ġà¤ľà¤°à¤¯":3436,"à¤ªà¤ŀ":3437,"à¤¦à¤£":3438,"à¥¤âĢĻ":3439,"Ġà¤µà¤¦":3440,"Ġà¤µà¤¨à¤ķ":3441,"à¤¬à¤ı":3442,"à¤¬à¤¯à¤µ":3443,"Ġà¤ıà¤Łà¤²":3444,"à¤ľà¤ķà¤¨":3445,"à¤¶à¤²à¤ķ":3446,"à¤ļà¤¤à¤°":3447,"à¥ĩà¤Ĥà¤ģ":3448,"Ġà¤ķà¤°à¤¯à¤ķ":3449,"à¤ıà¤Ĩà¤Ī":3450,"à¤Ńà¤¬":3451,"Ġà¤Īà¤Ĺà¤²":3452,"à¤¼à¤¾à¥¤":3453,"Ġà¤§à¤¨à¤µ":3454,"Ġà¤ĸà¤°à¤¦":3455,"Ġà¤ħà¤¨à¤²à¤¹":3456,"Ġ(âĢ":3457,"à¤Ĩà¤¸":3458,"à¤Ĩà¤µà¤¶":3459,"à¤łà¤¸":3460,"à¤²à¤¨à¤¯à¤¨":3461,"Ġà¤īà¤ªà¤µà¤¨":3462,"à¤²à¤ķà¤²":3463,"Ġà¤²à¤Ĺà¤µà¤²":3464,"à¤®à¤ķà¤²":3465,"à¤ĵà¤ķ":3466,"à¤ĵà¤®":3467,"à¥§à¥§à¥®":3468,"Ġà¤¹à¤°à¤¨":3469,"Ġà¤ľà¤¨à¤ľà¤¨":3470,"à¤Ĩà¤Īà¤¡":3471,"Ġà¤ļà¤²à¤²à¤¹":3472,"Ġà¤Ĭà¤ķ":3473,"Ġà¤®à¤°à¤¨":3474,"Ġà¤Ĳà¤¹":3475,"à¥®à¥Ń":3476,"à¤¾\":":3477,"Ġà¤ľà¤¤à¤½":3478,"Ġà¤ļà¤¢à¤²":3479,"Ġà¥©à¥¦":3480,"Ġà¤ħà¤«à¤¸":3481,"Ġà¤Ĩà¤łà¤µ":3482,"Ġà¤¨à¤ľà¤°à¤ħ":3483,"Ġà¤ľà¤ĩà¤¤à¤¨":3484,"à¥Ĳ":3485,"à¤¿à¤¼":3486,"Ġà¤ķà¤¸à¤¨":3487,"Ġà¤¸à¤ªà¤°":3488,"Ġà¤ªà¤Łà¤²":3489,"à¤µà¤¤à¤°":3490,"à¤µà¤¦à¤¨":3491,"Ġà¤Ĩà¤ĺ":3492,"à¤Łà¤ķà¤°":3493,"à¤Łà¤°à¤ķ":3494,"à¤Ĺà¤¡à¤®":3495,"Ġà¤²à¤ĸà¤¨":3496,"à¤¶à¤²à¤¤":3497,"à¤ļà¤²à¤¤":3498,"à¤ļà¤µà¤Ł":3499,"Ġà¤ķà¤°à¤®à¤ķ":3500,"à¤ĸà¤¶":3501,"Ġà¤ıà¤ķà¤®à¤¤":3502,"à¤«à¤°à¤²":3503,"à¤¾à¤ģ:":3504,"Ġà¤ĩà¤¬":3505,"Ġà¤Ĩà¤µà¤°":3506,"Ġà¤«à¤°à¤®":3507,"à¤°à¤¸à¤¤":3508,"à¤Ĩà¤°à¤Ĩà¤°à¤Ł":3509,"à¤Ŀà¤²à¤ķ":3510,"à¤½à¤¤":3511,"à¤µà¤²à¤¥":3512,"à¥Īà¤Ĥ;":3513,"Ġà¤¬à¤¹à¤¬":3514,"Ġà¤®à¤¨à¤°":3515,"à¥§à¥§à¥¦":3516,"à¥§à¥§à¥Ń":3517,"à¥§à¥§à¥¬":3518,"Ġ'\"":3519,"Ġ'à¥¤":3520,"à¤Ĺà¤²à¤®":3521,"Ġà¤Ŀà¤ªà¤Ł":3522,"à¤¤à¤ķà¤ķ":3523,"à¤¤à¤ķà¤¥":3524,"à¤¨à¤¤à¤¦":3525,"Ġà¤¤à¤¤à¤¬":3526,"à¤°à¤ªà¤¦":3527,"à¥®à¥ª":3528,"à¥¯à¥¬":3529,"Ġà¥¨à¥®":3530,"à¤ĳà¤°":3531,"à¥§à¥¦à¥«":3532,"à¥§à¥¦à¥Ń":3533,"à¥§à¥¨à¥¬":3534,"Ġà¤ĸà¤¤à¤°à¤¨":3535,"Ġà¤ıà¤¯à¤°à¤²":3536,"à¤¾âĢĿ":3537,"à¤¤à¤²à¤¤":3538,"à¤ķà¤ł":3539,"à¤¹à¤«":3540,"à¤®à¤Ī":3541,"à¤µà¤ªà¤¤":3542,"à¤¸à¤Ĺ":3543,"à¤¸à¤¡":3544,"Ġà¤®à¤ķà¤¹":3545,"Ġà¤¬à¤ķà¤µ":3546,"Ġà¤¹à¤«":3547,"Ġà¤¦à¤Ĺ":3548,"à¤¬à¤¸à¤¨":3549,"Ġà¤ıà¤µà¤ľ":3550,"à¤¥à¤¡":3551,"à¤ľà¤¥":3552,"à¥ĩà¤ĤâĢĿ":3553,"à¤¡à¤²à¤ķ":3554,"Ġà¤Ĺà¤ıà¤²":3555,"Ġà¤ªà¤°à¤Ľ":3556,"à¤ĩà¤¬à¤°":3557,"à¥ĭà¤Ĥ'":3558,"à¤°à¤£à¤¤à¤¯":3559,"à¤°à¤¤à¤§":3560,"à¤Īà¤ľ":3561,"à¤«à¤°à¤ľ":3562,"à¤«à¤°à¤¸à¤¨":3563,"à¤Ĩà¤°à¤ķ":3564,"à¤Ĩà¤ļà¤°à¤£":3565,"à¤¨à¤ķà¤¨":3566,"à¤ĺà¤ª":3567,"Ġà¤ķà¤¹à¤¹":3568,"Ġà¤ĵà¤¹à¤®":3569,"Ġà¤īà¤¦à¤¯à¤¨":3570,"à¥§à¥§à¥¯":3571,"à¤¹à¤°à¤ĵà¤®":3572,"à¤Ĺà¤²à¤ĸ":3573,"à¥ĩà¥¤à¥¤":3574,"Ġà¤§à¤°à¤¨":3575,"Ġà¤īà¤łà¤¯":3576,"à¤¸à¤®à¤¸":3577,"à¤®à¤£à¤µ":3578,"Ġà¤ªà¤°à¤®à¤§":3579,"Ġà¤¬à¤ľà¤°":3580,"Ġà¤Ĳà¤¤à¤°":3581,"à¤ĩà¤¸à¤¡":3582,"Ġà¤¨à¤µà¤µà¤°":3583,"Ġà¤ħà¤µà¤§à¤ª":3584,"à¥Įà¤Ĥ,":3585,"à¥®à¥®":3586,"à¥¯à¥§":3587,"à¥¯à¥¨":3588,"à¥¯à¥Ń":3589,"à¥¯à¥®":3590,"Ġà¥¨à¥Ń":3591,"Ġà¤ľà¤¨à¤¤à¤¬":3592,"à¥§à¥¦à¥¨":3593,"à¥§à¥¦à¥¯":3594,"à¥ĩ\":":3595,"à¤Ĳà¤Ł":3596,"Ġà¤Ĺà¤¦à¤Ĺà¤¦":3597,"à¤ķà¤ķà¤°":3598,"à¤ķà¤¨à¤ķà¤°":3599,"à¤®à¤Ńà¤ķ":3600,"Ġà¤ªà¤§":3601,"à¤¸à¤²à¤ķ":3602,"Ġà¤ľà¤¯à¤ķ":3603,"Ġà¤¬à¤ķà¤°":3604,"à¤Łà¤°à¤µ":3605,"à¤Ĺà¤¦à¤ķ":3606,"Ġà¤ıà¤ĩà¤¸à¤¨":3607,"Ġà¤ıà¤¡à¤¸":3608,"Ġà¤²à¤ĩà¤²":3609,"à¤ľà¤ľ":3610,"Ġà¤¤à¤ĩà¤¯":3611,"Ġà¤Ńà¤Ļ":3612,"Ġà¤Ńà¤ıà¤ķ":3613,"à¤ıà¤ıà¤¸à¤¸":3614,"à¤ĩà¤Łà¤²":3615,"à¤ĩà¤Ĩà¤Ĺ":3616,"Ġà¤¶à¤Ĺ":3617,"Ġà¤ĵà¤Ĩà¤°à¤ıà¤¸":3618,"Ġà¤ĸà¤°à¤®":3619,"Ġà¤ĸà¤¸à¤¬":3620,"à¤Ĩà¤ľ":3621,"Ġà¤¸à¤¬à¤°":3622,"Ġà¤¸à¤¬à¤ªà¤°":3623,"Ġà¤«à¤¡":3624,"Ġà¤«à¤¹à¤°":3625,"à¤®à¤²à¤¤":3626,"à¤ĺà¤Łà¤ķ":3627,"Ġà¤°à¤¹à¤²à¤ķ":3628,"Ġà¤ĳà¤ª":3629,"Ġ\")":3630,"à¥Ģà¥¤à¥¤":3631,"Ġà¤Ńà¤Ĺà¤ľ":3632,"à¤µà¤§à¤°":3633,"Ġà¤ªà¤°à¤®à¤Ĺà¤¤":3634,"Ġà¤ĳà¤«à¤°":3635,"ĠâĢĵ":3636,"à¥®à¥¬":3637,"à¥¯à¥©":3638,"à¥¯à¥«":3639,"à¥¯à¥¯":3640,"à¤¿\",":3641,"à¥§à¥¦à¥¬":3642,"à¥§à¥¦à¥®":3643,"à¤Ĳà¤¨":3644,"Ġà¤ĺà¤¨à¤ĺ":3645,"Ġà¤ķà¤ĩà¤¨":3646,"à¤ķà¤ĩ":3647,"à¤ķà¤®à¤¹":3648,"Ġà¤ªà¤ľ":3649,"à¥ĭ;":3650,"Ġà¤®à¤ł":3651,"Ġà¤ħà¤µà¤°":3652,"Ġà¤ħà¤ĸà¤¬":3653,"Ġà¤ľà¤¨à¤²":3654,"à¤ªà¤§":3655,"à¤¦à¤ĺà¤¨":3656,"Ġà¤¨à¤µà¤¤":3657,"Ġà¤¨à¤Ĺà¤£":3658,"à¥Ī\"à¥¤":3659,"à¤Ĺà¤¯à¤µà¤²":3660,"Ġà¤¦à¤¸à¤®":3661,"à¤¬à¤°à¤ķ":3662,"à¤¶à¤°à¤£":3663,"à¤¡à¤µà¤°":3664,"à¤ĸà¤¬à¤¯":3665,"Ġà¤¸à¤®à¤µ":3666,"Ġà¤§à¤¯à¤ķà¤¯":3667,"Ġà¤ıà¤¹à¤¨à¤ķà¤°":3668,"à¤°à¤£à¤¸à¤Ń":3669,"à¤Īà¤¡":3670,"à¤Īà¤¬à¤¹":3671,"Ġà¤¸à¤¬à¤ª":3672,"Ġà¤¡à¤°à¤ķ":3673,"Ġà¤ħà¤ªà¤¯à¤¶":3674,"à¤īà¤¶":3675,"à¤¨à¤²à¤ĸ":3676,"à¤¾à¥¤à¥¤":3677,"à¤°à¤µà¤ļà¤¨":3678,"à¤ħà¤®":3679,"à¤ħà¤ªà¤®":3680,"Ġà¤ľà¤¨à¤µ":3681,"Ġà¤ıà¤¸à¤ıà¤«":3682,"Ġà¤ıà¤¸à¤Ĩà¤°à¤¸":3683,"à¤¦à¤®à¤¯":3684,"Ġà¤Ĩà¤Īà¤¡":3685,"Ġà¤ıà¤µà¤®à¤¸":3686,"à¤¡à¤¨à¤¹":3687,"Ġà¤ľà¤¯à¤ľà¤¯":3688,"Ġà¤ľà¤¯à¤ľà¤¯à¤ķ":3689,"Ġà¤ľà¤¨à¤ķà¤¨à¤¨":3690,"Ġà¤¹à¤²à¤ļà¤²":3691,"Ġà¤ķà¤°à¤ķà¤®à¤²":3692,"à¥§à¥¨à¥§":3693,"à¥§à¥¨à¥«":3694,"à¥§à¥¨à¥¦":3695,"à¥§à¥¨à¥®":3696,"Ġà¤ıà¤¸à¤ıà¤ıà¤¸":3697,"Ġà¤Ĺà¤ªà¤¶à¤ª":3698,"#;":3699,"à¤°à¤¯à¤µà¤²":3700,"à¤¨à¤¯à¤µ":3701,"à¤¨à¤§à¤°":3702,"à¤¨à¤ľà¤°":3703,"à¤ķà¤ĩà¤²":3704,"à¤ķà¤¨à¤²":3705,"à¤¯à¤ªà¤°":3706,"à¤¹à¤°à¤¤":3707,"à¤®à¤¨à¤¨":3708,"à¤µà¤¬":3709,"à¤µà¤¶à¤ķ":3710,"Ġà¤®à¤°à¤¯":3711,"Ġà¤®à¤ļà¤²":3712,"à¤Łà¤¯à¤µà¤²":3713,"à¤¬à¤ľ":3714,"Ġà¤ıà¤ıà¤¨à¤ľ":3715,"à¤£à¤ľ":3716,"Ġà¤°à¤Ĺà¤¡":3717,"Ġà¤²à¤ı":3718,"à¤ľà¤¸à¤Ń":3719,"à¤Ľà¤¥":3720,"Ġà¤ķà¤°à¤ĩà¤¤":3721,"Ġà¤Ľà¤²à¤ª":3722,"Ġà¤¸à¤®à¤¦":3723,"Ġà¤¬à¤¨à¤¬à¤¯":3724,"Ġà¤ĩà¤¯":3725,"à¤łà¤¶":3726,"Ġà¤«à¤Łà¤ķ":3727,"à¤°à¤¸à¤®à¤£":3728,"Ġà¤Ĩà¤°à¤ıà¤«":3729,"à¤¦à¤ķà¤¸à¤Ń":3730,"Ġ\"\"":3731,"à¤ĵà¤Ĩ":3732,"à¥ģà¤ģà¥¥":3733,"à¤Łà¤°à¤°":3734,"à¤ħà¤ķ":3735,"à¤¤à¤®à¤®":3736,"à¤®à¤¨à¤¸":3737,"Ġà¤ľà¤¬à¤¸":3738,"à¤¹à¤¤à¤ķ":3739,"à¤ĸà¤²à¤ĸ":3740,"Ġà¤ķà¤²à¤¹":3741,"Ġà¤ªà¤¢à¤¨":3742,"Ġà¤ıà¤®à¤¬":3743,"Ġà¤²à¤Ĺà¤²à¤¥":3744,"à¤¡à¤°à¤µà¤°":3745,"Ġà¤µà¤¨à¤®":3746,"Ġà¥¨à¥¯":3747,"à¤¡à¤ķà¤µà¤¨":3748,"à¥§à¥¨à¥Ń":3749,"Ġà¤¤à¤¦à¤ª":3750,"à¥§à¥©à¥¦":3751,"Ġà¤ıà¤ıà¤«à¤ª":3752,"?---":3753,"à¤¤à¤Ł":3754,"à¤¤à¤½":3755,"à¤ķà¤¨à¤ķ":3756,"Ġà¤¸à¤¦à¤¨":3757,"à¤®à¤¡":3758,"Ġà¤ªà¤Ĺ":3759,"Ġà¤®à¤Łà¤ķ":3760,"Ġà¤µà¤¦à¤¨":3761,"Ġà¤¦à¤²à¤ķ":3762,"Ġà¤¦à¤¸à¤ķ":3763,"Ġà¤ıà¤µà¤°":3764,"Ġà¤ıà¤¥à¤¨":3765,"à¤·à¤¸à¤Ńà¤ķ":3766,"Ġà¤Ĺà¤ľà¤°":3767,"Ġà¤Ĺà¤ľà¤²":3768,"à¤ĸà¤®à¤¯":3769,"à¤Ńà¤¹":3770,"Ġà¤¶à¤°à¤Ń":3771,"Ġà¤¯à¤½":3772,"Ġà¤ĵà¤Ĺ":3773,"Ġà¤Īà¤¥à¤°":3774,"Ġà¤ĸà¤¤à¤®":3775,"Ġà¤ħà¤¨à¤²à¤ķ":3776,"à¤°à¤¤à¤°":3777,"à¤«à¤Ł":3778,"Ġà¤ĩà¤ıà¤¹":3779,"Ġà¤¸à¤¬à¤²":3780,"Ġà¤ķà¤ıà¤²à¤ĸ":3781,"Ġà¤¡à¤Ĺ":3782,"Ġà¤¡à¤°à¤ª":3783,"à¤°à¤®à¤¸":3784,"à¤¯à¤¤à¤¤à¤¯":3785,"Ġà¤ķà¤¯à¤²à¤ľ":3786,"Ġà¤¸à¤¹à¤¤":3787,"Ġà¤¥à¤°à¤¥à¤°":3788,"Ġà¤īà¤¦à¤°":3789,"Ġà¤ħà¤¹à¤®à¤¦":3790,"Ġà¤ķà¤®à¤²à¤¨à¤¯à¤¨":3791,"à¤ħà¤Ļ":3792,"à¤Ĺà¤²à¤Ĺ":3793,"Ġà¥ł":3794,"Ġà¤ľà¤¨à¤¸à¤®":3795,"à¤Łà¤¨à¤Ĺà¤°à¤ķ":3796,"à¤¹à¤¨à¤®":3797,"à¤µà¤ķà¤ķ":3798,"à¤¿à¤ĥà¥¤":3799,"Ġà¤ıà¤®à¤ıà¤²":3800,"Ġà¤ıà¤®à¤ıà¤¨":3801,"Ġà¤µà¤¨à¤Ĺà¤®à¤¨":3802,"à¤ķà¤ķà¤µà¤°":3803,"Ġà¤ľà¤¤à¤¯à¤¤à¤¤à¤¯":3804,"à¤Ńà¤Ĺà¤µà¤¦":3805,"à¥§à¥¨à¥ª":3806,"Ġà¤Łà¤ķà¤Łà¤ķ":3807,"Ġà¤¨à¤Ĺà¤°à¤µ":3808,">>":3809,"Ġ>>":3810,"Ġà¤ķà¤¢":3811,"Ġà¤ķà¤īà¤¨":3812,"Ġà¤ķà¤ĩà¤¯":3813,"à¤¨à¤¸à¤ķ":3814,"à¤¤à¤°à¤¸":3815,"à¤²à¤ī":3816,"à¤µà¤¯à¤®":3817,"à¤µà¤Ńà¤ķ":3818,"à¤¸à¤°à¤¤":3819,"Ġà¤®à¤²à¤ķ":3820,"Ġà¤®à¤²à¤®":3821,"Ġà¤ħà¤¸à¤¨":3822,"Ġà¤ľà¤¬à¤°":3823,"à¤ªà¤ľ":3824,"Ġà¤¨à¤¬à¤ķ":3825,"Ġà¤Ĩà¤Ĺà¤¤":3826,"à¤Ĺà¤¸à¤¨":3827,"à¤¬à¤Ĺ":3828,"à¤ľà¤«":3829,"à¤ļà¤¢":3830,"Ġà¤¤à¤Łà¤¬":3831,"à¤¡à¤¦":3832,"Ġà¤ĵà¤Ł":3833,"Ġà¤ħà¤¨à¤µà¤°à¤¤":3834,"à¤°à¤£à¤¸":3835,"à¤«à¤¡":3836,"à¤ĩà¤²à¤ķ":3837,"Ġà¤«à¤£":3838,"à¤¯à¤µà¤¶":3839,"Ġà¤¡à¤ķ":3840,"Ġà¤¤à¤°à¤¬":3841,"à¤½à¤¯":3842,"Ġà¤īà¤ªà¤µà¤°":3843,"Ġà¤ĳà¤²à¤¸":3844,"à¤²à¤ķà¤®à¤²":3845,"à¤¸à¤°à¤¬":3846,"Ġà¤Ĩà¤¯à¤°":3847,"Ġà¤°à¤ĸà¤¯":3848,"à¤ķà¤²à¤¬":3849,"à¤ªà¤ķà¤¡":3850,"Ġà¤łà¤Ĺ":3851,"Ġà¤Ŀà¤²à¤ķ":3852,"Ġà¤¬à¤°à¤¨":3853,"Ġà¤¬à¤°à¤ĸà¤ķ":3854,"Ġà¤ľà¤²à¤ľ":3855,"Ġà¤§à¤¨à¤¸à¤®":3856,"Ġà¤ħà¤®à¤°à¤¤":3857,"Ġà¤¨à¤®à¤¬":3858,"Ġà¤ħà¤¥à¤ķ":3859,"Ġà¤¦à¤¶à¤ķà¤¨":3860,"à¥§à¥¨à¥©":3861,"Ġà¤¬à¤¦à¤²à¤¯":3862,"à¥§à¥©à¥§":3863,"Ġà¤µà¤ļà¤¨à¤ķ":3864,":-":3865,"à¤³":3866,"à¤¤à¤ħà¤¨":3867,"à¤ķà¤§":3868,"à¤ķà¤ı":3869,"à¤²à¤°à¤ķ":3870,"à¤¯à¤ħ":3871,"Ġà¤¸à¤ľà¤¨":3872,"à¤®à¤°à¤ķ":3873,"à¤®à¤¬à¤²":3874,"Ġà¤®à¤¦à¤¨":3875,"Ġà¤ħà¤ľà¤°":3876,"Ġà¤¨à¤µà¤¯":3877,"Ġà¤Ĩà¤¨à¤ķ":3878,"Ġà¤¹à¤°à¤®à¤¨":3879,"Ġà¤µà¤£":3880,"Ġà¤µà¤Łà¤µ":3881,"à¤·à¤¶":3882,"à¤ģ'":3883,"à¤ľà¤¤à¤¯":3884,"Ġà¤Ľà¤¦":3885,"à¤Ľà¤®":3886,"à¤ĸà¤ķà¤ķ":3887,"Ġà¤Ńà¤ĩà¤¯":3888,"à¤Ńà¤µà¤ķ":3889,"Ġà¤ĵà¤Ľ":3890,"Ġà¤¸à¤®à¤¦à¤°":3891,"Ġà¤ħà¤¨à¤Ń":3892,"à¤°à¤£à¤ª":3893,"à¤«à¤ķ":3894,"à¤¹à¤²à¤¹":3895,"à¤¾à¤ģ\"":3896,"à¤¨à¤ķà¤ķ":3897,"à¤¯à¤®à¤ª":3898,"Ġà¤Ķà¤ľ":3899,"Ġà¤ħà¤ªà¤µà¤°":3900,"Ġà¤ħà¤ªà¤¶à¤ķ":3901,"à¤¯à¤¤à¤¨à¤¦":3902,"Ġà¤ĳà¤ĩà¤²":3903,"à¤īà¤Ĺ":3904,"à¤īà¤¸à¤¨":3905,"Ġà¤ħà¤µà¤ķ":3906,"Ġà¤Ĩà¤¬à¤¹":3907,"Ġà¤§à¤°à¤²à¤ķ":3908,"à¤Ĩà¤Īà¤ľ":3909,"à¤¸à¤ķà¤ķ":3910,"Ġà¤ķà¤¨à¤ĩà¤¤":3911,"à¤²à¤¬à¤ļ":3912,"Ġà¤¸à¤¨à¤®":3913,"à¤ıà¤«à¤¸":3914,"Ġà¤®à¤ľà¤Ĺ":3915,"Ġà¤ıà¤¤à¤¬à¤¹":3916,"Ġà¤ķà¤Īà¤Ł":3917,"à¤ıà¤¨à¤ª":3918,"à¤¯à¤¯à¤¨à¤ķ":3919,"à¤¾);":3920,"Ġà¤ħà¤¯à¤²à¤¨":3921,"Ġà¤ªà¤µà¤¨à¤ķ":3922,"à¤Ĭà¤¶":3923,"Ġà¤¬à¤¦à¤²à¤¬":3924,"Ġà¤ĸà¤¸à¤¯":3925,"à¥§à¥©à¥¨":3926,"Ġà¤ĺà¤¨à¤¶":3927,"Ġà¤ļà¤®à¤ķà¤¦":3928,"Ġà¤¸à¤¹à¤¨à¤¶":3929,"à¤ıà¤«à¤ıà¤®à¤ı":3930,"Ġà¤ķà¤Łà¤ķà¤Ł":3931,"Ġà¤Ľà¤Łà¤ªà¤Ł":3932,"Ġà¤ķà¤ĩà¤¸à¤¨":3933,"à¤¤à¤µà¤¨":3934,"à¤ķà¤¹à¤²":3935,"à¤ķà¤Ĺà¤£":3936,"à¤ķà¤¶à¤°":3937,"à¤²à¤ªà¤ķ":3938,"à¤¯à¤ļ":3939,"à¤¯à¤°à¤®":3940,"à¤Ĥ)":3941,"à¤¹à¤¡":3942,"à¤¹à¤°à¤®":3943,"à¤®à¤ªà¤¤":3944,"Ġà¤ªà¤¦à¤ķ":3945,"à¤¸à¤ķà¤¯":3946,"Ġà¤ħà¤¢":3947,"Ġà¤ħà¤ķà¤²":3948,"à¤Ĺà¤Ĺ":3949,"à¤Ĺà¤¨à¤ķ":3950,"Ġà¤ıà¤Łà¤ķ":3951,"Ġà¤ıà¤ıà¤«à¤ıà¤®à¤ı":3952,"Ġà¤²à¤ĸ":3953,"à¤ľà¤¸à¤®":3954,"à¤¡à¤¸à¤¨":3955,"à¤¡à¤¡à¤¬":3956,"Ġà¤Ĺà¤§":3957,"Ġà¤Ĺà¤°à¤¦":3958,"à¤ĸà¤§":3959,"à¤ĸà¤¸à¤®":3960,"Ġà¤Ńà¤ľà¤¨à¤ķ":3961,"à¤Ńà¤Ĺà¤¤":3962,"à¤ĩà¤ªà¤²":3963,"Ġà¤īà¤·":3964,"Ġà¤ĵà¤¶à¤¨":3965,"Ġà¤ĵà¤ıà¤®à¤Ĩà¤Ī":3966,"Ġà¤Īà¤·":3967,"Ġà¤Īà¤ı":3968,"Ġà¤Īà¤¸à¤°":3969,"Ġà¤Īà¤ıà¤¸":3970,"Ġà¤ıà¤ķà¤¬":3971,"à¤¼à¤¼":3972,"Ġà¤ħà¤¨à¤ª":3973,"à¤«à¤¸":3974,"Ġà¤ħà¤§à¤²":3975,"à¤¯à¤®à¤¸":3976,"à¤°à¤¸à¤µ":3977,"à¤ªà¤°à¤¹":3978,"Ġà¤ķà¤ıà¤²à¤Ĺà¤²":3979,"à¤Ŀà¤®":3980,"Ġà¤ķà¤¹à¤°":3981,"Ġà¤ķà¤¹à¤µ":3982,"Ġà¤ķà¤¹à¤ķà¤°":3983,"à¤½à¤°":3984,"à¤½à¤µ":3985,"à¤µà¤¨à¤¦":3986,"Ġà¤µà¤°à¤µà¤§":3987,"Ġà¤²à¤Ĺà¤µ":3988,"à¤ķà¤°à¤£à¤ķà¤°":3989,"Ġà¤®à¤¨à¤ļ":3990,"à¤īà¤°à¤ķ":3991,"à¤īà¤¨à¤²":3992,"à¤ķà¤¨à¤°":3993,"Ġà¤¤à¤ķà¤¬":3994,"à¤¹à¤°à¤¬":3995,"à¤Ĺà¤²à¤¹":3996,"à¤¨à¤µà¤¶":3997,"à¤®à¤£à¤¸à¤¹":3998,"à¤ĩà¤¨à¤¬":3999,"à¤°à¤¬à¤¨":4000,"Ġà¤¦à¤¸à¤¶":4001,"Ġà¤ľà¤²à¤®":4002,"à¤ĵà¤²à¤¥":4003,"à¤ķà¤¸à¤Ń":4004,"à¤Ĺà¤®à¤¨à¤ķ":4005,"à¤¿à¤ĥà¥¥":4006,"à¤§à¤ķà¤§":4007,"Ġà¤«à¤²à¤®":4008,"à¤ªà¤®à¤¯":4009,"Ġà¤ļà¤ķà¤ĩ":4010,"à¤Ĳà¤¸":4011,"Ġà¤īà¤¤à¤°à¤¬":4012,"Ġà¤®à¤Ĺà¤§":4013,"à¤ĭà¤¤":4014,"à¤ĭà¤·":4015,"Ġà¤Ĩà¤°à¤ıà¤«à¤ı":4016,"Ġà¤¡à¤Ĺà¤®à¤Ĺ":4017,"?'":4018,"à¤¨à¤ªà¤¨":4019,"à¤¨à¤°à¤®":4020,"à¤¨à¤µà¤²":4021,"à¤¨à¤®à¤¸":4022,"à¤¤à¤ĺ":4023,"à¤¤à¤ķà¤²":4024,"à¤¤à¤¬à¤²":4025,"à¤ķà¤ķà¤²":4026,"à¤¯à¤Ĺà¤°":4027,"Ġà¤¸à¤ł":4028,"à¤®à¤ľà¤¨":4029,"à¤µà¤Ĺà¤¤":4030,"à¤µà¤µà¤¤":4031,"à¤¸à¤¹à¤°":4032,"Ġà¤ħà¤ıà¤²":4033,"Ġà¤ħà¤²à¤ķ":4034,"Ġà¤ľà¤ľà¤®":4035,"Ġà¤¨à¤°à¤¸":4036,"Ġà¤¨à¤®à¤ķ":4037,"Ġà¤Ĩà¤ĵà¤²":4038,"Ġà¤¹à¤Łà¤¨":4039,"Ġà¤¦à¤°à¤¸":4040,"à¤¬à¤ª":4041,"à¤¬à¤¬":4042,"à¤¬à¤µà¤¤":4043,"à¤£à¤ķà¤°":4044,"Ġà¤°à¤§":4045,"Ġà¤²à¤°":4046,"à¤ľà¤¶":4047,"à¤ľà¤Ń":4048,"à¤Ľà¤¹":4049,"à¤ļà¤¥":4050,"Ġà¤ķà¤°à¤ī":4051,"à¤ĩà¤¦":4052,"Ġà¤¶à¤¹à¤¨":4053,"Ġà¤ĵà¤¶à¤²":4054,"Ġà¤ļà¤ļ":4055,"Ġà¤ĸà¤²à¤¬à¤²":4056,"Ġà¤«à¤¨":4057,"Ġà¤°à¤¹à¤®":4058,"à¤¯à¤µà¤§":4059,"à¤ĩà¤¤à¤¹":4060,"Ġà¤¹à¤®à¤°à¤ħà¤¹":4061,"Ġà¤¸à¤Ńà¤¹":4062,"à¤µà¤¨à¤¨":4063,"à¥Ģà¤Ĥ\"":4064,"à¤¸à¤°à¤¨":4065,"à¤ľà¤¨à¤ķà¤°":4066,"Ġà¤īà¤²à¤Łà¤²":4067,"à¤ħà¤µà¤¸à¤°":4068,"à¤¤à¤®à¤¨":4069,"à¤Ĺà¤²à¤ª":4070,"à¤Łà¤¨à¤Ĺà¤°à¤®":4071,"Ġà¤ıà¤ļà¤Ł":4072,"Ġà¤¬à¤²à¤°":4073,"à¤¸à¤®à¤°":4074,"Ġà¤¬à¤¢à¤¤":4075,"à¤§à¤¨à¤¤":4076,"Ġà¤ķà¤¤à¤Ī":4077,"à¤°à¤¬à¤²à¤¤":4078,"Ġà¤¬à¤°à¤·":4079,"Ġà¤ħà¤Ĺà¤£":4080,"Ġà¤ľà¤ĸà¤¨à¤ľà¤ĸà¤¨":4081,"Ġà¤Ĩà¤ĩà¤¬":4082,"à¤¯à¤£à¤®":4083,"Ġà¤ªà¤¦à¤ļ":4084,"à¤§à¤ķà¤ķ":4085,"Ġà¤ħà¤µà¤²à¤®":4086,"à¥§à¥¨à¥¯":4087,"à¤¸à¤¹à¤®à¤¤":4088,"à¥§à¥©à¥©":4089,"à¥§à¥©à¥ª":4090,"à¥ĩà¤Ĥ);":4091,"Ġà¤®à¤¦à¤¦à¤Ĺ":4092,"à¥Ģ',":4093,"Ġà¥§à¥¦à¥¦":4094,"Ġà¤ĵà¤µà¤°à¤²":4095,"Ġ(âĢĺ":4096,"..":4097,"Ġà¤¾":4098,"à¤°à¤¡":4099,"à¤°à¤¯à¤¨":4100,"Ġà¤ķà¤¤à¤°":4101,"à¤¤à¤¸à¤®":4102,"à¤ķà¤ĸà¤¨":4103,"à¤¯à¤¯à¤ķ":4104,"Ġà¤¸à¤¶à¤¸":4105,"à¤®à¤ı":4106,"à¤®à¤µà¤²":4107,"à¤®à¤¢":4108,"Ġà¤ªà¤ĩà¤¨":4109,"à¤¸à¤«à¤²à¤¤":4110,"à¤¸à¤ĳà¤°":4111,"Ġà¤ħà¤ļà¤°":4112,"Ġà¤ħà¤ľà¤¯":4113,"à¤ªà¤²à¤¨":4114,"à¤¦à¤¯à¤¸":4115,"Ġà¤¬à¤°à¤µ":4116,"à¤¬à¤®":4117,"à¥Ĥ-":4118,"Ġà¤ıà¤¨à¤ķ":4119,"Ġà¤°à¤¥à¤ķ":4120,"à¤ģ:":4121,"à¤¥à¤¯":4122,"à¤ľà¤²à¤¨":4123,"à¤ľà¤°à¤²":4124,"à¤¶à¤Ĺ":4125,"à¤ļà¤Ł":4126,"à¤ļà¤°à¤¤":4127,"Ġà¤ķà¤°à¤Ī":4128,"à¤ĸà¤½":4129,"à¤ĩà¤ł":4130,"à¤ĩà¤®à¤°":4131,"Ġà¤īà¤ĭà¤£":4132,"Ġà¤¶à¤ŀ":4133,"Ġà¤ĵà¤ľ":4134,"Ġà¤ļà¤°à¤¬":4135,"à¤¼à¥ĩà¤Ĥ:":4136,"à¤°à¤¤à¤¤":4137,"à¥Įà¥¥":4138,"à¤Ĩà¤ĩ":4139,"à¤°à¤¸à¤¹":4140,"à¤°à¤¸à¤Ńà¤ķ":4141,"à¤²à¤¯à¤¸à¤Ń":4142,"Ġà¤°à¤¹à¤Ī":4143,"à¤Ŀà¤Ł":4144,"à¤¸à¤°à¤¹":4145,"Ġà¤¸à¤¹à¤¬":4146,"Ġà¤ıà¤«à¤ķ":4147,"à¤¤à¤®à¤¯":4148,"Ġà¤ļà¤²à¤¹":4149,"Ġà¤ļà¤²à¤²à¤¨":4150,"Ġà¤ªà¤¡à¤²":4151,"à¤§à¤¨à¤®":4152,"Ġà¤ĺà¤°à¤ªà¤°":4153,"à¤°à¤¬à¤¦":4154,"à¤·à¤¯à¤ľ":4155,"à¤ļà¤²à¤®":4156,"Ġà¤¬à¤ľà¤¤":4157,"Ġà¤¦à¤¸à¤µ":4158,"Ġà¤ħà¤Ĺà¤¬":4159,"Ġà¤ªà¤¢à¤²à¤²":4160,"Ġà¤ļà¤°à¤£à¤¨":4161,"à¤ªà¤Łà¤²à¤¨":4162,"à¤¼à¥ĩ:":4163,"Ġà¤Ĩà¤®à¤ľà¤¨":4164,"Ġà¤Ĺà¤£à¤®":4165,"Ġà¤°à¤¸à¤Ĺ":4166,"Ġà¤°à¤¸à¤ĸ":4167,"Ġà¤ıà¤¬à¤¨à¤°":4168,"à¤¦à¤¶à¤®":4169,"Ġà¤¯à¤¶à¤¸":4170,"à¥§à¥©à¥®":4171,"à¥§à¥ªà¥©":4172,"à¥ĩ'à¥¤":4173,"Ġ&#;":4174,"Ġà¤ıà¤¯à¤°à¤ķ":4175,"Ġà¤Ĩà¤īà¤Łà¤Ĺ":4176,"Ġà¤Ĩà¤«à¤¦":4177,"à¤µà¤¸à¤®à¤°":4178,"Ġà¤²à¤Łà¤ķà¤²":4179,"Ġà¤Ĩà¤ĩà¤Łà¤®":4180,"Ġà¤ļà¤®à¤ķà¤¦à¤®à¤ķ":4181,"\")à¥¤":4182,"Ġ#":4183,"à¤°à¤¨à¤¤":4184,"à¥įà¥¥à¥¥":4185,"à¤¨à¤¬à¤¨":4186,"à¤¤à¤¡":4187,"à¤¤à¤ļà¤°":4188,"à¤²à¤®à¤°":4189,"à¤¯à¤ħà¤¨":4190,"Ġà¤¸à¤¨à¤¤":4191,"à¤¹à¤ľ":4192,"à¤®à¤ĸ":4193,"à¤¸à¤ªà¤°":4194,"à¤¸à¤Łà¤°":4195,"Ġà¤®à¤Ŀ":4196,"Ġà¤®à¤°à¤¦":4197,"Ġà¤ħà¤¯à¤¨":4198,"à¤¦à¤®à¤¨":4199,"Ġà¤¨à¤µà¤ª":4200,"Ġà¤Ĩà¤®à¤¨":4201,"Ġà¤Ĩà¤¹à¤¤":4202,"à¤Ĺà¤Ĩà¤°":4203,"à¤Ĺà¤®à¤ķ":4204,"Ġà¤¦à¤Ī":4205,"à¤·à¤¦à¤ķ":4206,"à¤ľà¤ªà¤°":4207,"à¤¶à¤§":4208,"à¤¶à¤Ļ":4209,"Ġà¤¤à¤ļ":4210,"Ġà¤Ĺà¤µà¤¯":4211,"Ġà¤ªà¤°à¤®à¤¸":4212,"à¤Ńà¤°à¤£":4213,"Ġà¤īà¤Ĺà¤²":4214,"à¤ķà¤°à¤¤":4215,"Ġà¤¸à¤®à¤²":4216,"Ġà¤§à¤°à¤¹à¤°":4217,"à¤Īà¤ıà¤²":4218,"à¤«à¤°à¤ª":4219,"à¤°à¤ķà¤¯":4220,"à¤Ĩà¤²":4221,"à¤Ĩà¤ĩà¤¤":4222,"Ġà¤¸à¤ķà¤²à¤¨":4223,"Ġà¤¸à¤ķà¤²à¤¥":4224,"à¤¿à¤Ĥà¥¥":4225,"à¤łà¤ļà¤¨":4226,"Ġà¤Łà¤Łà¤ķ":4227,"à¤ªà¤°à¤ª":4228,"à¤²à¤¯à¤¨":4229,"Ġà¤Ķà¤Ŀà¤ķ":4230,"à¤¯à¤µà¤¤":4231,"à¤Ŀà¤¸":4232,"Ġà¤¸à¤Ńà¤¯":4233,"Ġà¤ķà¤°à¤¤à¤¯":4234,"Ġà¤īà¤ªà¤²à¤ķ":4235,"à¤µà¤¨à¤¯":4236,"Ġà¤ĵà¤¹à¤ķà¤°":4237,"Ġà¤ıà¤«à¤ª":4238,"Ġà¤®à¤¨à¤®à¤¸":4239,"à¤¦à¤°à¤¬":4240,"à¤ħà¤¶":4241,"Ġà¤ħà¤µà¤ļ":4242,"à¤Ĺà¤²à¤¥":4243,"Ġà¤ıà¤ķà¤°à¤¹":4244,"Ġà¤Ŀà¤ķ":4245,"Ġà¤ıà¤¨à¤«":4246,"Ġà¤ıà¤¨à¤ıà¤¸":4247,"Ġà¤Ĭà¤¸à¤°":4248,"Ġà¤ķà¤¤à¤ı":4249,"Ġà¤ħà¤¬à¤§":4250,"Ġà¤ħà¤¬à¤ĩà¤¤":4251,"à¤Łà¤²à¤¥":4252,"à¥Ģ);":4253,"Ġà¤¬à¤ľà¤²à¤¨":4254,"à¥ģà¤Ĥà¥¤":4255,"Ġà¤ħà¤Ĺà¤µ":4256,"Ġà¤ıà¤²à¤Ł":4257,"à¤Łà¤ķà¤®":4258,"Ġà¤Ĩà¤ĩà¤¡":4259,"Ġà¤ıà¤®à¤Ĩà¤Ī":4260,"Ġà¤«à¤²à¤«":4261,"à¤¨à¤®à¤¯":4262,"Ġà¤¬à¤¸à¤¤":4263,"Ġà¤¨à¤ĩà¤ĸà¤¨":4264,"à¤µà¤¦à¤¤":4265,"à¤¾')":4266,"à¤¾',":4267,"à¥Ģ\"à¥¤":4268,"Ġà¥ªà¥¦":4269,"à¥§à¥©à¥«":4270,"à¥§à¥©à¥¬":4271,"à¥ĩ\"à¥¤":4272,"Ġà¤ħà¤Łà¤ķà¤²":4273,"Ġà¤°à¤ļà¤²à¤¨":4274,"Ġà¤ķà¤ķà¤°à¤¹":4275,"Ġà¤·à¤Ł":4276,"Ġà¤ıà¤ļà¤Ĩà¤°à¤ı":4277,"Ġà¤¬à¤°à¤¤à¤²":4278,"à¤ıà¤ıà¤²à¤Ĩà¤°à¤¸":4279,"à¤°à¤ħ":4280,"à¥ĩà¤ĥ":4281,"à¤¿à¤ģ,":4282,"à¤¿):":4283,"Ġà¤ķà¤¬à¤¨":4284,"à¤¨à¤°à¤¹":4285,"à¤¤à¤ªà¤°":4286,"à¤¤à¤¯à¤µà¤²":4287,"à¤ķà¤Ī":4288,"à¤²à¤§":4289,"à¤²à¤ĺ":4290,"à¤¯à¤Ĩà¤°":4291,"à¤¹à¤ķà¤°":4292,"à¤®à¤¨à¤ķ":4293,"à¤®à¤¹à¤°":4294,"Ġà¤ªà¤ıà¤°":4295,"à¤µà¤®à¤¯":4296,"à¤¸à¤¦à¤ķ":4297,"à¤¸à¤ıà¤ķ":4298,"Ġà¤®à¤¸à¤²":4299,"Ġà¤ľà¤°à¤¤":4300,"Ġà¤¨à¤°à¤®":4301,"Ġà¤¨à¤µà¤²":4302,"à¥Īà¤ĥà¥¤":4303,"à¥Ī',":4304,"à¤Łà¤ªà¤°":4305,"à¤Łà¤ĺ":4306,"à¤Ĺà¤ªà¤°":4307,"Ġà¤µà¤ıà¤¹":4308,"Ġà¤¦à¤ıà¤²":4309,"à¤¬à¤²à¤¤":4310,"à¥Ĥ;":4311,"à¤§à¤ľ":4312,"à¤·à¤¸à¤°":4313,"Ġà¤°à¤¬à¤°":4314,"Ġà¤°à¤®à¤¨":4315,"à¤ľà¤Ńà¤µà¤¨":4316,"Ġà¤Ľà¤¡":4317,"à¤¶à¤¶":4318,"à¤¶à¤²à¤®":4319,"à¤¡à¤Ł":4320,"Ġà¤ªà¤°à¤ĸ":4321,"Ġà¤Ńà¤ķà¤¯":4322,"à¤Ńà¤ª":4323,"à¤ĩà¤ıà¤Ĺ":4324,"Ġà¤¯à¤¸à¤ķ":4325,"Ġà¤Īà¤¡":4326,"Ġà¤Īà¤¶à¤ķ":4327,"à¤¿à¥¤à¥¤":4328,"Ġà¤ħà¤¨à¤ķà¤°":4329,"à¤Īà¤°":4330,"à¤¯à¤ķà¤²":4331,"Ġà¤ĩà¤ª":4332,"Ġà¤ĩà¤Ł":4333,"à¤Ĩà¤ıà¤²":4334,"à¤Ĩà¤ķà¤²à¤¨":4335,"à¤łà¤¹":4336,"Ġà¤«à¤°à¤¸":4337,"Ġà¤Łà¤²":4338,"Ġà¤Łà¤ª":4339,"Ġà¤ĵà¤ķà¤°à¤¨":4340,"Ġà¤°à¤¹à¤¹":4341,"Ġà¤°à¤¹à¤¬à¤¯":4342,"à¤Ŀà¤¥":4343,"à¤¸à¤¨à¤²":4344,"à¤¸à¤¨à¤¸":4345,"Ġà¤¡à¤²":4346,"Ġà¤¡à¤Ĺà¤²à¤¸":4347,"à¤µà¤°à¤¦":4348,"Ġà¤ªà¤¹à¤¨":4349,"à¤²à¤ķà¤£":4350,"à¥Ģà¤Ĥ),":4351,"à¥Īà¤Ĥà¥¥à¥¥":4352,"à¤ŀà¤¸":4353,"Ġà¤īà¤¤à¤ª":4354,"Ġà¤µà¤°à¤¨":4355,"Ġà¤¥à¤ª":4356,"Ġà¤īà¤¦à¤§":4357,"Ġà¤®à¤¨à¤µ":4358,"à¤ĵà¤ĺ":4359,"à¤ĵà¤¤à¤¯":4360,"à¤īà¤Ĩ":4361,"à¤īà¤®à¤¨":4362,"Ġà¤¸à¤®à¤¯à¤¸":4363,"à¤°à¤µà¤¸":4364,"à¤°à¤¯à¤ļ":4365,"à¤ħà¤ľ":4366,"Ġà¤°à¤ĸà¤²à¤¹":4367,"à¤¯à¤°à¤¨à¤¨":4368,"à¤¤à¤¨à¤¯":4369,"Ġà¤¬à¤²à¤¸":4370,"Ġà¤Ŀà¤®":4371,"Ġà¤Ĭà¤²":4372,"à¤²à¤¬à¤¦":4373,"à¤ļà¤°à¤¨":4374,"à¤ķà¤¤à¤¹":4375,"Ġà¤ĭà¤¦":4376,"Ġà¤ªà¤¢à¤¤":4377,"Ġà¤ľà¤²à¤ĸ":4378,"Ġà¤ıà¤²à¤ĸ":4379,"Ġà¤Ĩà¤Īà¤¡à¤¬":4380,"Ġà¤ľà¤¯à¤¦":4381,"Ġà¤¬à¤¸à¤¯":4382,"à¤ıà¤ıà¤«à¤Ĩà¤Īà¤¸":4383,"à¤ıà¤®à¤¡à¤¬":4384,"à¤¾\")":4385,"à¤ľà¤¨à¤ķà¤ª":4386,"à¤µà¤¶à¤¤":4387,"Ġà¥©à¥«":4388,"Ġà¤ķà¤Łà¤¹à¤°":4389,"à¥§à¥©à¥Ń":4390,"à¥§à¥©à¥¯":4391,"Ġà¤ªà¤²à¤Ł":4392,"à¥§à¥ªà¥¦":4393,"Ġà¤ħà¤Īà¤Ľ":4394,"Ġ],":4395,"Ġà¤¹à¤łà¤ª":4396,"Ġà¤ıà¤ıà¤®à¤Ĩà¤Ī":4397,"Ġà¤ĩà¤¦à¤®à¤¨":4398,"Ġà¤¶à¤¹à¤°à¤ķ":4399,"Ġà¤Ĩà¤Ĺà¤®à¤¨à¤ķ":4400,"Ġà¤ĵà¤Ŀà¤°":4401,"à¤¤à¤«":4402,"à¤¤à¤µà¤°":4403,"à¤¤à¤ķà¤°à¤£":4404,"à¤ķà¤ļ":4405,"à¤ķà¤Łà¤¨":4406,"Ġà¤¸à¤²à¤¹":4407,"Ġà¤¸à¤§à¤µ":4408,"à¤¹à¤ı":4409,"à¤¹à¤°à¤¹":4410,"à¤®à¤¹à¤¨":4411,"à¤®à¤¬à¤¨":4412,"à¤µà¤½":4413,"à¥ĭ/":4414,"à¤¸à¤®à¤ķ":4415,"à¤¸à¤Ĩà¤Ī":4416,"Ġà¤®à¤µ":4417,"Ġà¤ħà¤¶à¤¨":4418,"à¤ªà¤µà¤°":4419,"à¤¦à¤¯à¤¤":4420,"à¤¦à¤¹à¤¨":4421,"à¥Īà¥¥à¥¥":4422,"Ġà¤µà¤°à¤®":4423,"Ġà¤µà¤Łà¤¸":4424,"à¤£à¤§à¤°":4425,"Ġà¤²à¤µà¤²":4426,"à¤¥à¤¸à¤Ń":4427,"à¤Ľà¤¸":4428,"Ġà¤ķà¤°à¤ĩ":4429,"Ġà¤Ĺà¤®à¤¹":4430,"Ġà¤Ńà¤£":4431,"Ġà¤Ńà¤¡":4432,"à¤ıà¤¯à¤°":4433,"à¤ĩà¤Ń":4434,"à¤ĩà¤µà¤²":4435,"à¥ĭà¤Ĥà¥¤":4436,"Ġà¤ĸà¤®":4437,"Ġà¤ıà¤¹à¤¸à¤¨":4438,"à¤Īà¤Ł":4439,"à¤Īà¤¬":4440,"à¤«à¤Ĺ":4441,"à¤Ĩà¤ªà¤°":4442,"à¤Ĩà¤¯à¤²":4443,"à¤ĩà¤²à¤µà¤°":4444,"à¤łà¤ķà¤ķ":4445,"Ġà¤Ĩà¤°à¤Ł":4446,"à¤¤à¤°à¤ª":4447,"à¤¸à¤¨à¤®":4448,"Ġà¤¡à¤®":4449,"à¤ŀà¤¶":4450,"Ġà¤Ĩà¤¦à¤°à¤ķ":4451,"Ġà¤µà¤°à¤ªà¤ķ":4452,"Ġà¤¥à¤®":4453,"à¤¢à¤¤":4454,"Ġà¤²à¤Ĺà¤¬à¤¯":4455,"à¤µà¤¤à¤®":4456,"à¤°à¤Ńà¤°":4457,"à¤®à¤¤à¤¤":4458,"Ġà¤ķà¤®à¤¨":4459,"Ġà¤¤à¤ķà¤ķ":4460,"à¤ħà¤ĩà¤¸à¤¨":4461,"Ġà¤¹à¤°à¤ª":4462,"Ġ-),":4463,"à¤¯à¤°à¤²":4464,"à¤¤à¤¨à¤®à¤¯":4465,"Ġà¤¸à¤°à¤ª":4466,"à¤¨à¤°à¤²":4467,"Ġà¤ļà¤²à¤¥":4468,"Ġà¤ļà¤²à¤²à¤¥":4469,"Ġà¤ıà¤¸à¤ıà¤ıà¤«":4470,"Ġà¤ķà¤¥à¤¨à¤ķ":4471,"à¤®à¤£à¤¹":4472,"Ġà¤ıà¤¨à¤ıà¤¬":4473,"Ġà¤īà¤¨à¤ļ":4474,"Ġà¤ªà¤°à¤®à¤¶":4475,"à¤°à¤ľà¤²":4476,"Ġà¤¬à¤ľà¤Ł":4477,"Ġà¤Ĳà¤¹à¤¨":4478,"à¤¨à¤¸à¤«":4479,"à¤µà¤¸à¤Ń":4480,"Ġà¤ªà¤¢à¤¯":4481,"Ġà¤ľà¤²à¤ļà¤°":4482,"Ġà¤§à¤¨à¤§":4483,"Ġà¤ıà¤²à¤¸":4484,"à¥ģà¤ĥà¥¤":4485,"à¤ıà¤¨à¤ı":4486,"Ġà¥©à¥§":4487,"Ġà¤ľà¤¤à¤¯à¤ľà¤¤à¤¯":4488,"à¤Ĭà¤°":4489,"à¤¿);":4490,"à¤¿':":4491,"à¥§à¥ªà¥¨":4492,"à¥§à¥ªà¥¬":4493,"Ġà¤ıà¤ªà¤¬":4494,"Ġà¥§à¥¦à¥¦à¥¦":4495,"à¤Ķà¤¨":4496,"Ġà¤²à¤¹à¤ł":4497,"')à¥¤":4498,"]à¥¤":4499,"à¥įà¤ģ":4500,"Ġà¤ķà¤ŀ":4501,"Ġà¤ķà¤¨à¤²":4502,"Ġà¤ķà¤ıà¤ķ":4503,"à¤¨à¤ıà¤¹":4504,"à¤¤à¤¯à¤®":4505,"à¤¤à¤®à¤ķ":4506,"à¤¤à¤ī":4507,"à¤¤à¤¨à¤¨":4508,"à¤¤à¤ļà¤²":4509,"à¤ķà¤¬à¤°":4510,"à¤ķà¤ĳà¤«":4511,"à¤²à¤ªà¤°":4512,"à¤¹à¤ªà¤°":4513,"à¤®à¤®à¤Ĺ":4514,"à¤ªà¤Łà¤ķ":4515,"à¤¦à¤¯à¤°":4516,"à¤¦à¤§à¤¤":4517,"Ġà¤¨à¤¨à¤¦":4518,"à¤Łà¤¡":4519,"à¤Łà¤²à¤ķ":4520,"à¤Ĺà¤¥":4521,"Ġà¤µà¤°à¤ķà¤¨":4522,"Ġà¤¦à¤°à¤ķ":4523,"à¤¬à¤ĩà¤¤":4524,"à¤§à¤Ń":4525,"Ġà¤ıà¤ĸ":4526,"Ġà¤ıà¤īà¤Ł":4527,"à¤£à¤ªà¤ķ":4528,"à¤ľà¤ĩà¤¸à¤¨":4529,"à¤ľà¤Ĺà¤¦":4530,"à¤¶à¤ļ":4531,"à¤ļà¤²à¤¹":4532,"Ġà¤ªà¤°à¤¸à¤²":4533,"à¤ĸà¤°à¤®":4534,"Ġà¤Ńà¤¯à¤ķ":4535,"Ġà¤Ńà¤°à¤®":4536,"à¤ĩà¤¨à¤ķ":4537,"Ġà¤īà¤Ľ":4538,"Ġà¤¶à¤µ":4539,"Ġà¤¶à¤ĸ":4540,"Ġà¤ĵà¤¨à¤¸":4541,"Ġà¤ļà¤®à¤ļ":4542,"Ġà¥¤âĢĻ":4543,"Ġà¤ıà¤ķà¤¸à¤°":4544,"Ġà¤ıà¤ķà¤¸à¤®":4545,"Ġà¤§à¤®":4546,"Ġà¤ħà¤¨à¤¹":4547,"Ġà¤ħà¤¨à¤²à¤¨":4548,"à¤°à¤¤à¤¨":4549,"à¤°à¤¤à¤¹":4550,"Ġ(:":4551,"à¤łà¤ľà¤¨":4552,"Ġà¤Ĩà¤°à¤¬":4553,"à¤ĺà¤¸":4554,"à¤Ĩà¤°à¤ĵ":4555,"à¤°à¤®à¤¦":4556,"à¤½à¤®":4557,"à¤°à¤¦à¤¯":4558,"à¥Ģà¤Ĥà¥¥à¥¥":4559,"Ġà¤¸à¤¹à¤µ":4560,"Ġà¤µà¤°à¤°":4561,"à¤¶à¤¨à¤¶":4562,"Ġà¤ıà¤«à¤¡à¤¬":4563,"Ġà¤ħà¤¹à¤¸":4564,"Ġà¤®à¤¨à¤²":4565,"à¤ĵà¤ıà¤¸":4566,"à¤īà¤ªà¤¨":4567,"à¤¬à¤°à¤§à¤°":4568,"Ġà¤ıà¤Ĺà¤«":4569,"Ġ-):":4570,"à¤¤à¤®à¤¹":4571,"à¤¯à¤²à¤¹":4572,"à¤Ĩà¤Īà¤ıà¤®":4573,"Ġà¤ıà¤¸à¤¬":4574,"à¤¨à¤µà¤ľ":4575,"Ġà¤¬à¤²à¤¶":4576,"Ġà¤īà¤łà¤ĵà¤²":4577,"Ġà¤ķà¤¨à¤¬":4578,"Ġà¤ıà¤¨à¤¡":4579,"Ġà¤ªà¤¡à¤¤":4580,"Ġà¤¬à¤¢à¤¯":4581,"Ġà¤ķà¤¤à¤½":4582,"Ġà¤ħà¤¬à¤¹":4583,"à¤®à¤¸à¤¹":4584,"Ġà¤ªà¤°à¤®à¤ªà¤¦":4585,"Ġà¤¬à¤¤à¤¹":4586,"Ġà¤Ĳà¤°":4587,"à¤Ńà¤µà¤®":4588,"ĠâĢĻ":4589,"Ġà¤ħà¤µà¤¸à¤°à¤ªà¤°":4590,"Ġà¤¬à¤¸à¤¥":4591,"à¤·à¤¸à¤Ĺà¤£":4592,"à¤ıà¤®à¤¬":4593,"à¤ıà¤®à¤ıà¤®":4594,"Ġà¤¸à¤ľà¤Ĺà¤¤":4595,"Ġà¤¦à¤¶à¤Ĺ":4596,"à¤°à¤ľà¤¨à¤¨":4597,"âĢĻà¥¤":4598,"à¤¶à¤²à¤ª":4599,"à¤ľà¤¯à¤ķà¤°":4600,"Ġà¥©à¥©":4601,"Ġà¥©à¥¬":4602,"à¤Ĭà¤ľ":4603,"Ġà¤²à¤½à¤Ĺ":4604,"à¥§à¥ªà¥ª":4605,"--\"":4606,"à¤¯à¤Ńà¤Ł":4607,"Ġà¤¹à¤¡à¤¸à¤¨":4608,"'),":4609,"__":4610,"Ġ//":4611,"Ġà¤¿":4612,"à¤°à¤°à¤¹":4613,"à¤¿âĢĿ":4614,"à¤¨à¤§":4615,"à¤¤à¤Ĺà¤£":4616,"à¤ķà¤²à¤¯":4617,"à¤ķà¤ľà¤®":4618,"à¤²à¤Ī":4619,"à¤²à¤µà¤¶":4620,"à¤¯à¤¯à¤®":4621,"à¤¯à¤Ļ":4622,"à¤¯à¤Ńà¤ķ":4623,"Ġà¤¸à¤ķà¤°":4624,"à¥Ģà¤ģ,":4625,"à¤®à¤¥":4626,"Ġà¤ªà¤®":4627,"Ġà¤ªà¤ķà¤°":4628,"Ġà¤ªà¤¯à¤°":4629,"à¤¸à¤¶":4630,"à¤¸à¤ł":4631,"à¤¸à¤²à¤¨":4632,"à¤¸à¤°à¤®":4633,"à¤¸à¤Łà¤¨":4634,"Ġà¤ħà¤ŀ":4635,"Ġà¤ħà¤¶à¤ķ":4636,"Ġà¤ľà¤¥":4637,"Ġà¤ľà¤¯à¤µ":4638,"à¤ªà¤¸à¤®":4639,"à¤¦à¤µà¤ķ":4640,"Ġà¤¨à¤¡":4641,"Ġà¤¨à¤Ĺà¤¦":4642,"Ġà¤Ĩà¤Ľ":4643,"Ġà¤Ĩà¤¨à¤°":4644,"à¥¤\"":4645,"Ġà¤¹à¤¬":4646,"Ġà¤¹à¤°à¤¤":4647,"Ġà¤¹à¤°à¤ķà¤¤":4648,"à¤Łà¤¥":4649,"à¤Łà¤ļ":4650,"à¤Łà¤µà¤²":4651,"à¤Ĺà¤µà¤²":4652,"à¤Ĺà¤¬à¤²":4653,"Ġà¤µà¤ĩà¤¸":4654,"Ġà¤¦à¤¤à¤®":4655,"à¤¬à¤ī":4656,"à¥Ĥ.":4657,"à¤§à¤¦":4658,"à¤§à¤ªà¤¤":4659,"à¤£à¤ļà¤¨":4660,"Ġà¤°à¤«":4661,"Ġà¤²à¤µà¤£":4662,"à¤ľà¤¤à¤¨":4663,"Ġà¤Ľà¤Ī":4664,"à¥ĩà¤ĤâĢĻ":4665,"à¤¡à¤°à¤µ":4666,"Ġà¤Ĺà¤µà¤°":4667,"Ġà¤Ĺà¤°à¤²":4668,"Ġà¤Ńà¤¨à¤¸":4669,"Ġà¤īà¤®à¤°":4670,"Ġà¤īà¤ľà¤°":4671,"à¤ķà¤°à¤¯":4672,"Ġà¤¯à¤ļ":4673,"Ġà¤ĵà¤¡":4674,"Ġà¤ļà¤ŀ":4675,"à¥ĭà¤Ĥ]":4676,"Ġà¤ıà¤ķà¤¨":4677,"à¤¼à¥Ĥà¥¤":4678,"Ġà¤ĸà¤§":4679,"Ġà¤ĸà¤¯à¤¬":4680,"à¤Īà¤¹":4681,"à¤Īà¤ļ":4682,"à¤«à¤µ":4683,"Ġà¤ĩà¤¹à¤²":4684,"Ġà¤ĩà¤¹à¤¤":4685,"Ġà¤Ĩà¤µà¤²":4686,"à¤ĩà¤²à¤ĸ":4687,"Ġà¤¸à¤¬à¤¦":4688,"à¥īà¤ģ":4689,"Ġà¤Łà¤¨":4690,"à¤ªà¤°à¤¨":4691,"Ġà¤°à¤¹à¤µ":4692,"Ġà¤¡à¤¨à¤«":4693,"à¤µà¤°à¤µ":4694,"Ġà¤īà¤ªà¤ľà¤²":4695,"Ġà¤ĺà¤¬à¤¡":4696,"à¤ŀà¤®":4697,"Ġà¤¬à¤¹à¤¤":4698,"Ġà¤īà¤¤à¤ªà¤¤":4699,"à¤ĸà¤¨à¤¹":4700,"à¤ĵà¤Ĩà¤°à¤Ĩà¤Ī":4701,"à¤¨à¤²à¤¥":4702,"à¤ħà¤Ĺ":4703,"à¤ħà¤¨à¤¨":4704,"à¤ħà¤¥à¤µ":4705,"à¤°à¤¶à¤ķ":4706,"Ġ,'à¥¤":4707,"Ġà¤ľà¤¨à¤®à¤²":4708,"à¤¨à¤µà¤®":4709,"à¤¨à¤µà¤µ":4710,"Ġà¤īà¤łà¤¨":4711,"Ġà¤Ŀà¤¡":4712,"à¤¦à¤®à¤Ĺ":4713,"Ġà¤¸à¤¤à¤¸":4714,"à¤¸à¤²à¤ªà¤¤":4715,"à¤·à¤¯à¤Ń":4716,"Ġà¤ĭà¤ļ":4717,"Ġà¤ľà¤²à¤¦":4718,"Ġà¤Ĩà¤Īà¤Ĩà¤°à¤¸":4719,"Ġà¤ķà¤Īà¤²à¤¸":4720,"à¤¿.,":4721,"à¥Įà¤Ĥ:":4722,"à¤²à¤²à¤¥":4723,"à¤ıà¤®à¤ıà¤¸":4724,"à¤ıà¤®à¤ıà¤ļ":4725,"Ġà¤ľà¤¤à¤ķà¤°":4726,"âĢĻ)":4727,"à¤ľà¤Ĺà¤¹":4728,"Ġà¤¶à¤°à¤£à¤®":4729,"à¤Ńà¤Ĺà¤µà¤¤":4730,"à¤ĥà¥¤à¥¤":4731,"à¤¤à¤°à¤£à¤ķ":4732,"à¤¸à¤µà¤®":4733,"Ġà¥©à¥¨":4734,"Ġà¥©à¥ª":4735,"Ġà¥©à¥¯":4736,"à¤¾'à¥¤":4737,"à¤ĩà¤ľà¤°à¤ķ":4738,"à¥Ģ\",":4739,"à¤¨à¤ľà¤°à¤¬":4740,"à¥Ĥà¤Ĥà¥¤":4741,"Ġà¤łà¤¹à¤°à¤²":4742,"Ġà¤ĺà¤Łà¤ķà¤ķ":4743,"Ġà¤¬à¤°à¤¸à¤¯":4744,"Ġà¤ıà¤¯à¤°à¤ª":4745,"Ġà¤ıà¤®à¤ıà¤«à¤ıà¤²":4746,"\";":4747,"à¤°à¤¯à¤®":4748,"à¤°à¤½":4749,"Ġà¤ķà¤ľ":4750,"à¤¤à¤ĸ":4751,"à¤ķà¤ªà¤Ł":4752,"à¤ķà¤Łà¤®":4753,"à¤²à¤µà¤¤":4754,"à¤²à¤¹à¤¨":4755,"à¤¯à¤ĸ":4756,"à¤¯à¤ŀ":4757,"à¤¯à¤«à¤²":4758,"Ġà¤¸à¤¶":4759,"Ġà¤¸à¤Łà¤²":4760,"à¤¹à¤¸à¤®":4761,"à¤®à¤®à¤¤":4762,"à¤®à¤¬à¤°":4763,"Ġà¤ªà¤Łà¤°":4764,"Ġà¤ªà¤ĩà¤¸":4765,"à¤µà¤¯à¤µ":4766,"à¥ĭà¥¥à¥¥":4767,"à¤¸à¤½":4768,"Ġà¤®à¤ĩ":4769,"Ġà¤®à¤¤à¤®":4770,"Ġà¤ľà¤ªà¤¤":4771,"Ġà¤ľà¤Ļ":4772,"à¤¦à¤¡":4773,"Ġà¤¨à¤²à¤¸":4774,"Ġà¤¬à¤Ļ":4775,"Ġà¤¬à¤ĩà¤¸":4776,"Ġà¤¬à¤Łà¤²à¤°":4777,"Ġà¤¹à¤¨à¤¨":4778,"à¤Łà¤§":4779,"à¤Łà¤ľ":4780,"Ġà¤¦à¤¸à¤¨":4781,"à¤§à¤ļà¤¨":4782,"Ġà¤ıà¤®à¤°":4783,"à¤·à¤®à¤¸":4784,"à¤ľà¤¡":4785,"à¤ľà¤²à¤ķ":4786,"à¤ľà¤¦à¤°à¤¬":4787,"à¤ļà¤°à¤®":4788,"Ġà¤ªà¤°à¤§à¤°":4789,"à¤ĸà¤ĩà¤¤":4790,"à¤ıà¤¥":4791,"à¤ıà¤ķà¤¤":4792,"à¤ıà¤ıà¤Ł":4793,"Ġà¤¯à¤µ":4794,"Ġà¤¯à¤®à¤¦":4795,"Ġà¤ļà¤¹à¤²":4796,"Ġà¤ļà¤ªà¤²":4797,"Ġà¤Īà¤ķà¤°":4798,"à¥ĭà¤Ĥ)":4799,"Ġà¤ıà¤ķà¤Ĺ":4800,"Ġà¤ħà¤¨à¤§":4801,"Ġà¤¬à¤¨à¤²à¤¹":4802,"Ġà¤¹à¤®à¤ķà¤°":4803,"à¤¯à¤ķà¤ķ":4804,"à¤¾à¤Ĥ,":4805,"Ġà¤ĩà¤®à¤°":4806,"à¤Ĩà¤¦à¤°":4807,"à¤¿à¤Ĥ)":4808,"à¤¿à¤Ĥ;":4809,"à¤¨à¤ķà¤¤":4810,"à¤¨à¤ķà¤¸":4811,"Ġà¤¸à¤¬à¤Ĺ":4812,"à¤łà¤Ĺà¤°":4813,"à¤²à¤¨à¤®":4814,"Ġà¤«à¤¤":4815,"Ġà¤Łà¤ļ":4816,"à¤¯à¤®à¤µà¤°":4817,"à¤¯à¤®à¤¸à¤Ń":4818,"à¤¤à¤°à¤²":4819,"à¤Ŀà¤°":4820,"à¤°à¤®à¤¤":4821,"à¤½à¤Ńà¤µà¤¤":4822,"Ġà¤¸à¤ķà¤¤à¤¯":4823,"à¤¦à¤ķà¤¸":4824,"à¤ľà¤¨à¤ª":4825,"à¤ľà¤¨à¤ľ":4826,"Ġà¤īà¤¦à¤¯à¤ķ":4827,"à¤¢à¤ķ":4828,"Ġà¤ħà¤¸à¤®à¤¯":4829,"Ġà¤®à¤¨à¤Ń":4830,"à¤¦à¤°à¤¹":4831,"à¤®à¤¤à¤ķ":4832,"Ġà¤ĳà¤¸à¤²":4833,"Ġà¤īà¤²à¤Ŀ":4834,"à¤°à¤µà¤§":4835,"Ġà¤¤à¤ķà¤²à¤ķ":4836,"à¤ħà¤µ":4837,"Ġà¤ħà¤Ńà¤Ļ":4838,"à¤Ĺà¤²à¤¦":4839,"Ġà¤łà¤¹":4840,"à¤¤à¤¨à¤Ń":4841,"à¤¯à¤¸à¤Ńà¤ķ":4842,"Ġà¤īà¤łà¤²à¤¨":4843,"Ġà¤¤à¤ĸà¤¨à¤¤à¤ĸà¤¨":4844,"Ġà¤¸à¤¤à¤Ń":4845,"à¤¸à¤²à¤¹":4846,"à¤®à¤¸à¤Ń":4847,"Ġà¤¬à¤°à¤Ĺà¤¦":4848,"Ġà¤¬à¤°à¤Ĺà¤¦à¤ķ":4849,"Ġà¤Ĳà¤ļ":4850,"à¤¯à¤£à¤°":4851,"Ġà¤Ĩà¤ľà¤ķ":4852,"Ġà¤Ĩà¤Īà¤¬":4853,"Ġà¤°à¤ĸà¤²à¤¥":4854,"Ġà¤°à¤ĸà¤²à¤ĸ":4855,"à¤²à¤Ĺà¤£":4856,"à¤²à¤Ĺà¤Ńà¤Ĺ":4857,"Ġ[à¥¤":4858,"Ġà¤¨à¤®à¤¹à¤°":4859,"à¤§à¤ķà¤¦":4860,"à¥ĩ):":4861,"Ġà¤¦à¤¶à¤¶":4862,"Ġà¤¦à¤¶à¤¹à¤°":4863,"à¤ĳà¤¨à¤²":4864,"Ġà¤ľà¤Ĺà¤¹à¤ľà¤Ĺà¤¹":4865,"Ġà¤ªà¤¸à¤°à¤¤":4866,"Ġà¤¬à¤¦à¤¤à¤°":4867,"à¥§à¥ªà¥§":4868,"à¥§à¥ªà¥Ń":4869,"Ġà¤Ĺà¤ªà¤Ĺà¤ª":4870,"Ġà¤ıà¤Ĩà¤Īà¤ıà¤«":4871,"à¥ĩ',":4872,"Ġà¥¨à¥¦à¥¦":4873,"Ġà¥¨à¥¦à¥§à¥Ń":4874,"Ġ];":4875,"Ġà¤¹à¤¤à¤Ń":4876,"à¤Ķà¤·à¤§":4877,"Ġà¤¤à¤Łà¤ªà¤°":4878,"Ġà¤®à¤¶à¤¹":4879,"à¤Ĺà¤łà¤¨à¤ķ":4880,"à¤ıà¤ıà¤¸à¤Ĩà¤Īà¤¸":4881,"à¤®à¤¸à¤®à¤°":4882,"Ġà¤Ĺà¤°à¤¦à¤¨":4883,"':":4884,"Ġà¥į":4885,"à¥ĩ?":4886,"à¤¨à¤½":4887,"à¤¨à¤ªà¤¤":4888,"à¤¤à¤²à¤¹":4889,"à¤ķà¤ľà¤¨":4890,"à¤ķà¤«à¤°":4891,"à¤²à¤ı":4892,"à¤²à¤½":4893,"à¤²à¤ľà¤¨":4894,"à¤²à¤®à¤£":4895,"à¤²à¤§à¤°":4896,"à¤¯à¤·":4897,"à¤¯à¤ªà¤¤":4898,"à¤¯à¤¹à¤°":4899,"Ġà¤¸à¤°à¤¦":4900,"Ġà¤¸à¤ıà¤¹":4901,"à¤®à¤¯à¤µ":4902,"à¤®à¤Ńà¤°":4903,"Ġà¤ªà¤¦à¤®":4904,"Ġà¤ªà¤Ĺà¤¡":4905,"à¤µà¤¯à¤µà¤²":4906,"à¤¸à¤ĸ":4907,"à¤¸à¤®à¤¨":4908,"à¤¸à¤«à¤°":4909,"Ġà¤®à¤ŀ":4910,"à¥ģ-":4911,"Ġà¤ľà¤²à¤¯":4912,"à¤ªà¤²à¤ķ":4913,"à¤ªà¤¶à¤¨":4914,"à¤ªà¤®à¤¤":4915,"Ġà¤Ĩà¤·":4916,"à¥Ī]":4917,"à¥Īà¤ĥà¥¥":4918,"à¤Ĺà¤ħ":4919,"à¤Ĺà¤¨à¤°":4920,"Ġà¤µà¤ŀ":4921,"Ġà¤µà¤¨à¤¦":4922,"Ġà¤¦à¤¯à¤¨":4923,"à¤¬à¤§":4924,"à¤§à¤µà¤ķ":4925,"à¤·à¤¯à¤µ":4926,"à¤·à¤°à¤¹":4927,"à¤·à¤¤à¤®":4928,"à¤£à¤²":4929,"Ġà¤²à¤Ń":4930,"Ġà¤²à¤ıà¤²":4931,"Ġà¤²à¤¹à¤²à¤¹":4932,"à¤¥à¤¨à¤ķ":4933,"à¤¥à¤²à¤ķ":4934,"à¤ľà¤§à¤°":4935,"Ġà¤Ľà¤ªà¤²":4936,"à¤ļà¤°à¤ķ":4937,"Ġà¤¤à¤°à¤£":4938,"Ġà¤¤à¤Łà¤¸":4939,"à¤¡à¤ıà¤ķ":4940,"Ġà¤Ĺà¤¸":4941,"Ġà¤Ĺà¤ŀ":4942,"à¤ĸà¤¯à¤ķ":4943,"à¤Ńà¤ľ":4944,"à¤Ńà¤¶":4945,"à¤ĩà¤§":4946,"Ġà¤īà¤Ńà¤¯":4947,"Ġà¤¶à¤ļ":4948,"Ġà¤¯à¤ľà¤¨":4949,"Ġà¤¸à¤®à¤°à¤¸à¤¤":4950,"Ġà¤Īà¤²":4951,"Ġà¤Īà¤ľ":4952,"Ġà¤ħà¤¨à¤ĺ":4953,"à¤°à¤£à¤µ":4954,"à¤°à¤£à¤¶":4955,"à¤°à¤¤à¤µ":4956,"à¤Īà¤¥":4957,"à¤Īà¤ĵ":4958,"à¤«à¤£":4959,"à¤¾à¤ģ)":4960,"à¤ıà¤²à¤¬":4961,"à¤Ĩà¤ļ":4962,"Ġà¤¸à¤ķà¤²à¤ķà¤²":4963,"à¤²à¤¨à¤¹":4964,"à¤¤à¤°à¤ľ":4965,"à¤¤à¤°à¤¹à¤ķ":4966,"à¤ĺà¤ľ":4967,"à¤ĺà¤¡":4968,"Ġà¤Ķà¤ķ":4969,"à¤Ĩà¤°à¤Īà¤¸":4970,"à¤ĩà¤¤à¤¨":4971,"Ġà¤ķà¤ıà¤²à¤ķà¤¨":4972,"à¤Ŀà¤¬à¤¯":4973,"Ġà¤¡à¤«":4974,"Ġà¤¡à¤Łà¤²":4975,"à¤µà¤°à¤«":4976,"Ġà¤ķà¤¹à¤ķ":4977,"Ġà¤īà¤ªà¤¬":4978,"Ġà¤īà¤ªà¤°à¤ķ":4979,"Ġà¤īà¤ªà¤®à¤¹":4980,"à¤µà¤¨à¤ļà¤°":4981,"Ġà¤®à¤¹à¤¦":4982,"Ġà¤®à¤¹à¤Ĺ":4983,"Ġà¤Ĩà¤¦à¤°à¤¸à¤¤":4984,"à¤¶à¤¨à¤µ":4985,"à¤ĵà¤Ĩà¤°":4986,"à¤īà¤¡à¤°":4987,"à¤·à¤£à¤Ń":4988,"Ġà¤ķà¤®à¤ł":4989,"Ġà¤ķà¤°à¤¬à¤¯":4990,"Ġà¤īà¤ļà¤ķ":4991,"à¤ķà¤¨à¤¨":4992,"Ġà¤¤à¤ķà¤²à¤¨":4993,"à¤¤à¤µà¤¸":4994,"à¤ķà¤²à¤¹":4995,"Ġ')":4996,"Ġà¤¸à¤®à¤Ŀà¤²à¤ķ":4997,"Ġà¤ıà¤¹à¤¨à¤¹":4998,"Ġà¤łà¤ł":4999,"à¤Ĩà¤Īà¤ª":5000,"à¤¨à¤µà¤¦":5001,"Ġà¤¬à¤²à¤µà¤¤":5002,"à¤°à¤²à¤ĸ":5003,"Ġà¤Ŀà¤Łà¤ķ":5004,"à¤®à¤£à¤¸":5005,"Ġà¤Ĭà¤·":5006,"à¤¶à¤ķà¤¶":5007,"Ġà¤¨à¤µà¤¸":5008,"à¤µà¤¸à¤¹":5009,"Ġà¤Ĩà¤ªà¤¸à¤®":5010,"Ġà¤Ĩà¤Īà¤ķ":5011,"Ġà¤Ĩà¤Īà¤µ":5012,"Ġà¤ıà¤®à¤¡":5013,"Ġà¤ıà¤®à¤ı":5014,"Ġà¤Ńà¤¯à¤Ļ":5015,"à¤¬à¤²à¤Łà¤¨":5016,"Ġà¤ľà¤Ĺà¤¬":5017,"Ġà¤¬à¤¸à¤¬":5018,"à¤ķà¤ķà¤¥":5019,"à¤ķà¤Łà¤¤à¤®":5020,"Ġà¤ķà¤¯à¤ķà¤¯":5021,"Ġà¥©à¥Ń":5022,"Ġà¥©à¥®":5023,"Ġà¤ĵà¤¤à¤ı":5024,"à¥Ģ\":":5025,"Ġà¥ªà¥©":5026,"Ġà¤Ĩà¤īà¤Łà¤²":5027,"Ġà¤Ĩà¤īà¤Łà¤¸":5028,"Ġà¤ħà¤«à¤µ":5029,"Ġà¤īà¤ľà¤¡":5030,"à¥§à¥ªà¥«":5031,"Ġ[-])":5032,"Ġà¤²à¤²à¤ļ":5033,"Ġà¤ıà¤ıà¤ª":5034,"à¥¦à¥¦à¥¦":5035,"Ġà¤ľà¤¯à¤¬à¤¹":5036,"Ġà¤ĵà¤łà¤Ĺà¤¨":5037,"Ġà¤ľà¤ĩà¤ķà¤¨":5038,"Ġà¥łà¤·":5039,"à¤¾à¥Ī":5040,"à¤°à¤Ĺà¤¨":5041,"à¥ĩ--":5042,"à¤¨à¤·":5043,"à¤¨à¤ľà¤¨":5044,"à¤¨à¤¹à¤°":5045,"à¤¨à¤®à¤°":5046,"à¤¨à¤¬à¤¯":5047,"à¤¤à¤Ļ":5048,"à¤¤à¤¬à¤¹":5049,"à¤ķà¤¸à¤®":5050,"à¤²à¤ªà¤¨":5051,"à¤²à¤ļà¤¨":5052,"à¤²à¤§à¤¨":5053,"à¤²à¤ľà¤²":5054,"à¤¯à¤Łà¤®":5055,"Ġà¤¸à¤¸à¤°":5056,"Ġà¤¸à¤°à¤µ":5057,"Ġà¤¸à¤§à¤¨":5058,"à¥Ģ?":5059,"à¤¹à¤Ń":5060,"à¤®à¤·":5061,"à¤®à¤Ŀ":5062,"à¤¸à¤¥":5063,"Ġà¤ħà¤ķà¤°à¤£":5064,"à¥ģà¥į":5065,"Ġà¤ľà¤ĺà¤¨":5066,"Ġà¤ľà¤ķà¤¡":5067,"Ġà¤ľà¤ıà¤¬":5068,"à¤ªà¤¯à¤¨":5069,"à¤¦à¤°à¤®":5070,"Ġà¤¨à¤µà¤§":5071,"Ġà¤¨à¤ĵà¤¤":5072,"Ġà¤¬à¤²à¤ķ":5073,"à¥Ī),":5074,"Ġà¤¹à¤ļ":5075,"Ġà¤¹à¤Łà¤¬":5076,"à¤Łà¤Ł":5077,"à¤Łà¤¶":5078,"à¤Łà¤¤à¤¨":5079,"à¤Łà¤ªà¤¦":5080,"à¤Łà¤Ĩà¤īà¤Ł":5081,"à¤Ĺà¤¸à¤Ń":5082,"à¤Ĺà¤°à¤£à¤ķ":5083,"Ġà¤µà¤¡":5084,"Ġà¤¦à¤²à¤¨":5085,"Ġà¤¦à¤°à¤®":5086,"à¤¬à¤¢":5087,"à¥Ĥ/":5088,"Ġà¤ıà¤¬à¤°":5089,"à¤·à¤Ĺ":5090,"à¤·à¤°à¤¤":5091,"à¤·à¤¸à¤¨":5092,"Ġà¤°à¤¶à¤¬":5093,"à¤ģà¥¥":5094,"Ġà¤²à¤¦":5095,"Ġà¤²à¤¯à¤¬":5096,"à¤¥à¤¦":5097,"à¤¶à¤ķà¤°":5098,"à¤ļà¤ª":5099,"à¤ļà¤¨à¤ķ":5100,"à¤ļà¤°à¤£à¤ķ":5101,"à¤¡à¤ıà¤«":5102,"Ġà¤ªà¤°à¤¤à¤°":5103,"Ġà¤Ńà¤ľà¤¤":5104,"Ġà¤Ńà¤°à¤£à¤ª":5105,"Ġà¤ĵà¤¯":5106,"Ġà¤ĵà¤ıà¤¹":5107,"Ġà¤ĵà¤ıà¤¨à¤ı":5108,"Ġà¤Īà¤¤":5109,"à¤ªà¤¨à¤¸":5110,"Ġà¤§à¤°à¤¯":5111,"Ġà¤§à¤¨à¤¤":5112,"Ġà¤ĸà¤ļ":5113,"à¤°à¤£à¤ķà¤¨":5114,"à¤Īà¤ı":5115,"à¤Īà¤ıà¤ıà¤²":5116,"Ġà¤¹à¤®à¤¸à¤Ń":5117,"à¤«à¤²à¤ķ":5118,"à¤¿à¤Ĥà¥¥à¥¥":5119,"à¤łà¤ª":5120,"à¤łà¤¦":5121,"à¤łà¤¬":5122,"Ġà¤ħà¤ªà¤¨à¤¤":5123,"à¤¯à¤®à¤¸à¤¨":5124,"à¤²à¤¯à¤¥":5125,"Ġà¤°à¤¹à¤¤à¤¨":5126,"à¤ĺà¤°à¤®":5127,"Ġà¤Ķà¤²":5128,"à¤Ĩà¤°à¤ıà¤®à¤ı":5129,"à¤°à¤®à¤¯":5130,"à¤µà¤°à¤ľ":5131,"Ġà¤¤à¤°à¤²":5132,"à¤µà¤²à¤¸":5133,"à¤ŀà¤ķà¤°":5134,"à¤¢à¤¤à¤®":5135,"à¤¦à¤°à¤¨":5136,"à¤°à¤µà¤ª":5137,"à¤°à¤µà¤¶":5138,"Ġà¤¤à¤ķà¤ĩà¤¤":5139,"Ġà¤ľà¤¹à¤µ":5140,"à¤ħà¤·":5141,"à¤ħà¤Ľ":5142,"Ġà¤°à¤ĸà¤ķà¤°":5143,"Ġà¤ħà¤²à¤Ļ":5144,"Ġà¤ªà¤¤à¤²":5145,"Ġà¤ħà¤Ńà¤¦":5146,"Ġ,]":5147,"à¤¤à¤®à¤¸":5148,"à¤¯à¤²à¤Ł":5149,"Ġà¤¸à¤°à¤¨":5150,"Ġà¤¸à¤°à¤¬":5151,"Ġà¤¬à¤²à¤ª":5152,"Ġà¤¬à¤²à¤ľ":5153,"à¤¹à¤¨à¤¬":5154,"Ġà¤ıà¤ķà¤°à¤¸":5155,"Ġà¤Ŀà¤°":5156,"Ġà¤Ĭà¤²à¤µà¤°":5157,"Ġà¤ķà¤²à¤ª":5158,"à¤Łà¤²à¤Ĩà¤Īà¤Ĩà¤Ī":5159,"Ġà¤¬à¤°à¤Ľ":5160,"à¤ıà¤ļà¤Ĩà¤Ī":5161,"Ġà¤Ĩà¤¨à¤Ĩà¤¨":5162,"à¤°à¤¥à¤®à¤¤":5163,"à¤µà¤£à¤µà¤ļà¤¨":5164,"à¤¶à¤ķà¤ķ":5165,"à¤¨à¤¸à¤ª":5166,"à¤ıà¤«à¤ľ":5167,"Ġà¤¤à¤¤à¤¹":5168,"à¤ĩà¤Łà¤¹":5169,"Ġà¤ªà¤¢à¤²à¤¹":5170,"à¤¯à¤£à¤¤":5171,"Ġà¤ħà¤ķà¤¥à¤¨":5172,"Ġà¤ıà¤¤à¤ı":5173,"à¤ıà¤¨à¤¡à¤¬":5174,"à¤°à¤ªà¤ŀ":5175,"Ġà¤Ńà¤°à¤¤à¤µ":5176,"Ġà¤Ĩà¤®à¤¦à¤¨":5177,"à¤Ĺà¤¦à¤µà¤ļà¤¨":5178,"à¤ıà¤®à¤ıà¤«":5179,"Ġà¤ľà¤¨à¤ķà¤µ":5180,"à¤°à¤ļà¤¢":5181,"Ġà¤ľà¤¤à¤¹à¤¨":5182,"à¤ĳà¤¨à¤µà¤°":5183,"Ġà¤¯à¤ľà¤®":5184,"à¤ļà¤ķà¤®":5185,"à¥įà¥¤à¥¤":5186,"Ġà¤ķà¤Łà¤¬":5187,"à¤ĸà¤°à¤ļà¤¨":5188,"à¤Ĭà¤¨":5189,"Ġà¤µà¤¶à¤®":5190,"Ġà¤ĵà¤¤à¤½":5191,"Ġà¤¨à¤°à¤°":5192,"Ġà¤°à¤¥à¤¯":5193,"Ġà¤°à¤¥à¤ªà¤°":5194,"\");":5195,"Ġà¤ħà¤µà¤¤à¤°à¤£":5196,"Ġà¤ıà¤ıà¤¸à¤ıà¤ķ":5197,"à¤ªà¤¹à¤ļ":5198,"à¥§à¥«à¥¨":5199,"à¥§à¥«à¥«":5200,"Ġà¤īà¤¹à¤¹":5201,"Ġà¥§à¥¦à¥®":5202,"Ġà¤Ĺà¤¹à¤¯":5203,"Ġà¤Ńà¤Łà¤ķà¤²":5204,"Ġà¤īà¤¤à¤°à¤¨":5205,"Ġ]à¥¤":5206,"Ġà¤Ĩà¤¸à¤¨à¤ªà¤°":5207,"Ġ[-],":5208,"Ġà¤¨à¤°à¤ķà¤ķ":5209,"Ġà¤ĸà¤¸à¤²à¤¹":5210,"Ġà¤ıà¤¯à¤°à¤¸à¤°":5211,"Ġà¤ıà¤ıà¤¡":5212,"Ġà¤ĵà¤µà¤°à¤¡":5213,"Ġà¤ĩà¤¦à¤®à¤ķ":5214,"Ġà¤īà¤ĸà¤¡":5215,"à¤īà¤ªà¤§":5216,"Ġà¤ļà¤®à¤¡":5217,"Ġà¤¨à¤ľà¤°à¤¬à¤¨":5218,"à¤ıà¤®à¤Ĩà¤Īà¤ı":5219,"à¥Ĳà¥Ĳ":5220,"Ġà¤Īà¤ıà¤¸à¤ĵà¤ıà¤¸":5221,"Ġà¤ħà¤ļà¤°à¤ľ":5222,"Ġà¤ıà¤®à¤Ĩà¤Īà¤ıà¤®à¤Ĩà¤Īà¤ı":5223,"Ġà¤ĩà¤®à¤°à¤ľ":5224,"Ġà¤²à¤¯à¤¬à¤¦":5225,"?;":5226,"à¤°à¤Ļ":5227,"à¤°à¤Ĺà¤¦":5228,"à¤¿âĢĶ":5229,"Ġà¤ķà¤ļà¤°":5230,"Ġà¤ķà¤ĩà¤ķ":5231,"à¤¨à¤ĩ":5232,"à¤¨à¤®à¤¨":5233,"à¤¨à¤¬à¤²":5234,"à¤¨à¤¬à¤¦":5235,"à¤¤à¤§":5236,"à¤¤à¤Ĺà¤°":5237,"à¤¤à¤¸à¤Ńà¤ķ":5238,"à¤ķà¤ıà¤²":5239,"à¤ķà¤²à¤ķ":5240,"à¤ķà¤®à¤¨":5241,"à¤ķà¤ªà¤°à¤®":5242,"à¤²à¤Ĭ":5243,"à¤¯à¤Ĺà¤£":5244,"Ġà¤¸à¤¨à¤²":5245,"Ġà¤¸à¤ĺà¤¨":5246,"à¤¹à¤Ī":5247,"à¤®à¤¶à¤ķ":5248,"à¤®à¤¯à¤µà¤²":5249,"Ġà¤ªà¤ıà¤²":5250,"Ġà¤ªà¤¯à¤¸":5251,"à¤µà¤µà¤²":5252,"à¤µà¤¦à¤°":5253,"à¤µà¤ķà¤¨":5254,"à¤µà¤¹à¤¤":5255,"à¤¸à¤ħà¤ª":5256,"Ġà¤ħà¤Ĺà¤¨":5257,"Ġà¤ľà¤ªà¤²":5258,"Ġà¤ľà¤ĩà¤ķ":5259,"à¤ªà¤Ĺ":5260,"à¤¦à¤®à¤¤":5261,"Ġà¤¨à¤²à¤¨":5262,"Ġà¤Ĩà¤®à¤ľ":5263,"Ġà¤¬à¤¥":5264,"Ġà¤¬à¤¦à¤°":5265,"Ġà¤¬à¤ªà¤¹":5266,"à¥Ī'à¥¤":5267,"Ġà¤¹à¤°à¤¹":5268,"Ġà¤¹à¤Łà¤²":5269,"Ġà¤¹à¤ıà¤¤":5270,"à¤Łà¤¨à¤ķ":5271,"à¤Łà¤¬à¤°":5272,"à¤Ĺà¤°à¤¤":5273,"à¤Ĺà¤µà¤°":5274,"Ġà¤¦à¤¹à¤ķ":5275,"à¤¬à¤²à¤ķ":5276,"à¤§à¤ļ":5277,"à¤§à¤µà¤¸":5278,"Ġà¤ıà¤¡à¤²à¤°":5279,"à¤·à¤²":5280,"à¤·à¤ķà¤°":5281,"à¤·à¤¯à¤¸":5282,"à¤£à¤¬":5283,"Ġà¤²à¤¦à¤²":5284,"à¤¥à¤°à¤ķ":5285,"à¤ľà¤®à¤¨":5286,"à¤ľà¤µà¤¸":5287,"à¤¶à¤¯à¤¨":5288,"à¤¶à¤Ńà¤ķ":5289,"à¤ļà¤ªà¤°":5290,"à¤ļà¤ªà¤¡":5291,"à¥ĩà¤Ĥà¥¥":5292,"Ġà¤ķà¤°à¤¯à¤®":5293,"Ġà¤¤à¤ķà¤¯":5294,"Ġà¤¤à¤®à¤°":5295,"à¤¡à¤ķà¤°":5296,"à¤¡à¤ªà¤°":5297,"Ġà¤Ĺà¤ľà¤¬":5298,"Ġà¤ªà¤°à¤¸à¤¨":5299,"Ġà¤ªà¤°à¤µà¤°":5300,"Ġà¤ªà¤°à¤¤à¤¨":5301,"Ġà¤ªà¤°à¤µà¤¶":5302,"à¤ĸà¤ļ":5303,"Ġà¤Ńà¤°à¤¯":5304,"à¤ıà¤¬à¤²":5305,"à¤ĩà¤¯à¤¤":5306,"à¤ĩà¤¬à¤²":5307,"à¤ĩà¤¡à¤°":5308,"Ġà¤īà¤ķà¤Ł":5309,"à¤ķà¤°à¤¦":5310,"Ġà¤¯à¤®à¤²":5311,"Ġà¤¯à¤®à¤ª":5312,"Ġà¤ĵà¤ıà¤²":5313,"Ġà¥¤)":5314,"Ġà¤ıà¤ķà¤ł":5315,"à¤¼à¥¤":5316,"Ġà¤§à¤¤":5317,"Ġà¤§à¤¨à¤¸":5318,"Ġà¤ħà¤¨à¤¤":5319,"à¤°à¤£à¤¹":5320,"Ġà¤¬à¤¨à¤ķà¤°":5321,"Ġ(/":5322,"Ġà¤ĩà¤¨à¤µ":5323,"à¤¿à¤Ĥà¤ģ":5324,"Ġà¤«à¤ķà¤°":5325,"Ġà¤Łà¤¸":5326,"à¤¤à¤°à¤¨":5327,"Ġà¤Ķà¤¨":5328,"à¤Ĺà¤¤à¤µà¤¤":5329,"Ġà¤ķà¤ıà¤²à¤¹":5330,"Ġà¤¡à¤Łà¤¨":5331,"Ġà¤¸à¤Ńà¤ªà¤°":5332,"Ġà¤Ķà¤°à¤¦":5333,"Ġà¤¤à¤°à¤²à¤¤":5334,"Ġà¤ħà¤ªà¤²":5335,"Ġà¤ħà¤ªà¤¡":5336,"Ġà¤ħà¤ªà¤¸à¤µ":5337,"à¥Īà¤Ĥ)":5338,"Ġà¤ĺà¤¨à¤¨":5339,"Ġà¤ĺà¤®à¤¨":5340,"Ġà¤ĺà¤Łà¤¤":5341,"à¤ŀà¤µ":5342,"Ġà¤¸à¤¹à¤®":5343,"Ġà¤īà¤¤à¤°à¤¤":5344,"Ġà¤¥à¤²à¤¨":5345,"à¤ľà¤¨à¤¹":5346,"à¤¶à¤¨à¤®":5347,"à¤¦à¤¨à¤®":5348,"à¤¢à¤¨":5349,"à¤¢à¤¸":5350,"Ġ\"(":5351,"à¤ĵà¤¨à¤ķ":5352,"à¤īà¤µ":5353,"à¤īà¤¦à¤°":5354,"à¤īà¤Ĺà¤¨":5355,"à¤īà¤ªà¤¸":5356,"à¤¹à¤°à¤²":5357,"à¤¯à¤°à¤¡":5358,"Ġ,;":5359,"Ġà¤Ĩà¤Ĺà¤¨":5360,"Ġà¤ħà¤¤à¤¨":5361,"Ġà¤ľà¤¨à¤²à¤ķ":5362,"Ġà¤ľà¤¨à¤¬à¤°":5363,"à¥ĩà¥¤âĢĻ":5364,"à¤ıà¤¸à¤Ĩà¤Ī":5365,"à¤ªà¤ķà¤ķ":5366,"Ġà¤ıà¤ļà¤¬":5367,"Ġà¤Ńà¤Ĺà¤¬":5368,"Ġà¤ıà¤¸à¤Ĺà¤°":5369,"Ġà¤ıà¤¸à¤ıà¤²à¤ª":5370,"à¤®à¤£à¤®":5371,"Ġà¤ıà¤¨à¤Ĩà¤°à¤ıà¤®à¤ı":5372,"Ġà¤¬à¤¡à¤ª":5373,"à¤§à¤¨à¤¸":5374,"Ġà¤ķà¤°à¤¯à¤¬à¤²":5375,"Ġà¤¬à¤ļà¤¯":5376,"à¤Łà¤²à¤¹":5377,"Ġà¤¬à¤°à¤Ĺ":5378,"à¤ļà¤°à¤°":5379,"à¤ķà¤¤à¤µà¤°":5380,"Ġà¤īà¤¸à¤ķà¤°":5381,"à¤®à¤ľà¤ª":5382,"à¤®à¤ľà¤¬":5383,"Ġà¤Ĳà¤ķà¤°":5384,"à¤Ļà¤Łà¤¨":5385,"Ġà¤¨à¤µà¤ķà¤¨":5386,"Ġà¤ĭà¤·à¤¯":5387,"Ġà¤ľà¤²à¤°":5388,"Ġà¤ıà¤²à¤Īà¤¡":5389,"Ġà¤ļà¤°à¤£à¤®":5390,"Ġà¤ļà¤°à¤£à¤ª":5391,"Ġà¤ħà¤µà¤§à¤ªà¤¤":5392,"Ġà¤¸à¤ļà¤¸à¤ļ":5393,"Ġà¤°à¤ľà¤¸":5394,"à¤µà¤°à¤£à¤®":5395,"Ġà¤Ńà¤°à¤¤à¤¹":5396,"Ġà¤ĵà¤¤à¤¯à¤ĵà¤¤à¤¯":5397,"à¤·à¤®à¤¯":5398,"Ġà¥Ĳà¤ķ":5399,"Ġà¤¸à¤ľà¤¬":5400,"Ġà¤²à¤¡à¤ķ":5401,"âĢĻ,":5402,"à¤ľà¤Ĺà¤£":5403,"Ġà¤²à¤Ĺà¤¤à¤¨":5404,"Ġà¤ļà¤¢à¤¬":5405,"Ġà¤ľà¤Ĺà¤¤à¤ķ":5406,"Ġà¤ľà¤ĩà¤¸à¤¨à¤¹":5407,"à¤¸à¤¬à¤¹à¤ķ":5408,"Ġà¤ĵà¤¤à¤¬à¤¹":5409,"Ġà¥ªà¥§":5410,"Ġà¥ªà¥¨":5411,"à¤¿--":5412,"à¥§à¥ªà¥®":5413,"Ġà¤Ĺà¤®à¤Ľ":5414,"à¥§à¥«à¥¬":5415,"Ġà¤ħà¤¸à¤¹à¤ľ":5416,"Ġ%;":5417,"à¤Ĺà¤ªà¤Ĺ":5418,"Ġà¤ĵà¤µà¤°à¤°":5419,"Ġà¤ķà¤²à¤¶à¤¸":5420,"Ġà¤¦à¤¶à¤ķà¤£":5421,"à¤¨à¤Ĺà¤°à¤ª":5422,"Ġà¤Ĺà¤°à¤ľà¤²":5423,"Ġà¤²à¤¯à¤²à¤¯à¤ķà¤¯":5424,"Ġà¥łà¤¤":5425,"Ġà¤¬à¤¦à¤²à¤¯à¤µà¤²":5426,"Ġà¤Īà¤ıà¤ıà¤®":5427,"Ġà¤ħà¤²à¤ķà¤¤à¤°":5428,"à¤ıà¤®à¤ıà¤ļà¤ľ":5429,"Ġà¤Ĩà¤®à¤ľà¤¨à¤ķ":5430,"à¤ıà¤¸à¤Ĩà¤Īà¤Ĩà¤°à¤ĵ":5431,"à¤±":5432,"à¤¾à¤¾":5433,"à¤°à¤ªà¤¨":5434,"à¤°à¤Ī":5435,"Ġà¤ķà¤¨à¤¨":5436,"Ġà¤ķà¤ĵà¤¨":5437,"à¤¨à¤¤à¤°":5438,"à¤¨à¤Łà¤¨":5439,"à¤¤à¤Ĺà¤¤":5440,"à¤ķà¤µà¤¨":5441,"à¤²à¤®à¤¸":5442,"à¤²à¤²à¤¹":5443,"à¤²à¤²à¤¸":5444,"Ġà¤¸à¤°à¤¹":5445,"à¤Ĥ\"":5446,"à¤Ĥ-":5447,"à¤¹à¤½":5448,"à¤®à¤Ļ":5449,"à¤®à¤łà¤¤":5450,"Ġà¤ªà¤¤à¤°":5451,"Ġà¤ªà¤Ĺà¤²":5452,"Ġà¤ªà¤ĵà¤²à¤ķ":5453,"Ġà¤ªà¤Ĺà¤ªà¤Ĺ":5454,"à¤µà¤®à¤¨":5455,"à¤µà¤ĺà¤°":5456,"Ġà¤®à¤²à¤¯":5457,"Ġà¤®à¤½":5458,"Ġà¤®à¤¸à¤ķ":5459,"Ġà¤®à¤¦à¤®":5460,"à¥ģ\"":5461,"à¤ªà¤Ľ":5462,"à¤¦à¤ķà¤°":5463,"à¤¦à¤ķà¤°à¤£":5464,"à¤¦à¤ī":5465,"Ġà¤¨à¤«":5466,"Ġà¤¨à¤½":5467,"Ġà¤¨à¤ļà¤¬":5468,"Ġà¤¨à¤Łà¤µà¤°":5469,"Ġà¤Ĩà¤¸à¤°":5470,"Ġà¤Ĩà¤Ĺà¤°":5471,"Ġà¤Ĩà¤Ļ":5472,"Ġà¤Ĩà¤Ĭ":5473,"Ġà¤¬à¤ĩà¤¸à¤²":5474,"Ġà¤¹à¤¯à¤¬":5475,"à¤Łà¤°à¤¹":5476,"à¤Łà¤¸à¤Ń":5477,"à¤Łà¤¦à¤²":5478,"à¤Ĺà¤«":5479,"Ġà¤¦à¤ıà¤²à¤¨":5480,"à¤¬à¤°à¤¸":5481,"à¤¬à¤¨à¤ķà¤°":5482,"à¤¬à¤ıà¤ķ":5483,"à¤¬à¤Łà¤°à¤µà¤°":5484,"à¤§à¤¹":5485,"à¤§à¤°à¤¤":5486,"à¤§à¤Ĺà¤¦":5487,"Ġà¤ıà¤¤à¤µ":5488,"Ġà¤ıà¤¥à¤°":5489,"Ġà¤ıà¤ıà¤ı":5490,"à¤·à¤°à¤£":5491,"à¤·à¤¯à¤°":5492,"à¤·à¤®à¤£":5493,"à¤£à¤¯à¤®":5494,"à¤£à¤ªà¤°":5495,"Ġà¤°à¤¸à¤¨":5496,"à¤ľà¤Ĺà¤¤":5497,"à¤ľà¤°à¤¬":5498,"Ġà¤Ľà¤Ĳà¤¨":5499,"à¤ļà¤¤à¤¤":5500,"Ġà¤ķà¤°à¤¯à¤²":5501,"à¤¡à¤¹":5502,"à¤¡à¤ıà¤²à¤Ĩà¤°":5503,"à¤¡à¤Łà¤¨":5504,"à¤¡à¤¨à¤°":5505,"Ġà¤Ĺà¤Ł":5506,"Ġà¤Ĺà¤Ľ":5507,"Ġà¤Ĺà¤¨à¤¯":5508,"à¤ĸà¤¯à¤µ":5509,"Ġà¤Ńà¤Ĺà¤²":5510,"Ġà¤Ńà¤¨à¤¹":5511,"Ġà¤Ńà¤ľà¤¹":5512,"à¤ıà¤¬à¤°":5513,"à¤Ńà¤Ļ":5514,"à¤ĩà¤ªà¤ķ":5515,"à¤ĩà¤ıà¤ķ":5516,"Ġà¤īà¤Ł":5517,"à¤ķà¤°à¤²":5518,"à¤ķà¤°à¤¸":5519,"à¤ķà¤°à¤¶":5520,"Ġà¤ĵà¤ªà¤²":5521,"Ġà¤Ľà¤²à¤Ľ":5522,"Ġà¤ļà¤¶":5523,"Ġà¤ļà¤ªà¤Ł":5524,"Ġà¤ıà¤ķà¤ķ":5525,"à¤¼à¥Ģà¤Ĥ,":5526,"à¥ĥà¥į":5527,"Ġà¤ħà¤¨à¤ªà¤¢":5528,"à¤°à¤¤à¤ª":5529,"à¤°à¤ķà¤®":5530,"à¤°à¤ķà¤ķà¤¨":5531,"à¤°à¤ķà¤¸à¤Ń":5532,"à¤¯à¤ķà¤¥":5533,"Ġ($":5534,"Ġà¤ĩà¤°à¤µ":5535,"à¤Ĩà¤ĩà¤¨":5536,"à¤Ĩà¤īà¤°":5537,"à¤¨à¤ķà¤²":5538,"à¤ĩà¤²à¤®":5539,"Ġà¤«à¤¸":5540,"Ġà¤Łà¤¨à¤²":5541,"à¤¯à¤®à¤Ĺ":5542,"à¤¯à¤®à¤¨à¤ķ":5543,"à¤ªà¤°à¤¯":5544,"Ġà¤°à¤¹à¤¯à¤µ":5545,"Ġà¤°à¤¹à¤®à¤¤":5546,"à¤ĺà¤µà¤Ĺ":5547,"à¤Ĺà¤¤à¤®":5548,"Ġà¤¡à¤°à¤²":5549,"à¤½à¤Ĺ":5550,"à¤½à¤¹à¤®":5551,"Ġà¤ħà¤ªà¤¹":5552,"à¤µà¤¨à¤¤":5553,"Ġà¤ĳà¤¨à¤°":5554,"à¤²à¤ķà¤Ł":5555,"à¤ŀà¤Ń":5556,"à¤¦à¤ķà¤¸à¤Ńà¤ķ":5557,"à¤ľà¤¨à¤¤":5558,"à¤ľà¤¨à¤¸":5559,"Ġà¤ıà¤«à¤ıà¤¸à¤Ĩà¤°":5560,"Ġà¤²à¤Ĺà¤¹":5561,"Ġ\"'":5562,"Ġà¤ħà¤¹à¤Ļ":5563,"à¤īà¤¬":5564,"à¤¦à¤°à¤ª":5565,"à¤®à¤¤à¤®":5566,"à¤·à¤£à¤¸":5567,"Ġà¤ķà¤®à¤£":5568,"Ġà¤Ĩà¤¯à¤¸":5569,"à¤Łà¤°à¤¬":5570,"à¤Łà¤°à¤ļ":5571,"à¤ħà¤¸à¤²":5572,"à¤ħà¤µà¤®":5573,"Ġà¤¹à¤°à¤Ĺ":5574,"Ġà¤¹à¤°à¤¯à¤µ":5575,"Ġà¤ħà¤µà¤¦":5576,"Ġà¤°à¤ĸà¤½":5577,"à¤Ĺà¤²à¤°":5578,"Ġà¤¸à¤®à¤Ŀà¤ķà¤°":5579,"Ġà¤ľà¤¨à¤ļ":5580,"Ġà¤ľà¤¨à¤Ń":5581,"à¤¤à¤¨à¤®":5582,"à¤¨à¤µà¤¸":5583,"Ġà¤Ĩà¤ļà¤°à¤£à¤Ń":5584,"Ġà¤¸à¤¦à¤Ĺ":5585,"Ġà¤Ŀà¤ªà¤ķ":5586,"Ġà¤ķà¤¨à¤¯":5587,"à¤¤à¤ķà¤¹":5588,"à¤¤à¤ķà¤ªà¤°":5589,"Ġà¤ĺà¤°à¤¨":5590,"à¤µà¤£à¤¦":5591,"à¤¨à¤¸à¤¹":5592,"à¤ıà¤«à¤¡":5593,"à¤ıà¤«à¤ıà¤¸":5594,"à¤ıà¤«à¤ıà¤¨":5595,"Ġà¤¨à¤µà¤ľ":5596,"à¥ªà¥¨à¥ª":5597,"Ġà¤ĭà¤ķ":5598,"Ġà¤§à¤¨à¤®":5599,"Ġà¤ķà¤ªà¤Łà¤®":5600,"à¤¡à¤²à¤Ĺ":5601,"Ġà¤ħà¤ķà¤¬à¤°":5602,"Ġà¤ıà¤¤à¤¦":5603,"à¤ķà¤¹à¤®":5604,"Ġà¤Ńà¤¯à¤ī":5605,"à¤ªà¤Łà¤¯":5606,"à¤¨à¤®à¤µ":5607,"à¤·à¤¸à¤Ĺà¤£à¤ķ":5608,"Ġà¤Ńà¤°à¤¤à¤¶à¤¤":5609,"à¤Ĺà¤¦à¤ľ":5610,"à¤·à¤®à¤§":5611,"à¤°à¤ļà¤¨à¤ķ":5612,"à¤ĳà¤Ł":5613,"Ġà¤¶à¤ªà¤¥à¤Ĺ":5614,"Ġà¤ħà¤ľà¤Ĺà¤°":5615,"Ġà¤¬à¤¨à¤¬à¤¯à¤µà¤²":5616,"Ġà¤ĺà¤Łà¤¯":5617,"Ġà¤ħà¤«à¤¸à¤°":5618,"Ġà¥«à¥¦":5619,"à¤ķà¤ªà¤¡":5620,"Ġà¤ªà¤²à¤¡":5621,"Ġà¤Ĩà¤½à¤½à¤½":5622,"à¥ĩ\";":5623,"Ġà¤°à¤ļà¤²à¤ķ":5624,"Ġà¤Ńà¤ľà¤¨à¤¸":5625,"à¥§à¥«à¥§":5626,"à¥§à¥«à¥©":5627,"à¥§à¥«à¥ª":5628,"à¥§à¥«à¥Ń":5629,"ĠâĢľ[":5630,"Ġà¤ıà¤«à¤ıà¤®à¤ı":5631,"Ġà¤ĺà¤¨à¤Ĺà¤°":5632,"à¥§à¥Ńà¥«":5633,"à¥§à¥¬à¥©":5634,"Ġà¤ļà¤®à¤ķà¤¤":5635,"Ġà¤ħà¤®à¤°à¤¨":5636,"Ġà¤ķà¤ļà¤¹à¤°":5637,"Ġ]:":5638,"à¤Ķà¤ķ":5639,"Ġ[-])à¥¤":5640,"Ġà¤§à¤¯à¤²à¤¨":5641,"à¤¦à¤°à¤¤à¤®":5642,"Ġà¤īà¤§à¤µà¤ľ":5643,"Ġà¤ªà¤łà¤¨à¤ª":5644,"Ġà¤¤à¤²à¤µà¤ķ":5645,"Ġà¤ıà¤¯à¤°à¤¬":5646,"à¤°à¤ĺà¤£":5647,"à¤ĩà¤Łà¤°à¤°":5648,"Ġà¤¶à¤¹à¤°à¤®":5649,"à¤½à¤½à¤½":5650,"à¤¹à¤ªà¤ŀ":5651,"à¤Ĩà¤¹à¤Ĺà¤²":5652,"Ġà¤ıà¤¨à¤ıà¤ıà¤®à¤¡à¤¬":5653,"Ġ(âĢľ":5654,"Ġà¤¶à¤¹à¤¨à¤¹à¤¨":5655,")),":5656,"],":5657,"Ġà¥ĩ":5658,"à¤¾/":5659,"à¤¾à¥ĩ":5660,"à¤°à¤ļà¤°":5661,"à¤°à¤ıà¤®":5662,"Ġà¤ķà¤Ĺ":5663,"Ġà¤ķà¤²à¤¯":5664,"Ġà¤ķà¤Łà¤¨":5665,"Ġà¤ķà¤¸à¤²":5666,"Ġà¤ķà¤Łà¤¤":5667,"à¤¨à¤°à¤¸":5668,"à¤¨à¤ĩà¤¤":5669,"à¤¨à¤¯à¤¤":5670,"à¤¤à¤¯à¤¨":5671,"à¤ķà¤ªà¤¨":5672,"à¤ķà¤¹à¤¤":5673,"à¤ķà¤¤à¤ķ":5674,"à¤ķà¤ªà¤²":5675,"à¤¯à¤Ĺà¤¤":5676,"Ġà¤¸à¤¯à¤¨":5677,"Ġà¤¸à¤ªà¤¤":5678,"à¤¹à¤°à¤Ń":5679,"à¤¹à¤Ĺà¤°":5680,"à¤®à¤°à¤¤":5681,"à¤®à¤²à¤¨":5682,"à¤®à¤ªà¤¦":5683,"à¤®à¤īà¤¨":5684,"Ġà¤ªà¤¸à¤¨":5685,"Ġà¤ªà¤¦à¤¨":5686,"à¤µà¤Ī":5687,"à¤µà¤ķà¤²":5688,"à¤µà¤®à¤¸":5689,"à¤µà¤ļà¤°":5690,"à¤µà¤®à¤ľ":5691,"à¤¸à¤Ĺà¤°":5692,"Ġà¤ħà¤Ŀ":5693,"Ġà¤ħà¤¯à¤¤":5694,"Ġà¤ħà¤¦à¤®":5695,"Ġà¤ľà¤¤à¤°":5696,"Ġà¤ľà¤ªà¤¯":5697,"Ġà¤ľà¤łà¤°":5698,"à¤ªà¤°à¤¸":5699,"à¤ªà¤ķà¤¨":5700,"à¤ªà¤²à¤Ĺ":5701,"à¤ªà¤Ńà¤µà¤¨":5702,"à¤¦à¤²à¤ķ":5703,"à¤¦à¤ªà¤¤":5704,"Ġà¤¨à¤°à¤µà¤°":5705,"Ġà¤Ĩà¤²à¤¯":5706,"Ġà¤Ĩà¤ķà¤²":5707,"Ġà¤Ĩà¤¨à¤¤":5708,"Ġà¤¬à¤ĺ":5709,"Ġà¤¬à¤°à¤¬":5710,"Ġà¤¬à¤®à¤¬":5711,"Ġà¤¹à¤°à¤¯":5712,"à¤Łà¤ĩ":5713,"à¤Łà¤ªà¤¤":5714,"à¤Łà¤Ĺà¤°":5715,"à¤Ĺà¤ķà¤¨":5716,"à¤Ĺà¤°à¤¹":5717,"à¤Ĺà¤¹à¤°":5718,"Ġà¤µà¤¡à¤¨":5719,"à¤¬à¤ĩ":5720,"à¤¬à¤°à¤µ":5721,"à¤¬à¤¦à¤²":5722,"à¥Ĥ]":5723,"à¤§à¤Ĺà¤®":5724,"à¤·à¤°à¤ķ":5725,"à¤·à¤µà¤°":5726,"à¤·à¤°à¤¨":5727,"à¤£à¤¤à¤®":5728,"Ġà¤°à¤¡":5729,"Ġà¤²à¤«":5730,"Ġà¤²à¤Ńà¤¤":5731,"à¤ľà¤°à¤¤":5732,"Ġà¤Ľà¤®":5733,"Ġà¤Ľà¤ĵ":5734,"à¤Ľà¤ł":5735,"à¤¶à¤ļà¤¨":5736,"à¤ļà¤¯à¤ķ":5737,"Ġà¤ķà¤°à¤ļ":5738,"Ġà¤¤à¤ĸ":5739,"Ġà¤¤à¤ĩ":5740,"Ġà¤¤à¤°à¤¸":5741,"Ġà¤¤à¤¦à¤°":5742,"à¤¡à¤°à¤¹":5743,"à¤ĸà¤¬à¤°":5744,"Ġà¤Ńà¤°à¤ķ":5745,"Ġà¤Ńà¤¦à¤µ":5746,"à¤ıà¤Ī":5747,"à¤ıà¤ĸà¤¨":5748,"à¤ĩà¤®à¤²":5749,"à¤ĩà¤¸à¤®":5750,"Ġà¤īà¤Ĺà¤¤":5751,"Ġà¤īà¤¨à¤²":5752,"Ġà¤īà¤¬à¤°":5753,"Ġà¤īà¤ĸà¤°":5754,"Ġà¤¶à¤ª":5755,"Ġà¤¨à¤¹à¤°":5756,"Ġà¤ļà¤Łà¤¨":5757,"Ġà¤§à¤½":5758,"Ġà¤§à¤¨à¤¦":5759,"Ġà¤§à¤§à¤ķ":5760,"Ġà¤ĸà¤ª":5761,"Ġà¤ĸà¤°à¤¨":5762,"à¤°à¤¤à¤¸":5763,"Ġà¤¬à¤¨à¤¥":5764,"à¤«à¤°à¤µà¤°":5765,"à¤¾à¤ģà¥¥":5766,"à¤ıà¤²à¤ıà¤®":5767,"à¤Ĩà¤ķà¤¯":5768,"à¤Ĩà¤ī":5769,"à¤Ĩà¤¨à¤¨":5770,"à¤Ĩà¤ĵà¤²":5771,"à¤Ĩà¤¬à¤ķ":5772,"Ġà¤¸à¤ķà¤ı":5773,"à¤łà¤¨à¤ķ":5774,"Ġà¤Ĩà¤°à¤Ĩà¤°":5775,"Ġà¤Ĩà¤°à¤ıà¤®à¤¸":5776,"Ġà¤°à¤¹à¤ķ":5777,"à¤ĺà¤¶":5778,"à¤ĺà¤°à¤ķ":5779,"à¤Ĺà¤¤à¤¸à¤¤":5780,"à¤Ŀà¤¡":5781,"Ġà¤¡à¤¸":5782,"Ġà¤¡à¤Ł":5783,"Ġà¤¡à¤°à¤¤":5784,"Ġà¤ķà¤°à¤¤à¤¨":5785,"Ġà¤īà¤ªà¤Ĺ":5786,"Ġà¤īà¤ªà¤¶":5787,"Ġà¤ħà¤ªà¤¸":5788,"Ġà¤ħà¤ªà¤Ń":5789,"à¤²à¤ķà¤¤":5790,"à¤¸à¤°à¤¯":5791,"Ġà¤ĺà¤°à¤¸":5792,"Ġà¤ĺà¤°à¤¦":5793,"à¤¶à¤¨à¤¹":5794,"à¤¦à¤¨à¤¸":5795,"à¤¦à¤¨à¤ķà¤°":5796,"Ġà¤²à¤Ĺà¤®":5797,"à¤ķà¤°à¤£à¤®":5798,"Ġà¤ħà¤¸à¤²à¤®":5799,"à¤²à¤¤à¤¨":5800,"à¤ĵà¤ıà¤ļ":5801,"à¤īà¤ªà¤¹":5802,"à¥ģà¤ģà¥¥à¥¥":5803,"à¤¯à¤¨à¤®":5804,"à¤°à¤Ńà¤µà¤¨":5805,"à¤ļà¤¨à¤®":5806,"Ġà¤ķà¤°à¤¬à¤¨":5807,"Ġà¤ħà¤°à¤°":5808,"à¤¾à¥¤âĢĻ":5809,"à¤¼à¤¾'":5810,"à¤°à¤¹à¤£à¤ķ":5811,"à¤Łà¤°à¤«à¤°":5812,"à¤ħà¤¥":5813,"à¤ħà¤ĸà¤¨":5814,"à¤ħà¤īà¤°":5815,"à¤ħà¤µà¤¶":5816,"Ġà¤ªà¤¤à¤¯":5817,"Ġà¤Ĩà¤¬à¤¦":5818,"Ġà¤Ĩà¤¬à¤¯à¤µ":5819,"Ġà¤¤à¤°à¤¹à¤¤à¤°à¤¹à¤ķ":5820,"Ġ---":5821,"Ġà¤ħà¤Ńà¤°à¤²":5822,"à¤Ĺà¤²à¤ªà¤¨":5823,"Ġà¤ľà¤¨à¤°":5824,"Ġà¤ľà¤¨à¤¯":5825,"Ġ))":5826,"à¤Łà¤¨à¤°à¤¶":5827,"Ġà¤łà¤ķà¤²":5828,"Ġà¤ıà¤ļà¤ıà¤²à¤¸":5829,"à¤Ĩà¤Īà¤ıà¤Ĩà¤Ī":5830,"Ġà¤ıà¤¸à¤Ĩà¤Īà¤ıà¤®":5831,"Ġà¤īà¤łà¤¬à¤¯":5832,"Ġà¤¸à¤¦à¤Ń":5833,"à¤°à¤²à¤Ĩà¤Īà¤Ĩà¤Ī":5834,"Ġà¤¶à¤ķà¤¥":5835,"Ġà¤ıà¤¨à¤ıà¤ľ":5836,"Ġà¤Ĭà¤ªà¤°à¤ķ":5837,"à¤Ńà¤°à¤¨":5838,"Ġà¤ĺà¤°à¤Ĩ":5839,"à¤ĩà¤¸à¤¨à¤°":5840,"à¤°à¤¬à¤¹":5841,"à¤°à¤¬à¤¯à¤µà¤²":5842,"à¤°à¤ľà¤°":5843,"à¤°à¤ľà¤ķ":5844,"à¤²à¤¹à¤®":5845,"à¤·à¤¯à¤ªà¤°":5846,"Ġà¤¬à¤¤à¤²":5847,"Ġà¤Ĩà¤¨à¤¥":5848,"Ġà¤¦à¤¸à¤¦":5849,"Ġà¤Ĳà¤ľ":5850,"à¤µà¤£à¤¸":5851,"à¤µà¤£à¤ª":5852,"à¤µà¤£à¤µà¤§":5853,"Ġà¤¤à¤¤à¤¸":5854,"à¤ĩà¤Łà¤®":5855,"à¤Ļà¤¨":5856,"à¤ªà¤£à¤ĸ":5857,"Ġà¤§à¤¨à¤ŀ":5858,"Ġà¤§à¤¨à¤ªà¤¤":5859,"Ġà¤¤à¤¬à¤ķ":5860,"Ġà¤¤à¤¬à¤²":5861,"Ġà¤¤à¤¬à¤¹":5862,"Ġà¤Ĩà¤ĩà¤Ĺà¤ķ":5863,"Ġà¤Ĩà¤¸à¤µà¤¨":5864,"Ġà¤ıà¤¤à¤¤":5865,"Ġà¤ªà¤¦à¤¸":5866,"à¤ªà¤Łà¤²à¤ķ":5867,"à¤®à¤ļà¤°à¤£":5868,"Ġà¤¦à¤²à¤¦à¤²":5869,"à¤¾:\"":5870,"à¤ıà¤ıà¤«à¤Ī":5871,"Ġà¤Ńà¤°à¤¤à¤°":5872,"Ġà¤¢à¤¹":5873,"à¤²à¤²à¤ĸ":5874,"à¤ıà¤®à¤Ł":5875,"à¤ıà¤®à¤Ĩà¤°":5876,"Ġà¤ĭà¤£à¤Ĺ":5877,"à¤ĳà¤¨":5878,"à¤°à¤¥à¤®à¤¹":5879,"à¤¨à¤¬à¤¹à¤¨":5880,"Ġà¤ķà¤¯à¤ķà¤¯à¤ķ":5881,"à¤Ĺà¤£à¤®":5882,"Ġà¤ĭà¤·à¤Ń":5883,"à¤ķà¤¬à¤ķ":5884,"Ġà¤Ĺà¤Īà¤²":5885,"Ġà¤Ĩà¤ķà¤²à¤¨à¤ķà¤°":5886,"à¤²à¤µà¤ļà¤¨":5887,"Ġà¤ĺà¤Łà¤¬":5888,"Ġà¥ªà¥¬":5889,"Ġà¤ıà¤ıà¤²à¤Ł":5890,"Ġà¤ħà¤«à¤Ĺ":5891,"à¤ľà¤¦à¤£":5892,"à¥Ĥà¤Ĥ,":5893,"Ġà¤¬à¤¹à¤¸à¤¯":5894,"Ġà¤¯à¤¶à¤Ĺ":5895,"à¤°à¤ĸà¤£":5896,"à¥§à¥ªà¥¯":5897,"à¥§à¥«à¥¦":5898,"à¥§à¥«à¥¯":5899,"à¥§à¥¬à¥¦":5900,"à¥§à¥®à¥¨":5901,"Ġà¤ļà¤°à¤£à¤ķà¤®à¤²à¤ķ":5902,"Ġà¤¨à¤°à¤ķà¤®":5903,"Ġà¤¬à¤ļà¤ªà¤¨à¤ķ":5904,"Ġà¤ľà¤ĩà¤¤à¤¯":5905,"Ġà¤Ľà¤²à¤ķà¤ªà¤Ł":5906,"Ġà¤ħà¤®à¤²à¤Ĺ":5907,"Ġ?'":5908,"Ġà¤ĸà¤¬à¤°à¤¦":5909,"Ġà¤²à¤²à¤¨à¤®":5910,"Ġà¤ıà¤¸à¤ıà¤«à¤ľ":5911,"à¤¼à¤¼à¤¼à¤¼":5912,"Ġà¤ĵà¤¡à¤Ĺà¤°":5913,"));":5914,"-\"":5915,"Ġà¥Ģ":5916,"à¤°à¤ĩ":5917,"à¤°à¤°à¤¸":5918,"à¤°à¤¶à¤¨":5919,"à¤°à¤ĩà¤¨":5920,"à¥ĩâĢĿ":5921,"à¤¿à¥įà¤ģ":5922,"Ġà¤ķà¤ĩà¤¤":5923,"Ġà¤ķà¤®à¤ķ":5924,"Ġà¤ķà¤¸à¤®":5925,"Ġà¤ķà¤¦à¤²":5926,"Ġà¤ķà¤ĩà¤¬":5927,"à¤¨à¤ı":5928,"à¤¨à¤¯à¤ª":5929,"à¤¨à¤¯à¤¯":5930,"à¤¤à¤·":5931,"à¤¤à¤¤à¤ķ":5932,"à¤¤à¤¶à¤ķ":5933,"à¤¤à¤ħà¤¸":5934,"à¤ķà¤®à¤²":5935,"à¤ķà¤µà¤°":5936,"à¤ķà¤®à¤ľ":5937,"à¤²à¤ĩ":5938,"à¤²à¤®à¤¤":5939,"à¤²à¤Ńà¤°":5940,"à¤¯à¤¦à¤°":5941,"à¤¯à¤Łà¤ķ":5942,"à¤¯à¤°à¤¹à¤°":5943,"Ġà¤¸à¤ļà¤°":5944,"à¥Ģà¤¿à¤Ĥ":5945,"à¤¹à¤ĩ":5946,"à¤¹à¤®à¤¤":5947,"à¤¹à¤¯à¤µà¤²":5948,"à¤®à¤µà¤¨":5949,"à¤®à¤¹à¤¸":5950,"à¤®à¤Ńà¤°à¤¤":5951,"Ġà¤ªà¤«":5952,"Ġà¤ªà¤ĸà¤µ":5953,"à¤µà¤Ľ":5954,"à¤µà¤ªà¤°":5955,"à¤µà¤µà¤¶":5956,"à¥ĭ]":5957,"à¤¸à¤«à¤²":5958,"Ġà¤®à¤¦à¤°":5959,"Ġà¤®à¤ļà¤¬":5960,"Ġà¤ħà¤ıà¤¬":5961,"Ġà¤ľà¤ı":5962,"Ġà¤ľà¤®à¤²":5963,"Ġà¤ľà¤°à¤¦":5964,"Ġà¤ľà¤¯à¤¸":5965,"Ġà¤ľà¤ĸà¤¨à¤ķ":5966,"à¤ªà¤ªà¤°":5967,"à¤ªà¤¤à¤°":5968,"à¤ªà¤µà¤²":5969,"à¤ªà¤µà¤¤":5970,"à¤¦à¤µà¤¤":5971,"à¤¦à¤¯à¤¨":5972,"Ġà¤Ĩà¤²à¤®":5973,"Ġà¤Ĩà¤²à¤µ":5974,"Ġà¤Ĩà¤ıà¤Ĺ":5975,"Ġà¤Ĩà¤°à¤¤à¤ķ":5976,"Ġà¤¬à¤Ń":5977,"Ġà¤¬à¤¯à¤¨":5978,"Ġà¤¬à¤¬à¤²":5979,"Ġà¤¬à¤ķà¤¬à¤ķ":5980,"à¥¤'":5981,"à¥¤)":5982,"Ġà¤¹à¤¯":5983,"Ġà¤¹à¤°à¤ķ":5984,"Ġà¤¹à¤°à¤µ":5985,"Ġà¤¹à¤¤à¤ª":5986,"à¤Ĺà¤ļà¤°":5987,"Ġà¤µà¤¯à¤¨":5988,"Ġà¤¦à¤ı":5989,"Ġà¤¦à¤¸à¤°":5990,"Ġà¤¦à¤®à¤ķ":5991,"à¤¬à¤¯à¤ķ":5992,"à¤¬à¤°à¤®":5993,"à¤§à¤°à¤ķ":5994,"à¤§à¤ķà¤²":5995,"à¤§à¤¯à¤¸":5996,"à¤§à¤°à¤¨":5997,"à¤§à¤¸à¤Ń":5998,"à¤£à¤Ĺà¤£":5999,"à¤¥à¤¬":6000,"à¤ľà¤°à¤ķ":6001,"à¤ľà¤µà¤²":6002,"à¤ľà¤¯à¤¨":6003,"à¤ľà¤®à¤°":6004,"à¤Ľà¤¦":6005,"à¤¶à¤¯à¤¤":6006,"à¤¶à¤¤à¤®":6007,"à¤¶à¤¸à¤Ń":6008,"à¤ļà¤£":6009,"à¤ļà¤¯à¤ª":6010,"à¤ļà¤µà¤¶":6011,"à¥ĩà¤Ĥ--":6012,"Ġà¤¤à¤®à¤¤à¤®":6013,"à¤¡à¤Ń":6014,"à¤¡à¤¨à¤ķ":6015,"à¤¡à¤¹à¤°":6016,"à¤¡à¤®à¤°":6017,"Ġà¤Ĺà¤®à¤ķ":6018,"Ġà¤Ĺà¤Ńà¤¸":6019,"Ġà¤ªà¤°à¤¯":6020,"Ġà¤ªà¤°à¤¤à¤®":6021,"Ġà¤ªà¤°à¤®à¤¤à¤¤":6022,"à¤ĸà¤°à¤²":6023,"à¤ĸà¤®à¤£":6024,"à¤ĸà¤®à¤°":6025,"Ġà¤Ńà¤Ń":6026,"Ġà¤Ńà¤Ī":6027,"Ġà¤Ńà¤ľà¤¯":6028,"Ġà¤Ńà¤ľà¤¬":6029,"Ġà¤Ńà¤¦à¤¬":6030,"à¤Ńà¤ħà¤¶":6031,"à¤ĩà¤°à¤ķ":6032,"à¤ĩà¤Ĩ":6033,"Ġà¤īà¤¦à¤ķ":6034,"Ġà¤īà¤¬à¤²":6035,"Ġà¤¶à¤²":6036,"Ġà¤¶à¤¤à¤°":6037,"Ġà¤¶à¤¤à¤ķ":6038,"Ġà¤¯à¤®à¤ķ":6039,"Ġà¤¯à¤¤à¤¤":6040,"Ġà¤¯à¤ıà¤¹":6041,"Ġà¤¯à¤¤à¤ļ":6042,"Ġà¤ĵà¤¨à¤ķ":6043,"Ġà¤ĵà¤°à¤®":6044,"Ġà¤ļà¤ĸ":6045,"Ġà¤ļà¤ķà¤°":6046,"Ġà¤¸à¤®à¤¬":6047,"Ġà¤Īà¤¶à¤¨":6048,"Ġà¤ıà¤ķà¤ļ":6049,"Ġà¤ıà¤ķà¤ªà¤°":6050,"à¤¼,":6051,"à¤¼à¤¾,":6052,"Ġà¤§à¤°à¤®":6053,"Ġà¤ħà¤¨à¤¡":6054,"Ġà¤ħà¤¨à¤ł":6055,"Ġà¤ħà¤¨à¤®à¤¨":6056,"Ġà¤ħà¤¨à¤ķà¤¹":6057,"à¤Īà¤ıà¤ļ":6058,"à¤¯à¤ķà¤®":6059,"Ġà¤ĩà¤¡":6060,"à¤ıà¤²à¤¥":6061,"à¤ıà¤²à¤ıà¤«":6062,"à¤Ĩà¤Ľ":6063,"à¤Ĩà¤ĵà¤°":6064,"Ġà¤¸à¤ķà¤½":6065,"à¤¿à¤Ĥ'":6066,"à¤ĩà¤²à¤Ĺ":6067,"à¤łà¤ļ":6068,"à¤łà¤¤à¤®":6069,"Ġà¤ħà¤ªà¤¨à¤¬":6070,"à¤¯à¤®à¤¨à¤¨":6071,"à¤®à¤²à¤ľ":6072,"à¤¤à¤°à¤ªà¤ķ":6073,"Ġà¤°à¤¹à¤¤à¤¯":6074,"à¤ĺà¤¦":6075,"à¤ĺà¤ļà¤®à¤¨":6076,"Ġà¤Ķà¤ªà¤¨":6077,"Ġà¤¡à¤Ĺà¤°":6078,"Ġà¤¡à¤ĸà¤°":6079,"à¤°à¤®à¤ļ":6080,"à¤µà¤°à¤ļ":6081,"Ġà¤¤à¤°à¤¨":6082,"à¤½à¤ķ":6083,"à¤¯à¤¤à¤¨à¤ķà¤°":6084,"à¤µà¤¨à¤µ":6085,"Ġà¤ĳà¤¬":6086,"à¥Īà¤Ĥà¥¥":6087,"à¤ŀà¤ľà¤¨":6088,"Ġà¤¸à¤¹à¤ķà¤°":6089,"Ġà¤¸à¤¹à¤ļà¤°":6090,"à¤¦à¤ķà¤¤":6091,"à¤ľà¤¨à¤²":6092,"à¤¦à¤¨à¤¨":6093,"Ġà¤ıà¤«à¤ıà¤ļ":6094,"Ġà¤²à¤Ĺà¤µà¤¤":6095,"Ġà¤²à¤Ĺà¤ĵà¤²":6096,"Ġ\"à¥¤":6097,"Ġà¤ħà¤¸à¤ķ":6098,"à¤īà¤£":6099,"à¤īà¤¸à¤ķ":6100,"à¤®à¤¤à¤¨":6101,"à¤®à¤¤à¤ķà¤°":6102,"à¤·à¤£à¤¤":6103,"à¤ļà¤¨à¤¯":6104,"à¥Ģà¥¤âĢĻ":6105,"Ġà¤īà¤²à¤Łà¤¨":6106,"à¤°à¤¹à¤ª":6107,"à¤°à¤¹à¤°à¤¬":6108,"à¤ħà¤Łà¤°":6109,"à¤ħà¤¸à¤®":6110,"à¤ħà¤®à¤°":6111,"Ġà¤¹à¤°à¤¥":6112,"à¤°à¤¶à¤°":6113,"Ġà¤ħà¤²à¤ĸ":6114,"à¤¤à¤µà¤¸à¤¨":6115,"Ġà¤¤à¤°à¤¹à¤¸":6116,"à¤ķà¤²à¤°":6117,"Ġà¤ħà¤Ńà¤°":6118,"Ġà¤ħà¤Ńà¤¯à¤¦":6119,"à¤¯à¤°à¤¥":6120,"Ġ'&":6121,"à¤¤à¤®à¤Ĺ":6122,"à¤®à¤¨à¤°":6123,"Ġà¤¸à¤®à¤Ŀà¤¬":6124,"Ġà¤¸à¤®à¤Ŀà¤²à¤¨":6125,"Ġà¤ľà¤¨à¤ª":6126,"Ġà¤ľà¤¨à¤ĩà¤¤":6127,"Ġà¤ıà¤ļà¤ıà¤²à¤ª":6128,"à¤¤à¤¨à¤®à¤¨à¤¨":6129,"Ġà¤¸à¤°à¤°à¤°":6130,"à¤Ĩà¤Īà¤ı":6131,"Ġà¤ļà¤²à¤ĩà¤¤":6132,"Ġà¤ıà¤¸à¤ıà¤®à¤ıà¤¸":6133,"Ġà¤¬à¤²à¤Ńà¤¦":6134,"à¤¹à¤¨à¤¸":6135,"à¤¹à¤¨à¤Ĺà¤°":6136,"à¤µà¤ķà¤¸":6137,"Ġà¤ıà¤¨à¤Ĩà¤°à¤ıà¤²":6138,"Ġà¤ıà¤¨à¤ıà¤®à¤ıà¤ļà¤ľ":6139,"à¤·à¤¤à¤ª":6140,"Ġà¤ħà¤¦à¤Ń":6141,"Ġà¤¸à¤¤à¤ľ":6142,"Ġà¤ķà¤¤à¤Ĭ":6143,"Ġà¤ķà¤²à¤¶à¤ķ":6144,"Ġà¤ķà¤²à¤Ļ":6145,"Ġà¤ķà¤²à¤¶à¤®":6146,"Ġà¤ĺà¤°à¤Ĺ":6147,"Ġà¤ĺà¤°à¤ĺà¤°à¤®":6148,"Ġà¤ħà¤¬à¤ĩà¤Ľ":6149,"à¤Łà¤²à¤ĸ":6150,"à¤ļà¤°à¤Ł":6151,"à¥Ģ));":6152,"Ġà¤¸à¤¨à¤¸à¤¨":6153,"Ġà¤¸à¤¨à¤¡à¤¬à¤°":6154,"Ġà¤Ĩà¤¨à¤¹":6155,"Ġà¤¬à¤ľà¤¬à¤¯":6156,"à¤°à¤¥à¤ķ":6157,"à¤µà¤£à¤®":6158,"à¤¨à¤¸à¤¹à¤¨":6159,"à¤ıà¤«à¤ıà¤®à¤¸":6160,"à¤Ńà¤µà¤¹":6161,"à¤¯à¤£à¤¸":6162,"Ġà¤Ĩà¤ľà¤®":6163,"Ġà¤ļà¤°à¤£à¤§":6164,"Ġà¤Ĩà¤¸à¤¨à¤ķ":6165,"Ġà¤ıà¤¤à¤¸":6166,"Ġà¤ıà¤¤à¤½":6167,"Ġà¤ıà¤®à¤ıà¤®":6168,"Ġà¤ıà¤®à¤Ĩà¤Īà¤¡":6169,"à¤²à¤¸à¤Ń":6170,"à¥¬à¥ªà¥¬":6171,"à¤ķà¤¹à¤¬":6172,"Ġà¤Ńà¤¯à¤¹":6173,"à¤¬à¤²à¤µ":6174,"à¤ľà¤²à¤¥":6175,"à¤¯à¤ªà¤°à¤ķ":6176,"Ġà¤µà¤¨à¤ļà¤°":6177,"à¥Ĥà¥¤à¥¤":6178,"Ġà¤²à¤¯à¤²à¤¯":6179,"à¤ĳà¤²":6180,"ĠâĢĺ[":6181,"à¤µà¤¶à¤°":6182,"à¤ªà¤²à¤Łà¤¨":6183,"à¤ľà¤¸à¤ľ":6184,"Ġà¤ļà¤¢à¤¯":6185,"à¤°à¤¹à¤£à¤¶":6186,"à¤·à¤°à¤ķà¤°":6187,"à¤¾':":6188,"à¤¬à¤ķà¤®":6189,"à¥ħà¤Ĥ":6190,"Ġà¤¤à¤¦à¤¸":6191,"Ġà¤łà¤¹à¤°à¤¬":6192,"Ġà¤ªà¤µà¤¨à¤¤à¤¨à¤¯":6193,"à¤Łà¤«à¤Ł":6194,"à¤Ńà¤°à¤¤à¤ľ":6195,"à¥§à¥«à¥®":6196,"Ġà¤īà¤¹à¤ĩ":6197,"âĢĿ)":6198,"à¤ıà¤ıà¤ª":6199,"à¥§à¥Ńà¥¬":6200,"à¥§à¥¬à¥¨":6201,"Ġà¤Ĺà¤łà¤°":6202,"à¥§à¥®à¥¦":6203,"Ġà¤Ńà¤Łà¤ķà¤¨":6204,"à¥§à¥¯à¥ª":6205,"Ġà¤¬à¤Łà¤Ĺ":6206,"Ġà¤ıà¤ıà¤®à¤ª":6207,"à¤Ĩà¤Īà¤Ĩà¤Īà¤Ĩà¤Ī":6208,"Ġà¤ħà¤ĸà¤¨à¤¹":6209,"Ġà¤ķà¤¨à¤ķà¤§":6210,"Ġà¤¶à¤°à¤¦à¤ķ":6211,"à¤Ĩà¤°à¤ıà¤ıà¤²":6212,"à¤¾?---":6213,"Ġà¤ļà¤®à¤ķà¤¯":6214,"Ġà¤ķà¤²à¤ķà¤²":6215,"Ġà¤ıà¤ıà¤Ĩà¤°à¤Ĩà¤Ī":6216,"Ġà¤ķà¤Łà¤ķà¤Łà¤¹":6217,"Ġà¤Ŀà¤Łà¤ªà¤Ł":6218,"Ġà¤ĵà¤¢à¤¨":6219,"Ġà¤ľà¤ĩà¤¸à¤®":6220,"à¤¾âĢĿ:":6221,"Ġà¤ıà¤®à¤ıà¤²à¤¡à¤¬":6222,"Ġà¤Īà¤ıà¤¸à¤ıà¤²":6223,"...":6224,"Ġà¤¨à¤µà¤ªà¤ŀ":6225,"à¤īà¤ªà¤¨à¤¯à¤¨":6226,"à¤¡à¤ıà¤«à¤ĵà¤ıà¤ļ":6227,"Ġà¤ıà¤ķà¤ªà¤°à¤ıà¤ķ":6228,"İà¤²":6229,"Ġà¤İà¤²":6230,"à¤¾âĢĶ":6231,"à¤°à¤¯à¤ķ":6232,"à¤°à¤¯à¤µ":6233,"à¤°à¤ħà¤¸":6234,"à¥ĩ(":6235,"à¤¿/":6236,"Ġà¤ķà¤«":6237,"Ġà¤ķà¤¦à¤°":6238,"Ġà¤ķà¤ľà¤°":6239,"Ġà¤ķà¤£à¤ķ":6240,"à¤¨à¤ĸ":6241,"à¤¨à¤Ŀ":6242,"à¤¨à¤°à¤¦":6243,"à¤¨à¤¹à¤®":6244,"à¤¨à¤ħà¤¨":6245,"à¤¨à¤¥à¤²":6246,"à¤¤à¤²à¤¨":6247,"à¤¤à¤¯à¤µ":6248,"à¤¤à¤¸à¤¨":6249,"à¤¤à¤µà¤²":6250,"à¤¤à¤²à¤ķ":6251,"à¤¤à¤²à¤®":6252,"à¤¤à¤ªà¤¦":6253,"à¤¤à¤ħà¤¬":6254,"à¤ķà¤ķà¤¯":6255,"à¤ķà¤ĩà¤µ":6256,"à¤ķà¤¬à¤¨":6257,"à¤ķà¤¬à¤¯":6258,"à¤ķà¤ħà¤ª":6259,"à¤ķà¤Ĩà¤§":6260,"à¤²à¤¦à¤°":6261,"à¤²à¤Ĺà¤²":6262,"à¤²à¤¸à¤ķ":6263,"à¤²à¤¸à¤®":6264,"à¤²à¤ļà¤°":6265,"à¤²à¤ļà¤ķ":6266,"à¤²à¤Īà¤¨":6267,"à¤¯à¤¶à¤°":6268,"Ġà¤¸à¤µà¤°":6269,"Ġà¤¸à¤¤à¤¯":6270,"à¤Ĥà¤Ĥ":6271,"à¤Ĥà¤ģ":6272,"à¤Ĥà¥¥à¥¥":6273,"à¤¹à¤§":6274,"à¤®à¤Ĺà¤¤":6275,"à¤®à¤¯à¤¤":6276,"à¤®à¤¸à¤°":6277,"à¤®à¤¦à¤°":6278,"à¤®à¤°à¤¹":6279,"à¤®à¤®à¤¨":6280,"à¤®à¤¹à¤ķ":6281,"à¤®à¤§à¤°":6282,"à¤®à¤Ľà¤²":6283,"à¤®à¤ªà¤¥":6284,"à¤®à¤ħà¤¨":6285,"Ġà¤ªà¤²à¤¹":6286,"Ġà¤ªà¤¯à¤¬":6287,"Ġà¤ªà¤¦à¤¯":6288,"Ġà¤ªà¤ĵà¤²à¤¨":6289,"à¤µà¤¹à¤°":6290,"à¤µà¤Ńà¤°":6291,"à¤¸à¤²à¤¤":6292,"à¤¸à¤ķà¤²":6293,"Ġà¤®à¤Ľ":6294,"Ġà¤®à¤µà¤§":6295,"Ġà¤ħà¤ı":6296,"Ġà¤ħà¤ľà¤Ĺ":6297,"à¥ģà¥¥à¥¥":6298,"Ġà¤ľà¤²à¤¬":6299,"Ġà¤ľà¤Ĺà¤®":6300,"Ġà¤ľà¤ĩà¤®":6301,"à¤ªà¤ł":6302,"à¤ªà¤¶à¤ķ":6303,"à¤¦à¤Ł":6304,"à¤¦à¤ļ":6305,"à¤¦à¤ªà¤°":6306,"Ġà¤¨à¤¤à¤®à¤¸":6307,"Ġà¤Ĩà¤ıà¤¤":6308,"Ġà¤¬à¤¯à¤²":6309,"à¥Ī):":6310,"à¥Ī\",":6311,"Ġà¤¹à¤Łà¤¤":6312,"Ġà¤¹à¤µà¤¨à¤ķ":6313,"à¤Łà¤ĸ":6314,"à¤Łà¤¨à¤²":6315,"à¤Łà¤®à¤¸":6316,"à¤Ĺà¤ī":6317,"à¤Ĺà¤ªà¤¤":6318,"à¤Ĺà¤°à¤µ":6319,"à¤Ĺà¤¨à¤¨":6320,"à¤Ĺà¤§à¤°":6321,"Ġà¤µà¤¦à¤°à¤²":6322,"Ġà¤¦à¤¯à¤²":6323,"Ġà¤¦à¤¬à¤²":6324,"Ġà¤¦à¤¬à¤¦":6325,"à¤¬à¤°à¤¤":6326,"à¤¬à¤ľà¤¨":6327,"à¤¬à¤Ĺà¤²":6328,"à¤§à¤ľà¤¨":6329,"à¤§à¤°à¤²":6330,"à¤§à¤µà¤¶":6331,"Ġà¤ıà¤¤à¤°":6332,"Ġà¤ıà¤ıà¤¨":6333,"à¤·à¤¸à¤®":6334,"à¤·à¤¯à¤¸à¤Ń":6335,"à¤£à¤ļ":6336,"à¤£à¤°à¤¤":6337,"à¤£à¤µà¤²":6338,"à¤£à¤ħ":6339,"à¤£à¤ľà¤¨à¤ķà¤ª":6340,"Ġà¤°à¤¶":6341,"Ġà¤°à¤®à¤²":6342,"Ġà¤²à¤¸":6343,"Ġà¤²à¤ªà¤ķ":6344,"à¤¥à¤ķà¤°":6345,"à¤¥à¤«":6346,"à¤¥à¤¸à¤®":6347,"à¤ľà¤Ī":6348,"à¤ľà¤°à¤¯":6349,"à¤ľà¤¯à¤¸":6350,"à¤ľà¤ķà¤¤":6351,"à¤ľà¤¬à¤²":6352,"Ġà¤Ľà¤ī":6353,"Ġà¤Ľà¤ªà¤¤":6354,"à¤¶à¤Ń":6355,"à¤¶à¤ł":6356,"à¤¶à¤µà¤°":6357,"à¤¶à¤¹à¤°":6358,"à¤¶à¤®à¤£":6359,"à¤ļà¤µà¤°":6360,"à¤ļà¤°à¤¬":6361,"Ġà¤ķà¤°à¤ľ":6362,"Ġà¤ķà¤°à¤µà¤²":6363,"Ġà¤¤à¤ªà¤¤":6364,"Ġà¤¤à¤ľà¤¹":6365,"à¤¡à¤ı":6366,"à¤¡à¤¸à¤Ń":6367,"Ġà¤Ĺà¤µà¤¨":6368,"Ġà¤Ńà¤ĩ":6369,"Ġà¤Ńà¤¯à¤®":6370,"Ġà¤Ńà¤µà¤ª":6371,"Ġà¤Ńà¤²à¤¹":6372,"à¤ıà¤¯":6373,"à¤ıà¤µà¤²":6374,"à¤ıà¤Łà¤°":6375,"à¤ıà¤¹à¤®":6376,"à¤ĩà¤ħ":6377,"à¤ĩà¤¡à¤²":6378,"Ġà¤īà¤Ŀ":6379,"Ġà¤¶à¤¦":6380,"Ġà¤¯à¤µà¤¨":6381,"Ġà¤¯à¤µà¤¤":6382,"Ġà¤ĵà¤ķà¤²":6383,"Ġà¤ĵà¤Ŀà¤²":6384,"Ġà¤ĵà¤·à¤§":6385,"Ġà¤Ľà¤²à¤¬à¤²":6386,"Ġà¤ļà¤°à¤¤":6387,"Ġà¤Īà¤ļ":6388,"Ġà¤ıà¤ķà¤¨à¤°":6389,"à¤¿à¥¤'":6390,"Ġà¤§à¤§":6391,"Ġà¤ĸà¤Ĺà¤¤":6392,"Ġà¤ĸà¤¨à¤¹":6393,"Ġà¤ĸà¤¸à¤¤":6394,"à¤°à¤£à¤¸à¤Ńà¤ķ":6395,"à¤°à¤¤à¤®à¤¨":6396,"Ġà¤¬à¤¨à¤®":6397,"Ġà¤¬à¤¨à¤¯à¤¬":6398,"à¤Īà¤¶":6399,"à¤Īà¤¡à¤¬":6400,"Ġà¤¹à¤®à¤¸":6401,"à¤¹à¤²à¤¥":6402,"Ġà¤ħà¤§à¤®à¤°":6403,"Ġà¤ĩà¤ķà¤°":6404,"à¤Ĩà¤Ń":6405,"à¤Ĩà¤ł":6406,"à¤Ĩà¤ªà¤¤":6407,"à¤¿à¤Ĥ\"":6408,"à¤ĩà¤²à¤Ĺà¤²":6409,"à¤łà¤Ĺ":6410,"à¤łà¤§":6411,"Ġà¤«à¤²à¤¤":6412,"Ġà¤«à¤²à¤¹":6413,"Ġà¤«à¤Łà¤«à¤Ł":6414,"Ġà¤Łà¤ªà¤ķ":6415,"à¤¯à¤®à¤°":6416,"à¤¯à¤®à¤¤":6417,"à¤¯à¤®à¤µ":6418,"à¤°à¤¸à¤Ļ":6419,"à¤®à¤²à¤ª":6420,"à¤®à¤²à¤ļ":6421,"à¤²à¤¯à¤µ":6422,"à¤¤à¤°à¤µ":6423,"Ġà¤°à¤¹à¤¨à¤¸à¤¹à¤¨":6424,"à¤ĺà¤¤":6425,"à¤¯à¤µà¤¨":6426,"à¤ĩà¤¤à¤ķ":6427,"Ġà¤°à¤¹à¤²à¤ĸ":6428,"à¤Ŀà¤¹":6429,"à¤°à¤®à¤µ":6430,"à¤°à¤®à¤ª":6431,"à¤°à¤®à¤¬à¤¦":6432,"à¤°à¤®à¤µà¤¶":6433,"Ġà¤Ķà¤°à¤¹":6434,"à¤µà¤°à¤¹":6435,"Ġà¤ķà¤¹à¤¤à¤¯":6436,"à¤½à¤¶":6437,"Ġà¤īà¤ªà¤ªà¤¤":6438,"Ġà¤īà¤ªà¤Ĺà¤®à¤¨":6439,"Ġà¤ħà¤ªà¤ľà¤¸":6440,"à¤µà¤¨à¤Ĺà¤°":6441,"à¤²à¤ķà¤¹":6442,"à¤²à¤ķà¤¥":6443,"Ġà¤®à¤¹à¤ķ":6444,"Ġà¤®à¤¹à¤ľ":6445,"à¥Īà¤Ĥ]":6446,"Ġà¤ĺà¤¸":6447,"Ġà¤¸à¤¹à¤ª":6448,"Ġà¤¸à¤¹à¤¸à¤¬":6449,"Ġà¤¸à¤¹à¤ħà¤¸":6450,"Ġà¤ĵà¤¹à¤¸":6451,"à¤¦à¤ķà¤ķà¤¨":6452,"Ġà¤µà¤°à¤¨à¤®":6453,"à¤ľà¤¨à¤¯":6454,"à¤ľà¤¨à¤µ":6455,"à¤¢à¤²":6456,"Ġà¤ıà¤«à¤ıà¤¸":6457,"Ġà¤²à¤Ĺà¤ª":6458,"Ġ\":":6459,"à¤ķà¤°à¤£à¤¸à¤Ń":6460,"Ġà¤ħà¤¸à¤Ĺ":6461,"Ġà¤®à¤¨à¤¯à¤¬":6462,"à¤µà¤¤à¤¹":6463,"à¤ĵà¤Ĩà¤Ī":6464,"à¤ĵà¤¹à¤¨":6465,"à¤īà¤¹":6466,"à¤īà¤Ī":6467,"à¤īà¤²à¤°":6468,"à¤¨à¤²à¤®":6469,"à¤°à¤Ńà¤µ":6470,"à¤®à¤¤à¤¸":6471,"à¤·à¤£à¤Ńà¤°":6472,"Ġà¤ķà¤®à¤¤à¤°":6473,"Ġà¤īà¤²à¤Ŀà¤²":6474,"Ġà¤¸à¤®à¤¯à¤ªà¤°":6475,"à¤°à¤¯à¤¦":6476,"à¤¨à¤¨à¤¹":6477,"à¤°à¤¹à¤¤":6478,"à¤°à¤¹à¤¬":6479,"à¤Łà¤°à¤ľ":6480,"à¤¬à¤°à¤¬":6481,"à¤¬à¤°à¤§":6482,"à¤ħà¤Ĺà¤²":6483,"Ġà¤ħà¤µà¤·":6484,"à¤Ĺà¤°à¤«":6485,"Ġà¤ªà¤¤à¤Ļ":6486,"à¤¤à¤®à¤£":6487,"à¤Ĺà¤²à¤µ":6488,"Ġà¤ıà¤¹à¤¨à¤®":6489,"Ġà¥¦":6490,"Ġà¤Ĩà¤Ĺà¤ļ":6491,"Ġà¤§à¤°à¤²à¤¥":6492,"à¤ıà¤¸à¤¬":6493,"à¤ıà¤¸à¤ıà¤¸à¤¸":6494,"à¤ıà¤¸à¤ĵà¤ª":6495,"à¤ªà¤ķà¤µ":6496,"Ġà¤łà¤°à¤²":6497,"à¥Īà¥¤âĢĻ":6498,"à¤¤à¤¨à¤ª":6499,"Ġà¤¸à¤°à¤¬à¤¤":6500,"à¤¯à¤¸à¤¹":6501,"à¤·à¤ķà¤®":6502,"à¤¹à¤¨à¤¤à¤ķ":6503,"Ġà¤īà¤łà¤¥":6504,"Ġà¤¸à¤¦à¤¤":6505,"à¤°à¤²à¤¥":6506,"à¤¤à¤ķà¤®":6507,"Ġà¤Ĭà¤¹":6508,"Ġà¤¬à¤¡à¤ķ":6509,"à¤¨à¤¤à¤¹":6510,"Ġà¤¸à¤¤à¤¬":6511,"à¤µà¤¯à¤ľ":6512,"Ġà¤ĩà¤¨à¤ª":6513,"Ġà¤ĺà¤°à¤µà¤°":6514,"Ġà¤ĺà¤°à¤µà¤²":6515,"Ġà¤®à¤°à¤°":6516,"à¤°à¤¬à¤ķ":6517,"à¤ıà¤ļà¤ı":6518,"Ġà¤ªà¤°à¤®à¤¹":6519,"Ġà¤ªà¤°à¤®à¤µ":6520,"Ġà¤ļà¤°à¤ĸ":6521,"à¤°à¤ľà¤ª":6522,"Ġà¤Ńà¤²à¤®":6523,"Ġà¤¬à¤ľà¤²à¤¥":6524,"à¤Ĺà¤¨à¤¯à¤¨":6525,"Ġà¤ħà¤ªà¤°à¤®":6526,"Ġà¤¦à¤¸à¤¸":6527,"Ġà¤Ĳà¤¬":6528,"Ġà¤Ĳà¤¸à¤¨":6529,"Ġà¤ªà¤¹à¤²à¤µ":6530,"Ġà¤¦à¤°à¤ħà¤¸à¤²":6531,"à¤ıà¤«à¤Ī":6532,"à¤µà¤¸à¤¤":6533,"Ġà¤ķà¤ªà¤Ļ":6534,"Ġà¤Ĩà¤ĩà¤¸à¤ķ":6535,"Ġà¤ħà¤ķà¤¥":6536,"Ġà¤Ĩà¤Īà¤¨":6537,"Ġà¤Ĩà¤Īà¤ıà¤ı":6538,"Ġà¤Ĩà¤Īà¤ıà¤®à¤ıà¤«":6539,"à¤Ĺà¤®à¤¯":6540,"Ġà¤ıà¤®à¤¯":6541,"Ġà¤ıà¤®à¤ıà¤¸":6542,"Ġà¤ķà¤Īà¤²à¤¨":6543,"à¤ľà¤ķà¤µ":6544,"à¤²à¤¸à¤¦":6545,"Ġà¤Ĺà¤°à¤ľà¤¨":6546,"à¥Įà¤Ĥà¥¥":6547,"à¤¬à¤²à¤®":6548,"à¤ľà¤²à¤®":6549,"à¤¯à¤ªà¤¦":6550,"à¤¼à¥ĩ)":6551,"Ġà¤ľà¤Ĺà¤ľà¤¨à¤¨":6552,"à¤¨à¤®à¤§":6553,"Ġà¤¢à¤²":6554,"Ġà¥¨à¥«à¥¦":6555,"Ġà¤¦à¤¯à¤²à¤¨":6556,"Ġà¤ľà¤¨à¤ķà¤²":6557,"à¥Įà¤ģà¥¤":6558,"Ġà¤¶à¤¤à¤Ĺ":6559,"à¤²à¤ĸà¤¯":6560,"Ġà¤¤à¤¨à¤ĸ":6561,"Ġà¤¤à¤¨à¤®à¤¨":6562,"à¤¾\";":6563,"à¤¹à¤®à¤¹":6564,"à¤ªà¤¦à¤£":6565,"à¤¶à¤²à¤¸à¤®":6566,"à¤ķà¤Łà¤¹":6567,"à¤®à¤¯à¤ľ":6568,"à¤ķà¤µà¤¶":6569,"Ġà¤ħà¤¯à¤¶":6570,"à¤¤à¤²à¤¡":6571,"à¤¨à¤¯à¤ľ":6572,"à¤¥à¤ķà¤®":6573,"à¤ªà¤²à¤Ł":6574,"Ġà¤°à¤¸à¤¸":6575,"Ġà¤ħà¤µà¤¸à¤°à¤ķ":6576,"Ġà¤ķà¤®à¤²à¤ľ":6577,"Ġà¤ķà¤®à¤²à¤µà¤¨":6578,"à¤ĩà¤¯à¤½":6579,"Ġà¥ªà¥ª":6580,"Ġà¥ªà¥«":6581,"Ġà¤Ĩà¤īà¤Łà¤¬":6582,"Ġà¤ħà¤«à¤°":6583,"Ġà¥«à¥¦à¥¦":6584,"Ġà¤ıà¤ıà¤¸à¤ıà¤²":6585,"Ġà¤ıà¤ıà¤¸à¤Ĩà¤Īà¤ĵ":6586,"à¤°à¤ĸà¤°à¤¤":6587,"Ġà¤ªà¤¨à¤ªà¤¥":6588,"Ġà¤¦à¤¬à¤¬":6589,"Ġà¤¤à¤ªà¤¶":6590,"Ġà¤Ľà¤łà¤µ":6591,"à¥Ģ'à¥¤":6592,"à¤¤à¤¬à¤¢":6593,"Ġà¤Ĩà¤ĩà¤²à¤¨":6594,"à¥§à¥Ńà¥§":6595,"à¥§à¥Ńà¥¨":6596,"à¥§à¥Ńà¥¦":6597,"à¥§à¥Ńà¥®":6598,"Ġà¥¨à¥¦à¥§à¥¬":6599,"Ġà¥¨à¥¦à¥§à¥¯":6600,"Ġà¥¨à¥¦à¥¨à¥©":6601,"Ġà¥¨à¥¦à¥¬à¥Ń":6602,"Ġà¤¬à¤°à¤¸à¤¬":6603,"à¥§à¥¬à¥§":6604,"à¥§à¥¬à¥ª":6605,"à¥§à¥¬à¥¬":6606,"à¥§à¥¬à¥Ń":6607,"à¥§à¥¬à¥®":6608,"à¥§à¥®à¥§":6609,"Ġà¤ıà¤°à¤ªà¤¨":6610,"Ġà¤īà¤¤à¤°à¤¯":6611,"à¤¿?\"":6612,"Ġà¤·à¤£":6613,"Ġà¤§à¤¯à¤²à¤ķ":6614,"Ġà¤ķà¤°à¤½à¤µà¤²":6615,"à¤ĩà¤«à¤¸":6616,"Ġà¤§à¤¯à¤²à¤¹":6617,"à¥¨à¥¬à¥©":6618,"Ġà¤¬à¤°à¤¤à¤¬":6619,"à¤ıà¤¡à¤µà¤°":6620,"Ġà¤ªà¤Ļà¤²":6621,"Ġà¤¬à¤Ĺà¤²à¤¹":6622,"à¤²à¤¡à¤°à¤¬":6623,"Ġà¤Ĺà¤°à¤ľà¤¯":6624,"Ġà¤¹à¤°à¤¬à¤Ĺ":6625,"Ġà¤ıà¤¨à¤ıà¤ıà¤ļà¤Ĩà¤Ī":6626,"Ġà¤ķà¤¹à¤ĩà¤¤à¤Ľ":6627,"à¤ķà¤ıà¤¡à¤°":6628,"à¤°à¤¨à¤¤à¤ª":6629,"Ġà¤®à¤Ŀà¤§":6630,"Ġà¤®à¤°à¤¦à¤µ":6631,"Ġà¤Ŀà¤ķà¤Ŀ":6632,"Ġà¤ĩà¤Łà¤¹à¤°":6633,"Ġà¤ļà¤®à¤ļà¤®":6634,"à¤¨à¤®à¤µà¤·":6635,"Ġà¤ľà¤°à¤¦à¤·":6636,"Ġà¤¦à¤¬à¤¦à¤¬":6637,")\"":6638,")-":6639,"ĸª":6640,"Ġà¤Ĥ":6641,"à¥ł":6642,"à¤°à¤«à¤²":6643,"à¤°à¤ªà¤°à¤®":6644,"à¥ĩâĢĶ":6645,"Ġà¤ķà¤²à¤¨":6646,"à¤¨à¤Ī":6647,"à¤¨à¤®à¤¤":6648,"à¤¨à¤°à¤µ":6649,"à¤¨à¤¤à¤¨":6650,"à¤¨à¤§à¤¨":6651,"à¤¨à¤®à¤Ĺ":6652,"à¤¨à¤Ĺà¤®":6653,"à¤¨à¤¤à¤°à¤«":6654,"à¤¤à¤£":6655,"à¤¤à¤Ī":6656,"à¤¤à¤ļà¤¨":6657,"à¤¤à¤ħ":6658,"à¤¤à¤¤à¤®":6659,"à¤¤à¤ªà¤¸":6660,"à¤¤à¤ľà¤¨à¤ķ":6661,"à¤¤à¤Ĺà¤ľ":6662,"à¤ķà¤Ľ":6663,"à¤ķà¤®à¤°":6664,"à¤ķà¤Łà¤ķ":6665,"à¤²à¤¸à¤°":6666,"à¤²à¤ĩà¤¨":6667,"à¤²à¤ľà¤¯":6668,"à¤¯à¤ĩ":6669,"à¤¯à¤«":6670,"à¤¯à¤ī":6671,"à¤¯à¤§à¤¨":6672,"à¤¯à¤¶à¤ķ":6673,"à¤¯à¤Ĭ":6674,"Ġà¤¸à¤§":6675,"Ġà¤¸à¤Ŀ":6676,"Ġà¤¸à¤ĵ":6677,"Ġà¤¸à¤ļà¤¨":6678,"Ġà¤¸à¤¤à¤®":6679,"à¥Ģà¤ĥà¥¤":6680,"à¥Ģà¤ģà¥¤":6681,"à¤¹à¤°à¤¸":6682,"à¤¹à¤µà¤²":6683,"à¤¹à¤ľà¤¨":6684,"à¤¹à¤ľà¤¬":6685,"à¤®à¤¯à¤ķ":6686,"à¤®à¤°à¤µ":6687,"Ġà¤ªà¤¨à¤ª":6688,"à¤µà¤¯à¤ķ":6689,"à¤µà¤Łà¤ķ":6690,"à¤µà¤īà¤ł":6691,"à¥ĭ')":6692,"à¤¸à¤¹à¤¸":6693,"à¤¸à¤ĳà¤¨à¤²":6694,"Ġà¤®à¤°à¤ķ":6695,"Ġà¤ħà¤¤à¤°":6696,"Ġà¤ħà¤°à¤®":6697,"Ġà¤ħà¤¥à¤¨":6698,"Ġà¤ľà¤¶":6699,"Ġà¤ľà¤ĸ":6700,"Ġà¤ľà¤²à¤¤":6701,"Ġà¤ľà¤²à¤ķà¤°":6702,"Ġà¤ľà¤¯à¤ª":6703,"Ġà¤ľà¤ªà¤®":6704,"à¤ªà¤µà¤¶":6705,"à¤¦à¤µà¤²":6706,"à¤¦à¤Ĺà¤°":6707,"à¤¦à¤¹à¤°":6708,"à¤¦à¤¸à¤Ńà¤ķ":6709,"Ġà¤¨à¤¨à¤ķ":6710,"Ġà¤¨à¤°à¤µ":6711,"Ġà¤¨à¤¸à¤¬":6712,"Ġà¤Ĩà¤Ł":6713,"Ġà¤Ĩà¤ıà¤¬":6714,"Ġà¤¬à¤°à¤¹à¤®":6715,"à¥Ī)à¥¤":6716,"Ġà¤¹à¤ª":6717,"Ġà¤¹à¤¶":6718,"Ġà¤¹à¤ĩ":6719,"Ġà¤¹à¤°à¤®":6720,"à¤Łà¤°à¤®":6721,"à¤Łà¤¤à¤¯":6722,"à¤Łà¤®à¤£":6723,"à¤Łà¤ħà¤ª":6724,"à¤Ĺà¤ĩ":6725,"à¤Ĺà¤°à¤¸":6726,"à¤Ĺà¤Ńà¤°à¤¨":6727,"Ġà¤µà¤§à¤ķ":6728,"Ġà¤µà¤·à¤Ł":6729,"Ġà¤¦à¤²à¤¯":6730,"Ġà¤¦à¤°à¤¶":6731,"Ġà¤¦à¤ĸà¤²":6732,"Ġà¤¦à¤§à¤¤":6733,"à¤¬à¤¨à¤ķ":6734,"à¤¬à¤²à¤¯":6735,"à¤¬à¤µà¤¨":6736,"à¤¬à¤ĸà¤°":6737,"à¤¬à¤°à¤¦à¤¸":6738,"à¥Ĥà¥Ĥ":6739,"à¥Ĥ)à¥¤":6740,"à¥Ĥ\")":6741,"à¤§à¤¶":6742,"à¤§à¤Ĺà¤¤":6743,"à¤§à¤°à¤®":6744,"à¤§à¤®à¤ķ":6745,"Ġà¤ıà¤²à¤¯":6746,"Ġà¤ıà¤¶à¤²":6747,"Ġà¤ıà¤¶à¤°":6748,"à¤·à¤£à¤¯":6749,"à¤·à¤µà¤²":6750,"à¤·à¤Ńà¤°":6751,"à¤·à¤ħà¤ª":6752,"à¤£à¤Ń":6753,"à¤£à¤«":6754,"à¤£à¤¹à¤°":6755,"à¤£à¤ķà¤²":6756,"à¤£à¤®à¤¨":6757,"à¤£à¤Ĺà¤µ":6758,"Ġà¤°à¤Ĺà¤°":6759,"Ġà¤°à¤¸à¤®à¤¯":6760,"Ġà¤²à¤¥":6761,"Ġà¤²à¤¯à¤ķ":6762,"à¤¥à¤§":6763,"à¤ľà¤ļ":6764,"à¤ľà¤ı":6765,"à¤ľà¤ĩ":6766,"à¤ľà¤²à¤¹":6767,"à¤ľà¤ªà¤¥":6768,"à¤ľà¤®à¤¦":6769,"à¤Ľà¤£":6770,"à¤¶à¤¤à¤°":6771,"à¤¶à¤®à¤¯":6772,"à¤ļà¤¶":6773,"à¤ļà¤°à¤¸":6774,"à¤ļà¤½":6775,"à¤ļà¤ŀ":6776,"à¤ļà¤ķà¤¤":6777,"à¤ļà¤¯à¤µà¤²":6778,"à¥ĩà¤Ĥ?":6779,"à¥ĩà¤Ĥà¥¥à¥¥":6780,"à¥ĩà¤Ĥ\"à¥¤":6781,"à¥ĩà¤Ĥ\",":6782,"Ġà¤ķà¤°à¤ª":6783,"Ġà¤ķà¤°à¤ĩà¤Ľ":6784,"Ġà¤¤à¤¤à¤®":6785,"Ġà¤¤à¤µà¤ķ":6786,"Ġà¤¤à¤²à¤¬":6787,"à¤¡à¤Ī":6788,"à¤¡à¤µà¤¸":6789,"à¤¡à¤ıà¤®":6790,"Ġà¤Ĺà¤Ń":6791,"Ġà¤Ĺà¤¬à¤¨":6792,"à¤ĸà¤¯à¤¸":6793,"à¤ĸà¤ļà¤ķ":6794,"à¤ĸà¤ĩà¤¯":6795,"à¤ıà¤£":6796,"à¤ıà¤µà¤°":6797,"à¤ıà¤¨à¤µ":6798,"à¤Ńà¤¯à¤µ":6799,"à¤Ńà¤°à¤¦":6800,"à¤Ńà¤µà¤¸":6801,"Ġà¤īà¤ıà¤¹":6802,"Ġà¤īà¤¥à¤²":6803,"Ġà¤īà¤Ľà¤²à¤ķ":6804,"Ġà¤īà¤ĩà¤ł":6805,"à¤ķà¤°à¤Ń":6806,"Ġà¤¶à¤°à¤¤":6807,"Ġà¤¶à¤²à¤Ń":6808,"Ġà¤¯à¤°":6809,"Ġà¤¯à¤¤à¤¨":6810,"Ġà¤ĵà¤ªà¤¨":6811,"Ġà¤ĵà¤¨à¤ķà¤°":6812,"Ġà¤ĵà¤®à¤¦":6813,"Ġà¤ļà¤°à¤ķ":6814,"Ġà¤ļà¤¤à¤°":6815,"Ġà¤ļà¤µà¤¨":6816,"Ġà¤ļà¤ķà¤²":6817,"Ġà¤¸à¤®à¤·":6818,"Ġà¤¸à¤®à¤Ń":6819,"Ġà¤¸à¤®à¤¦à¤°à¤¸":6820,"Ġà¤Īà¤Ł":6821,"Ġà¤Īà¤ĵ":6822,"à¥ĭà¤Ĥ;":6823,"à¤¼-":6824,"à¤¼à¥¥":6825,"Ġà¤§à¤¸":6826,"Ġà¤§à¤°à¤¹":6827,"Ġà¤§à¤®à¤Ĺ":6828,"Ġà¤§à¤§à¤°":6829,"Ġà¤§à¤ıà¤¨":6830,"Ġà¤ĸà¤°à¤¹":6831,"Ġà¤ĸà¤¯à¤²":6832,"Ġà¤ĸà¤°à¤ľ":6833,"Ġà¤ĸà¤¨à¤¦":6834,"Ġà¤ĸà¤Ĺà¤¡":6835,"Ġà¤ĸà¤¯à¤²à¤¨":6836,"Ġà¤ħà¤¨à¤§à¤¨":6837,"à¤°à¤£à¤Ń":6838,"à¤°à¤¤à¤ī":6839,"à¤°à¤¤à¤ķà¤¥":6840,"Ġà¤¬à¤¨à¤¤à¤¯":6841,"à¤Īà¤Ĺ":6842,"à¤¾à¤Ĥà¥¤":6843,"Ġà¤ĩà¤ķà¤¤":6844,"à¤Ĩà¤ªà¤¨":6845,"à¤Ĩà¤®à¤¤":6846,"à¤Ĩà¤ªà¤¸":6847,"à¤Ĩà¤¬à¤¯":6848,"à¤Ĩà¤¯à¤°à¤²":6849,"Ġà¤¸à¤ķà¤Ī":6850,"Ġà¤¸à¤ķà¤²à¤Ĺ":6851,"à¤¿à¤Ĥ),":6852,"à¤ĩà¤²à¤°":6853,"à¥ī\"":6854,"à¤²à¤¨à¤¬à¤°":6855,"Ġà¤«à¤²à¤¨":6856,"Ġà¤«à¤°à¤¯":6857,"à¤¯à¤®à¤£":6858,"à¤°à¤¸à¤ķ":6859,"à¤ªà¤°à¤¬":6860,"à¤²à¤¯à¤¸":6861,"à¤²à¤¯à¤¸à¤Ńà¤ķ":6862,"à¤¤à¤°à¤ļà¤°":6863,"à¤¤à¤°à¤¶à¤¤à¤®":6864,"Ġà¤°à¤¹à¤ĩ":6865,"Ġà¤°à¤¹à¤¯à¤ķ":6866,"à¤ĺà¤łà¤¨à¤ķ":6867,"Ġà¤Ķà¤«":6868,"à¤Ĺà¤¤à¤¨":6869,"à¤ĩà¤¤à¤Ľ":6870,"à¤Ŀà¤µ":6871,"à¤Ŀà¤ĸà¤¨":6872,"à¤Ŀà¤²à¤¥":6873,"Ġà¤¡à¤ľ":6874,"Ġà¤¡à¤°à¤¬":6875,"Ġà¤¸à¤Ńà¤ľà¤¨":6876,"à¤µà¤°à¤²":6877,"Ġà¤¤à¤°à¤Ļ":6878,"Ġà¤ķà¤¹à¤ĩ":6879,"Ġà¤ķà¤¹à¤½":6880,"Ġà¤ķà¤¹à¤¬à¤¯":6881,"à¤½à¤¦":6882,"à¤½à¤¬":6883,"à¤½à¤·":6884,"Ġà¤īà¤ªà¤ķà¤°à¤£à¤ķ":6885,"à¤µà¤²à¤¦":6886,"à¤µà¤²à¤ªà¤°":6887,"à¤¯à¤¤à¤¤":6888,"Ġà¤ķà¤¹à¤²à¤ķà¤¯":6889,"à¤µà¤¨à¤°":6890,"à¤µà¤¨à¤²":6891,"à¤µà¤¨à¤¹":6892,"à¤µà¤¨à¤ªà¤°":6893,"à¤µà¤¨à¤ªà¤¤":6894,"Ġà¤ĳà¤Ĺ":6895,"à¤°à¤¦à¤®":6896,"à¥Ģà¤Ĥ'":6897,"Ġà¤ĺà¤®à¤£":6898,"à¤ŀà¤¨":6899,"à¤ŀà¤¯":6900,"à¤ŀà¤®à¤¯":6901,"Ġà¤¬à¤¹à¤°à¤¯":6902,"Ġà¤µà¤°à¤·":6903,"Ġà¤µà¤°à¤ĸ":6904,"à¤ľà¤¨à¤Ń":6905,"à¤¶à¤¨à¤¨":6906,"à¤¦à¤¨à¤¹":6907,"à¤¦à¤¨à¤µà¤¨":6908,"à¤¢à¤µ":6909,"Ġà¤ıà¤«à¤Īà¤ıà¤ļ":6910,"Ġà¤ıà¤«à¤ĵà¤Ĩà¤Ī":6911,"Ġà¤²à¤Ĺà¤¯":6912,"Ġà¤²à¤Ĺà¤ĩà¤Ľ":6913,"Ġà¤ħà¤¹à¤¹":6914,"à¤®à¤ķà¤®":6915,"à¤ĵà¤Ĺ":6916,"à¤ĵà¤ľ":6917,"à¤īà¤ªà¤¦":6918,"à¤īà¤¡à¤¸":6919,"à¤¦à¤°à¤Ń":6920,"à¤¨à¤²à¤ļ":6921,"à¤¯à¤¨à¤¨":6922,"à¤¯à¤¨à¤ľ":6923,"Ġà¤ķà¤®à¤¨à¤µ":6924,"Ġà¤ķà¤®à¤¹à¤°à¤®":6925,"Ġà¤ķà¤°à¤¬à¤¹":6926,"Ġà¤īà¤²à¤¹à¤¨":6927,"Ġà¤īà¤²à¤Ŀà¤¨":6928,"à¤ªà¤¤à¤¨":6929,"à¤ªà¤¤à¤¯":6930,"à¤°à¤µà¤¹":6931,"à¤°à¤¹à¤Ł":6932,"à¤Łà¤°à¤ķà¤°":6933,"à¤¬à¤°à¤ļ":6934,"à¤ħà¤Ł":6935,"à¤ħà¤µà¤¤":6936,"à¤ħà¤°à¤¬":6937,"à¤ħà¤ļà¤°":6938,"à¤ħà¤®à¤ľ":6939,"à¤ħà¤¨à¤®":6940,"Ġà¤¹à¤°à¤¡":6941,"Ġà¤¹à¤°à¤²à¤¨":6942,"Ġà¤¹à¤°à¤²à¤ķ":6943,"Ġà¤°à¤ĸà¤¬à¤¨":6944,"Ġà¤Ĩà¤¬à¤¤":6945,"Ġà¤Ĩà¤¬à¤®":6946,"à¤¹à¤°à¤¨":6947,"à¤¹à¤°à¤ª":6948,"Ġ-(":6949,"Ġ-]":6950,"à¤ķà¤²à¤®":6951,"Ġ';":6952,"Ġ,à¥¤":6953,"à¤¤à¤®à¤ľ":6954,"Ġà¤ľà¤¨à¤ľà¤¨à¤ķ":6955,"Ġà¤ľà¤¨à¤Ĺà¤£":6956,"à¤ıà¤¸à¤ıà¤²":6957,"à¤ıà¤¸à¤ıà¤¸":6958,"à¤ıà¤¸à¤ıà¤ıà¤ª":6959,"à¤¯à¤²à¤¥":6960,"Ġà¤łà¤¹à¤ķ":6961,"Ġà¤ıà¤ļà¤¡":6962,"à¤¤à¤¨à¤¸":6963,"à¤¨à¤°à¤Ĺà¤£":6964,"à¤Ĩà¤Īà¤µ":6965,"Ġà¤ļà¤²à¤¬à¤¯":6966,"Ġà¤ıà¤¸à¤ıà¤ļ":6967,"Ġà¤ıà¤¸à¤¡à¤¬":6968,"âĢ¢":6969,"à¤¨à¤µà¤°à¤ķ":6970,"Ġà¤īà¤łà¤µ":6971,"Ġà¤Ŀà¤°à¤ķà¤²":6972,"Ġà¤ķà¤¥à¤¯":6973,"Ġà¤ķà¤¨à¤ĸ":6974,"à¤®à¤£à¤¦":6975,"Ġà¤ıà¤¨à¤ĵà¤Ĩà¤°":6976,"Ġà¤Ĭà¤«":6977,"Ġà¤Ĭà¤¨à¤ķ":6978,"Ġà¤Ĭà¤ł":6979,"à¤µà¤§à¤¯":6980,"Ġà¤¬à¤¢à¤Ī":6981,"Ġà¤īà¤¨à¤¹":6982,"à¤²à¤¬à¤¨":6983,"Ġà¤ķà¤²à¤®à¤ķ":6984,"Ġà¤ĩà¤¨à¤ľ":6985,"à¤¸à¤²à¤ª":6986,"Ġà¤¬à¤°à¤·à¤¹":6987,"à¥¨à¥§à¥¨à¥¨":6988,"à¥Ģ))à¥¤":6989,"Ġà¤ļà¤°à¤ħà¤ļà¤°":6990,"à¤²à¤¹à¤Ł":6991,"Ġà¤¬à¤¤à¤¬à¤¯":6992,"à¤ļà¤²à¤ĸ":6993,"Ġà¤¬à¤ľà¤²à¤¹":6994,"à¤¨à¤¦à¤¹":6995,"à¤¨à¤¦à¤£":6996,"à¤«à¤²à¤®":6997,"à¤µà¤£à¤¹":6998,"à¤¨à¤¸à¤¬":6999,"à¥©à¥¨à¥©":7000,"à¤¯à¤¬à¤¸":7001,"Ġà¤Ńà¤°à¤ķà¤°":7002,"Ġà¤ħà¤Ĺà¤¹à¤¨à¤ķ":7003,"Ġà¤ľà¤²à¤¡à¤®à¤°":7004,"à¤ĵà¤²à¤¸":7005,"Ġà¤§à¤¨à¤ª":7006,"Ġà¤ıà¤²à¤ª":7007,"à¤Ńà¤µà¤µ":7008,"à¤¯à¤£à¤ľ":7009,"Ġà¤ħà¤Ĺà¤°à¤¬à¤¤":7010,"à¥«à¥ªà¥«":7011,"Ġà¤Ĩà¤ªà¤®":7012,"Ġà¤Ĩà¤Īà¤ĵà¤Ĩà¤°":7013,"Ġà¤ªà¤¦à¤µ":7014,"Ġà¤°à¤ĸà¤²à¤¸":7015,"à¤ľà¤ķà¤ķ":7016,"à¤ľà¤ķà¤®à¤²":7017,"à¤°à¤ķà¤Łà¤ķà¤°":7018,"Ġ[,":7019,"à¥ģà¤ĥà¥¥":7020,"Ġà¤¨à¤®à¤¶":7021,"à¥Ńà¥¨à¥Ń":7022,"Ġà¤«à¤²à¤ª":7023,"Ġà¤µà¤¨à¤¹":7024,"Ġà¤µà¤¨à¤īà¤ª":7025,"Ġà¤Ńà¤°à¤¤à¤¹à¤¨":7026,"Ġà¤¢à¤°":7027,"à¤ĸà¤¬à¤¤":7028,"Ġà¤¦à¤¶à¤¦":7029,"Ġà¤¦à¤¶à¤µà¤¦":7030,"Ġà¤¶à¤¤à¤ªà¤¥":7031,"Ġà¤ľà¤®à¤¹":7032,"Ġà¤ľà¤®à¤ķà¤°":7033,"à¤¾):":7034,"à¤ĳà¤ķ":7035,"à¤¹à¤¸à¤ª":7036,"à¤ĸà¤ķà¤®à¤²":7037,"Ġà¤¸à¤²à¤Ł":7038,"Ġà¤ªà¤µà¤®":7039,"Ġà¤ķà¤¯à¤²à¤ķà¤¨":7040,"Ġà¤°à¤¹à¤¬à¤¹":7041,"à¤®à¤¦à¤¤":7042,"à¤®à¤°à¤£à¤®":7043,"à¤®à¤°à¤£à¤ªà¤¤":7044,"à¤¸à¤¦à¤¸":7045,"à¤ķà¤¬à¤¸":7046,"Ġà¤ļà¤ķà¤«à¤¤":7047,"Ġà¤¨à¤Ĺà¤°à¤¨":7048,"à¤ıà¤¸à¤Ĩà¤°à¤ı":7049,"Ġà¤Ńà¤°à¤²à¤ª":7050,"Ġà¤ħà¤¯à¤²à¤¥":7051,"à¤²à¤Ńà¤¤":7052,"à¤²à¤Ńà¤®":7053,"à¤¤à¤¸à¤¦à¤¨":7054,"à¤¦à¤¶à¤¦":7055,"Ġà¤¨à¤°à¤ªà¤¤":7056,"Ġà¤¸à¤°à¤¸à¤ķ":7057,"Ġà¤¤à¤°à¤«à¤µà¤²":7058,"à¤ħà¤²à¤®à¤¨":7059,"Ġà¥«à¥«":7060,"ĠÂ§":7061,"à¤¯à¤¯à¤¨à¤®à¤¨à¤¨":7062,"à¥ĩà¤Ĥ)),":7063,"à¥ĩ\",":7064,"Ġà¤ħà¤Łà¤ªà¤Ł":7065,"Ġà¤¨à¤ľà¤°à¤ħà¤¨":7066,"Ġà¤ıà¤«à¤ıà¤Ĩà¤Ī":7067,"Ġà¤Ĩà¤¸à¤ªà¤¡":7068,"à¤Ĳà¤¤":7069,"Ġà¤°à¤£à¤µ":7070,"Ġà¤¤à¤®à¤Ń":7071,"à¤µà¤ļà¤¨à¤ķ":7072,"à¥§à¥Ńà¥©":7073,"à¥§à¥Ńà¥ª":7074,"à¥§à¥Ńà¥¯":7075,"Ġà¥¨à¥¦à¥§à¥«":7076,"Ġà¤ĵà¤®à¤¹à¤°":7077,"à¥§à¥¬à¥«":7078,"à¥§à¥¬à¥¯":7079,"Ġà¤Ĺà¤łà¤¬":7080,"Ġà¤ļà¤®à¤ķà¤²":7081,"à¥§à¥®à¥©":7082,"Ġà¤ķà¤¦à¤®à¤¨":7083,"Ġà¤Ńà¤Łà¤ķà¤¤":7084,"Ġà¤ķà¤ļà¤¡":7085,"à¥§à¥¯à¥§":7086,"à¥§à¥¯à¥¨":7087,"à¥§à¥¯à¥Ń":7088,"à¥§à¥¯à¥¦":7089,"à¤Ķà¤ªà¤ļ":7090,"à¥¨à¥¦à¥§":7091,"à¥¨à¥¦à¥«":7092,"à¥¨à¥¦à¥¦":7093,"à¥¨à¥¦à¥¯":7094,"Ġà¤ªà¤ļà¤ªà¤¨":7095,"Ġ(-,":7096,"Ġà¤ļà¤²à¤¯à¤µ":7097,"Ġâĸª":7098,"à¤²à¤ªà¤¡":7099,"à¤®à¤Ńà¤¦":7100,"Ġà¤¨à¤ľà¤°à¤¨":7101,"Ġà¤®à¤Ĺà¤°à¤®à¤ļ":7102,"à¤Ĺà¤µà¤¤à¤ķ":7103,"à¤ĩà¤«à¤Ł":7104,"Ġà¤¬à¤°à¤¦à¤ķ":7105,"Ġà¤ıà¤ıà¤®à¤¡à¤¬":7106,"Ġà¤¶à¤¨à¤¹à¤¨":7107,"à¤¯à¤½à¤¹":7108,"à¤²à¤²à¤ķà¤¯":7109,"Ġà¤²à¤¹à¤°à¤ķ":7110,"Ġà¥§à¥¯à¥ªà¥Ń":7111,"Ġà¤ĸà¤Ĺà¤ªà¤¤":7112,"à¥Ī\";":7113,"Ġà¤ľà¤¯à¤¨à¤Ĺà¤°":7114,"à¤ıà¤ıà¤²à¤ıà¤®":7115,"Ġ,-,;":7116,"Ġà¤Ĩà¤ĩà¤¸à¤Ĺ":7117,"à¤¿âĢĻ,":7118,"à¤¿âĢĻà¥¤":7119,"Ġà¤ľà¤ĩà¤¤à¤¹":7120,"Ġà¤¦à¤ĩà¤²à¤¨":7121,"Ġà¤²à¤Ľà¤®":7122,"Ġà¤ħà¤ľà¤¨à¤¬":7123,"Ġà¤µà¤¨à¤¸à¤¹":7124,"Ġà¤ħà¤µà¤¤à¤°à¤²":7125,"Ġà¤ªà¤¯à¤°à¤¹":7126,"à¤®à¤ĺà¤°à¤ķ":7127,"à¤®à¤ĺà¤°à¤®":7128,"Ġà¤µà¤¯à¤¸à¤ķ":7129,"Ġà¤ıà¤Łà¤²à¤¸":7130,"à¤ıà¤Ĩà¤Īà¤ıà¤®à¤Ĩà¤°":7131,"Ġà¤ıà¤µà¤°à¤¶":7132,"Ġà¤ķà¤¤à¤°à¤¨":7133,"Ġà¤ıà¤ıà¤®à¤Ĩà¤Īà¤Īà¤¯":7134,"____":7135,"Ġà¤ľà¤ªà¤¤à¤ª":7136,"Ġà¤ļà¤¹à¤²à¤ªà¤¹à¤²":7137,"à¤·à¤¯à¤µà¤Ł":7138,"Ġà¤ıà¤®à¤ıà¤Ĩà¤°à¤ı":7139,"Ġà¤¬à¤°à¤¬à¤¸":7140,"à¤ıà¤Īà¤Ī":7141,"Ġà¤¦à¤¸à¤°à¤¥":7142,"à¤ŀà¤®à¤¯à¤ľà¤¨":7143,"Ġà¤¦à¤¶à¤µà¤¦à¤¨à¤ķ":7144,"\"\"":7145,")'":7146,")]":7147,"-;":7148,":\"":7149,"Ġ+":7150,"à¤°à¤ı":7151,"à¤°à¤ĸà¤¨":7152,"à¤¿à¥į":7153,"Ġà¤ķà¤®à¤¤":7154,"Ġà¤ķà¤Ļ":7155,"Ġà¤ķà¤±":7156,"à¤¨à¤¨à¤ķ":7157,"à¤¨à¤ĺ":7158,"à¤¨à¤ŀ":7159,"à¤¨à¤¦à¤ķ":7160,"à¤¨à¤¶à¤¨":7161,"à¤¨à¤¶à¤ķ":7162,"à¤¨à¤ľà¤²":7163,"à¤¤à¤Ľ":7164,"à¤¤à¤ı":7165,"à¤¤à¤«à¤²":7166,"à¤¤à¤ªà¤¥":7167,"à¤¤à¤ĸà¤°":7168,"à¤¤à¤Ĺà¤¬":7169,"à¤¤à¤¬à¤¸":7170,"à¤ķà¤·":7171,"à¤ķà¤Ŀ":7172,"à¤ķà¤¹à¤°":7173,"à¤ķà¤ľà¤²":7174,"à¤ķà¤Ľà¤¨":7175,"à¤ķà¤ĳà¤²":7176,"à¤²à¤Ĺà¤¤":7177,"à¤²à¤Łà¤¨":7178,"à¤²à¤Ļ":7179,"à¤²à¤µà¤¸":7180,"à¤¯à¤°à¤¹":7181,"à¤¯à¤°à¤¶":7182,"à¤¯à¤Ńà¤¯":7183,"à¤¯à¤¯à¤ķà¤¨":7184,"à¤¯à¤¡à¤²à¤°":7185,"Ġà¤¸à¤īà¤¦":7186,"à¥ĢâĢĿ":7187,"à¤¹à¤ľà¤¨à¤ķ":7188,"à¤®à¤¶à¤°":7189,"à¤®à¤¬à¤¤":7190,"à¤®à¤½à¤µ":7191,"Ġà¤ªà¤¨à¤¸":7192,"à¤µà¤Ļ":7193,"à¤µà¤¦à¤¯":7194,"à¥ĭ);":7195,"à¤¸à¤¦à¤¨":7196,"à¤¸à¤µà¤ª":7197,"à¤¸à¤²à¤¬":7198,"à¤¸à¤µà¤¸":7199,"à¤¸à¤Ĳ":7200,"à¤¸à¤°à¤¸à¤Ń":7201,"Ġà¤®à¤¢":7202,"Ġà¤®à¤ī":7203,"Ġà¤®à¤¯à¤¨":7204,"Ġà¤®à¤°à¤¹":7205,"Ġà¤®à¤¥à¤¨":7206,"Ġà¤®à¤ĩà¤Ł":7207,"Ġà¤®à¤¥à¤²":7208,"Ġà¤®à¤°à¤£à¤ķ":7209,"Ġà¤®à¤ĩà¤Łà¤ķ":7210,"Ġà¤ħà¤¯à¤®":7211,"Ġà¤ħà¤¬à¤°":7212,"Ġà¤ħà¤ĸà¤°":7213,"Ġà¤ľà¤ªà¤¨":7214,"Ġà¤ľà¤¹à¤²":7215,"Ġà¤ľà¤ªà¤¥":7216,"Ġà¤ľà¤¨à¤²à¤¹":7217,"à¤ªà¤ĺ":7218,"à¤ªà¤ĩà¤¯":7219,"à¤¦à¤¥":7220,"à¤¦à¤Ľ":7221,"à¤¦à¤°à¤£":7222,"à¤¦à¤¯à¤µ":7223,"à¤¦à¤°à¤¦":7224,"à¤¦à¤¬à¤°":7225,"à¤¦à¤¸à¤®":7226,"à¤¦à¤µà¤ľ":7227,"Ġà¤Ĩà¤²à¤ķ":7228,"Ġà¤Ĩà¤ĸà¤°":7229,"Ġà¤¬à¤¯à¤°":7230,"Ġà¤¬à¤¯à¤¸":7231,"Ġà¤¬à¤¸à¤®":7232,"Ġà¤¬à¤ĸà¤°":7233,"Ġà¤¬à¤Ĺà¤¡":7234,"Ġà¤¬à¤īà¤Ĩ":7235,"Ġà¤¹à¤°à¤¸":7236,"Ġà¤¹à¤¸à¤¨":7237,"Ġà¤¹à¤²à¤ķ":7238,"Ġà¤¹à¤¨à¤²":7239,"Ġà¤¹à¤¦à¤¯":7240,"à¤Łà¤¤à¤®":7241,"à¤Ĺà¤Ľ":7242,"à¤Ĺà¤Ī":7243,"à¤Ĺà¤¹à¤®":7244,"à¤Ĺà¤¸à¤Ńà¤ķ":7245,"Ġà¤µà¤ª":7246,"Ġà¤µà¤°à¤¸":7247,"Ġà¤µà¤¹à¤¤":7248,"Ġà¤µà¤¨à¤°":7249,"Ġà¤µà¤ļà¤¸":7250,"Ġà¤¦à¤°à¤¦":7251,"Ġà¤¦à¤Ĺà¤¬":7252,"à¤¬à¤ĸ":7253,"à¤¬à¤ķà¤°":7254,"à¤¬à¤¦à¤¨":7255,"à¤¬à¤°à¤¹":7256,"à¤¬à¤ķà¤²":7257,"à¤¬à¤¹à¤¸":7258,"à¥Ĥ'":7259,"à¤§à¤§":7260,"à¤§à¤ķà¤¨":7261,"à¤§à¤¨à¤¨":7262,"à¤§à¤ªà¤¦":7263,"à¤§à¤®à¤¯":7264,"Ġà¤ıà¤µà¤¨":7265,"Ġà¤ıà¤Łà¤°":7266,"Ġà¤ıà¤ıà¤¸à¤¸":7267,"à¤·à¤°à¤®":7268,"à¤·à¤¯à¤¨":7269,"à¤·à¤¤à¤µ":7270,"à¤£à¤¨à¤ķ":7271,"à¤£à¤ħà¤°":7272,"Ġà¤°à¤®à¤¤":7273,"Ġà¤°à¤Łà¤¨":7274,"Ġà¤°à¤¸à¤ķ":7275,"Ġà¤°à¤ļà¤¬":7276,"à¤ģà¤ĥ":7277,"Ġà¤²à¤µà¤ķ":7278,"Ġà¤²à¤¹à¤ķ":7279,"à¤¥à¤²à¤µ":7280,"à¤¥à¤¸à¤Ńà¤ķ":7281,"à¤ľà¤ĺ":7282,"à¤ľà¤¯à¤¤":7283,"à¤ľà¤¤à¤ķ":7284,"à¤ľà¤µà¤§":7285,"à¤ľà¤Ļ":7286,"à¤ľà¤¯à¤µà¤²":7287,"à¤ľà¤²à¤¸":7288,"à¤ľà¤ªà¤¦":7289,"à¤ľà¤µà¤¨à¤ķ":7290,"à¤ľà¤ĸà¤¬à¤°":7291,"Ġà¤Ľà¤¹à¤ķ":7292,"Ġà¤Ľà¤°à¤ª":7293,"Ġà¤Ľà¤®à¤¹":7294,"à¤Ľà¤¨à¤¹":7295,"à¤¶à¤®à¤ķ":7296,"à¤¶à¤ªà¤¤":7297,"à¤¶à¤®à¤¨":7298,"à¤ļà¤«":7299,"à¤ļà¤¸à¤¨":7300,"à¤ļà¤µà¤²":7301,"à¤ļà¤Ĺà¤°":7302,"à¤ļà¤µà¤ķ":7303,"à¤ļà¤ªà¤¦":7304,"à¤ļà¤ķà¤µ":7305,"à¥ĩà¤Ĥ\":":7306,"à¥ĩà¤Ĥ?---":7307,"Ġà¤ķà¤°à¤¸":7308,"Ġà¤ķà¤°à¤£à¤®":7309,"Ġà¤¤à¤°à¤¤":7310,"Ġà¤¤à¤®à¤²":7311,"Ġà¤¤à¤¨à¤¨":7312,"Ġà¤¤à¤ªà¤ķ":7313,"Ġà¤¤à¤¤à¤ķ":7314,"Ġà¤¤à¤ĩà¤¸":7315,"Ġà¤¤à¤ªà¤¹":7316,"à¤¡à¤°à¤¸":7317,"à¤¡à¤¯à¤¨":7318,"à¤¡à¤°à¤¨":7319,"à¤¡à¤Ĺà¤²à¤¸":7320,"Ġà¤Ĺà¤®à¤²":7321,"Ġà¤Ĺà¤½":7322,"Ġà¤Ĺà¤¨à¤¬":7323,"Ġà¤Ĺà¤ľà¤®":7324,"Ġà¤ªà¤°à¤µà¤°à¤¦":7325,"à¤ĸà¤Ł":7326,"à¤ĸà¤ľ":7327,"à¤ĸà¤Ī":7328,"à¤ĸà¤ªà¤°":7329,"à¤ĸà¤²à¤¤":7330,"à¤ĸà¤Ĺà¤°":7331,"à¤ĸà¤¹à¤ķ":7332,"à¤ĸà¤¹à¤°à¤£":7333,"Ġà¤Ńà¤®":7334,"Ġà¤Ńà¤°à¤£":7335,"Ġà¤Ńà¤¯à¤²":7336,"à¤ıà¤ķà¤²":7337,"à¤ıà¤ķà¤¹":7338,"à¤ıà¤ıà¤ķ":7339,"à¤Ńà¤§":7340,"à¤Ńà¤ļ":7341,"à¤Ńà¤ªà¤°":7342,"à¤ĩà¤Ŀ":7343,"à¤ĩà¤ķà¤ķ":7344,"Ġà¤īà¤¸à¤°":7345,"Ġà¤īà¤®à¤ķ":7346,"Ġà¤īà¤°à¤Ĺ":7347,"Ġà¤¶à¤¤à¤¨":7348,"Ġà¤¶à¤®à¤¶":7349,"Ġà¤¯à¤²":7350,"Ġà¤¯à¤¦à¤¨":7351,"Ġà¤¯à¤¶à¤°":7352,"Ġà¤¯à¤Ķ":7353,"Ġà¤ĵà¤¶":7354,"Ġà¤ĵà¤ĩà¤¸à¤¨":7355,"Ġà¤Ľà¤²à¤°à¤¹":7356,"Ġà¤ļà¤ªà¤°":7357,"Ġà¤ļà¤°à¤µ":7358,"Ġà¤ļà¤Łà¤°":7359,"Ġà¤ļà¤Łà¤ķ":7360,"Ġà¤¸à¤®à¤¹":7361,"Ġà¤¸à¤®à¤®":7362,"Ġà¤Īà¤Ī":7363,"Ġà¤Īà¤¸à¤®":7364,"Ġà¤ıà¤ķà¤ķà¤°":7365,"Ġà¤ıà¤ķà¤ªà¤ķ":7366,"Ġà¤ıà¤ķà¤²à¤¬":7367,"Ġà¤ıà¤ķà¤Ľà¤¤":7368,"à¤¿à¥¤\"":7369,"à¤¼\"":7370,"à¤¼à¥Ĥà¤ģ":7371,"Ġà¤§à¤¹":7372,"Ġà¤§à¤ľ":7373,"Ġà¤§à¤µà¤²":7374,"Ġà¤ĸà¤ĸ":7375,"Ġà¤ĸà¤¯à¤¤":7376,"Ġà¤ĸà¤Ĺà¤°":7377,"Ġà¤ĸà¤Łà¤ķ":7378,"Ġà¤ĸà¤ĩà¤¤à¤¯":7379,"Ġà¤ĸà¤¯à¤²à¤¹":7380,"Ġà¤ıà¤¹à¤°":7381,"Ġà¤ħà¤¨à¤ļ":7382,"Ġà¤ħà¤¨à¤°à¤£":7383,"Ġà¤ħà¤¨à¤ķà¤¥":7384,"à¤°à¤£à¤®à¤¤":7385,"à¤°à¤£à¤µà¤¶":7386,"à¤°à¤£à¤¤à¤ª":7387,"Ġà¤¬à¤¨à¤ıà¤¬":7388,"à¤Īà¤µ":7389,"à¤Īà¤¦":7390,"à¤Īà¤«":7391,"à¤Īà¤Ĺà¤²":7392,"à¤Īà¤¥à¤°":7393,"Ġà¤¹à¤®à¤®":7394,"à¤«à¤¯":7395,"à¥ĩà¤ģ)":7396,"à¤¾à¤ģà¥¥à¥¥":7397,"Ġ([":7398,"Ġ(]":7399,"Ġà¤ĩà¤®à¤²":7400,"Ġà¤ĩà¤µà¤°":7401,"Ġà¤ĩà¤¯à¤°":7402,"à¤ıà¤²à¤¡à¤¬":7403,"à¤ıà¤²à¤ıà¤ķ":7404,"à¤Ĩà¤¡":7405,"à¤Ĩà¤ĸ":7406,"à¤Ĩà¤ı":7407,"à¤Ĩà¤Ĩ":7408,"à¤Ĩà¤¯à¤¬":7409,"à¤Ĩà¤ĩà¤¸":7410,"à¤Ĩà¤ķà¤¸":7411,"à¤Ĩà¤ĩà¤¯":7412,"à¤Ĩà¤¸à¤ª":7413,"Ġà¤¸à¤ķà¤®":7414,"à¤¿à¤Ĥ?":7415,"à¤¨à¤ķà¤¯":7416,"à¤ĩà¤²à¤¹":7417,"Ġà¤¸à¤¬à¤²à¤¤":7418,"à¤łà¤Ĺà¤¤":7419,"à¥īà¥¤":7420,"à¤²à¤¨à¤Ĺ":7421,"à¤²à¤¨à¤ķà¤°":7422,"Ġà¤«à¤²à¤°":7423,"à¤¯à¤®à¤¦":7424,"à¤¯à¤®à¤¶":7425,"à¤°à¤¸à¤¯":7426,"à¤°à¤¸à¤¬":7427,"à¤°à¤¸à¤°à¤ķ":7428,"à¤®à¤²à¤²":7429,"à¤®à¤²à¤ĸà¤¨":7430,"Ġà¤Ĩà¤°à¤ı":7431,"Ġà¤Ĩà¤°à¤Ī":7432,"Ġà¤Ĩà¤°à¤ıà¤®":7433,"à¤ªà¤°à¤¶":7434,"à¤ªà¤°à¤Ĩà¤°":7435,"à¤¤à¤°à¤¯":7436,"à¤¤à¤°à¤¬":7437,"à¤¤à¤°à¤ķà¤°":7438,"à¤¤à¤°à¤Ļ":7439,"Ġà¤°à¤¹à¤ķà¤°":7440,"Ġà¤°à¤¹à¤½":7441,"à¤ĺà¤¬":7442,"à¤ĺà¤Ľ":7443,"à¤ĺà¤¨à¤¨":7444,"à¤Ĺà¤¤à¤ª":7445,"à¤¯à¤µà¤ķ":7446,"à¤ĩà¤¤à¤ĸ":7447,"à¤ĥ:":7448,"à¤Ŀà¤¯à¤µ":7449,"à¤Ŀà¤¯à¤µà¤²":7450,"à¤¸à¤¨à¤ªà¤°":7451,"Ġà¤¡à¤°à¤¸":7452,"Ġà¤¡à¤²à¤¬":7453,"Ġà¤¡à¤¬à¤²":7454,"Ġà¤¸à¤Ńà¤Ĺ":7455,"Ġà¤¸à¤Ńà¤ł":7456,"à¤µà¤°à¤µà¤°":7457,"Ġà¤¤à¤°à¤¯":7458,"Ġà¤¤à¤°à¤¥":7459,"Ġà¤ķà¤¹à¤ı":7460,"Ġà¤ķà¤¹à¤ĩà¤Ľ":7461,"Ġà¤ªà¤¹à¤¨à¤¨":7462,"Ġà¤ªà¤¹à¤¨à¤¤":7463,"Ġà¤īà¤ªà¤¤":7464,"Ġà¤īà¤ªà¤ł":7465,"Ġà¤īà¤ªà¤Ĺà¤¤":7466,"Ġà¤īà¤ªà¤ħà¤¨":7467,"Ġà¤ħà¤ªà¤²à¤ķ":7468,"à¤£à¤¯à¤¸à¤Ń":7469,"à¤µà¤¨à¤Ń":7470,"Ġà¤®à¤¹à¤«":7471,"à¤°à¤¦à¤¦":7472,"à¥Īà¤Ĥ\"à¥¤":7473,"à¥Īà¤Ĥ\":":7474,"à¤¸à¤°à¤²à¤¨":7475,"Ġà¤ĺà¤°à¤£":7476,"Ġà¤ĺà¤¹à¤°":7477,"Ġà¤ĺà¤¨à¤¸":7478,"à¤ŀà¤®à¤¤à¤¨":7479,"Ġà¤¸à¤¹à¤¥":7480,"Ġà¤Ĩà¤¦à¤¤à¤¨":7481,"Ġà¤¬à¤¹à¤ı":7482,"Ġà¤µà¤°à¤¬à¤°":7483,"Ġà¤¥à¤°à¤µ":7484,"à¤ľà¤¨à¤¨à¤ķ":7485,"à¤ľà¤¨à¤µà¤°":7486,"à¤ľà¤¨à¤Ĺà¤°":7487,"à¤ĸà¤¨à¤¨à¤ķà¤°":7488,"Ġà¤īà¤¦à¤Ĺ":7489,"à¤¦à¤¨à¤¡":7490,"à¤¢à¤¬":7491,"Ġà¤ıà¤«à¤ıà¤¸à¤¡à¤¬":7492,"à¤ķà¤°à¤£à¤¸à¤°à¤²":7493,"Ġà¤ħà¤¸à¤¹à¤¨":7494,"Ġà¤®à¤¨à¤¶":7495,"à¤µà¤¤à¤®à¤ª":7496,"à¤®à¤ķà¤ķ":7497,"à¤®à¤ķà¤ª":7498,"à¤ĵà¤¨à¤ķà¤°":7499,"à¤īà¤§":7500,"à¤īà¤°à¤¸":7501,"à¤īà¤°à¤²":7502,"à¤īà¤¨à¤¸":7503,"à¤īà¤łà¤²":7504,"à¤¨à¤²à¤¸":7505,"à¥ģà¤ģ,":7506,"à¤°à¤Ńà¤ķ":7507,"à¤®à¤¤à¤ª":7508,"à¤®à¤¤à¤²à¤¬":7509,"Ġà¤ķà¤®à¤¸":7510,"Ġà¤ķà¤®à¤²à¤¨":7511,"Ġà¤īà¤²à¤°":7512,"Ġà¤īà¤²à¤Łà¤«":7513,"à¤ķà¤¨à¤¸à¤Ń":7514,"à¤°à¤¹à¤°à¤£":7515,"à¤°à¤¹à¤¨à¤ķ":7516,"à¤¬à¤°à¤ª":7517,"Ġà¤¤à¤ķà¤¤":7518,"Ġà¤¤à¤ķà¤²à¤¹":7519,"à¤ħà¤ı":7520,"à¤ħà¤½":7521,"à¤ħà¤®à¤Ĺ":7522,"à¤ħà¤°à¤ª":7523,"à¤ħà¤Ĺà¤¸":7524,"Ġà¤ħà¤²à¤µ":7525,"Ġà¤ªà¤¤à¤Ŀà¤¡":7526,"Ġà¤Ĩà¤¬à¤ı":7527,"Ġà¤Ĩà¤¬à¤¯à¤ľ":7528,"Ġà¤ħà¤Ńà¤ķ":7529,"Ġà¤ħà¤Ńà¤¯à¤®":7530,"à¤¯à¤°à¤°":7531,"à¤¯à¤°à¤Ĺ":7532,"à¤Ĺà¤²à¤ķà¤°":7533,"Ġà¤¸à¤®à¤Ŀà¤¥":7534,"Ġà¤ľà¤¬à¤¹":7535,"Ġà¤ħà¤¤à¤²":7536,"Ġà¤ħà¤¤à¤¸":7537,"Ġà¤ľà¤¨à¤ªà¤¦":7538,"Ġà¤§à¤°à¤¥":7539,"Ġà¤§à¤°à¤«à¤°":7540,"à¤¯à¤ķà¤¤à¤¯":7541,"à¤¯à¤²à¤®":7542,"à¤¯à¤²à¤Ń":7543,"Ġ)')":7544,"Ġ)\")":7545,"Ġ)'à¥¤":7546,"Ġà¤łà¤Ł":7547,"Ġà¤łà¤®à¤ķ":7548,"Ġà¤ıà¤ļà¤ľ":7549,"à¤¤à¤¨à¤¤":7550,"à¤¨à¤°à¤¨":7551,"Ġà¤Ńà¤Ĺà¤¦à¤¡":7552,"Ġà¤ıà¤¸à¤ķ":7553,"âĢĺ":7554,"Ġà¤¬à¤²à¤¹":7555,"Ġà¤¬à¤²à¤§":7556,"Ġà¤īà¤łà¤¹":7557,"Ġà¤ıà¤ķà¤°à¤¬":7558,"Ġà¤Ŀà¤¨":7559,"Ġà¤Ŀà¤¹à¤°":7560,"Ġà¤Ŀà¤²à¤«à¤²":7561,"Ġà¤Ŀà¤ªà¤ķà¤¨":7562,"Ġà¤ķà¤¥à¤®":7563,"Ġà¤ķà¤¨à¤¸":7564,"à¤¤à¤ķà¤§":7565,"à¤®à¤£à¤°":7566,"à¤®à¤£à¤¬":7567,"Ġà¤ıà¤¨à¤ıà¤¡":7568,"Ġà¤Ĭà¤¬":7569,"à¤ĩà¤¨à¤¸":7570,"Ġà¤¬à¤¢à¤¨":7571,"à¤§à¤¨à¤¯":7572,"Ġà¤īà¤¨à¤Ł":7573,"à¤²à¤¬à¤¤":7574,"Ġà¤īà¤¨à¤ķà¤°à¤¨":7575,"à¤µà¤¯à¤¨à¤ķ":7576,"Ġà¤ķà¤¤à¤¯à¤ķà¤¤à¤¯":7577,"Ġà¤ĺà¤°à¤ħ":7578,"Ġà¤µà¤¸à¤¤":7579,"Ġà¤Ńà¤½à¤Ĺ":7580,"Ġà¤¬à¤ļà¤ķ":7581,"Ġà¤¬à¤ļà¤¤à¤¯":7582,"Ġà¤ħà¤¬à¤¥":7583,"à¤¸à¤²à¤µ":7584,"à¤Łà¤²à¤«":7585,"à¤°à¤¬à¤§":7586,"Ġà¤¬à¤°à¤¬à¤°":7587,"Ġà¤¬à¤°à¤¨à¤¤":7588,"à¤ıà¤ļà¤ķ":7589,"Ġà¤ªà¤°à¤®à¤®":7590,"à¥¨à¥¨à¥©":7591,"à¤°à¤ľà¤®":7592,"à¤²à¤¹à¤ķ":7593,"à¤·à¤¯à¤Ĺà¤¤":7594,"Ġà¤¬à¤ľà¤µ":7595,"Ġà¤¬à¤ľà¤²à¤ĸ":7596,"à¤«à¤²à¤¸":7597,"à¤µà¤£à¤°":7598,"à¤¥à¤¨à¤®":7599,"à¤Ļà¤ķ":7600,"Ġà¤Ńà¤°à¤¹à¤²":7601,"à¤ĩà¤¸à¤¸":7602,"Ġà¤¨à¤µà¤Ń":7603,"à¤¦à¤¯à¤¹":7604,"à¤ªà¤£à¤®":7605,"à¥ªà¥ªà¥«":7606,"à¤¬à¤¨à¤¹à¤¹":7607,"Ġà¤ľà¤²à¤µ":7608,"à¤¹à¤°à¤£à¤¨":7609,"Ġà¤ķà¤ªà¤Łà¤°":7610,"à¤Łà¤ķà¤ª":7611,"à¤Ńà¤µà¤¶":7612,"Ġà¤Ĩà¤ĩà¤Ľ":7613,"à¤¯à¤£à¤ª":7614,"Ġà¤ļà¤°à¤£à¤¸":7615,"Ġà¤ļà¤°à¤£à¤ļ":7616,"Ġà¤ļà¤°à¤£à¤µà¤¨":7617,"à¤ĩà¤Ľà¤¥":7618,"à¤¡à¤²à¤®":7619,"Ġà¤ħà¤ķà¤£":7620,"à¤Ĺà¤®à¤¹":7621,"Ġà¤ªà¤¦à¤ª":7622,"Ġà¤ªà¤¦à¤¸à¤Ń":7623,"Ġà¤ıà¤®à¤¹à¤°":7624,"à¤²à¤¸à¤ĸ":7625,"à¤ıà¤¨à¤ıà¤«à¤ľ":7626,"à¤°à¤ªà¤¶":7627,"Ġà¤Ńà¤¯à¤¦":7628,"Ġà¤Ńà¤¯à¤°à¤¹":7629,"Ġà¤Ĳà¤¸à¤¹":7630,"à¤¬à¤²à¤°":7631,"à¤²à¤°à¤ªà¤¨":7632,"Ġà¤¤à¤¹à¤ĸ":7633,"Ġà¤Ńà¤µà¤¦":7634,"Ġà¤Ńà¤µà¤¶":7635,"Ġà¤Ńà¤µà¤¬à¤¨":7636,"Ġà¤Ńà¤µà¤Ńà¤¯":7637,"Ġà¤ľà¤Ĺà¤®à¤Ĺ":7638,"Ġà¤¦à¤²à¤ªà¤¤":7639,"Ġà¤ľà¤¯à¤§":7640,"Ġà¤°à¤ľà¤¤":7641,"Ġà¤¬à¤¸à¤¯à¤µà¤²":7642,"à¤·à¤¸à¤¸":7643,"à¤¤à¤¹à¤Ł":7644,"à¤¯à¤¦à¤§":7645,"Ġà¤¬à¤¨à¤²à¤¥":7646,"Ġà¤Ĭà¤ªà¤°à¤µà¤²":7647,"à¤ıà¤®à¤ıà¤Ł":7648,"Ġà¤ľà¤¨à¤ķà¤¦":7649,"Ġà¤¸à¤ľà¤®":7650,"Ġà¤¸à¤ľà¤²à¤¨à¤¯à¤¨":7651,"à¥ĩ))à¥¤":7652,"Ġà¤īà¤ªà¤°à¤µà¤²":7653,"Ġà¤¦à¤¶à¤µà¤¦à¤¨":7654,"Ġà¤¶à¤¤à¤¶à¤¤":7655,"Ġà¤ķà¤µà¤ļà¤ķ":7656,"Ġà¤ķà¤µà¤ļà¤¸":7657,"à¤¾)\"":7658,"âĢĻ:":7659,"âĢĻ);":7660,"à¤ĳà¤ª":7661,"à¤¹à¤®à¤¯":7662,"Ġà¤ķà¤¹à¤¬à¤¹":7663,"à¤¨à¤¬à¤¹":7664,"à¤ıà¤¹à¤ķà¤°":7665,"à¤¿\")":7666,"à¤¿\";":7667,"à¤ľà¤¯à¤¶":7668,"à¤¥à¤ķà¤ª":7669,"Ġà¤°à¤¸à¤Ĺà¤°":7670,"à¤®à¤°à¤£à¤¸":7671,"à¤·à¤°à¤µà¤²":7672,"à¤¤à¤°à¤£à¤ķà¤°":7673,"à¥ĭà¥¤à¥¤":7674,"Ġà¤ķà¤®à¤²à¤®":7675,"Ġà¤ļà¤ķà¤®à¤ķ":7676,"Ġà¤ķà¤Łà¤¯":7677,"à¥Ģ-;":7678,"à¤Ĩà¤¤à¤°à¤ķ":7679,"à¤ĸà¤°à¤ªà¤°":7680,"à¤°à¤§à¤¨à¤ķ":7681,"à¤¥à¤²à¤ªà¤°":7682,"Ġà¤®à¤¸à¤²à¤¯":7683,"à¤¸à¤ªà¤¡":7684,"à¤ħà¤ªà¤µ":7685,"Ġà¤ªà¤Łà¤µ":7686,"Ġà¤ªà¤Łà¤ķà¤¯":7687,"Ġà¤ªà¤Łà¤ķà¤²":7688,"Ġà¤ĺà¤Łà¤¦":7689,"à¤¦à¤¶à¤Ń":7690,"Ġà¥ªà¥Ń":7691,"Ġà¥ªà¥®":7692,"Ġà¥ªà¥¯":7693,"Ġà¤¸à¤°à¤¸à¤«":7694,"Ġà¥«à¥§":7695,"Ġà¥«à¥¨":7696,"Ġà¥«à¥¬":7697,"Ġà¥«à¥Ń":7698,"Ġà¤ıà¤ıà¤¸à¤ı":7699,"Ġà¤īà¤ªà¤¨à¤Ĺà¤°":7700,"Ġà¤²à¤½à¤ķà¤½":7701,"à¤ĩà¤®à¤°à¤ķ":7702,"Ġà¤ıà¤¸à¤ıà¤¡":7703,"à¤¯à¤®à¤¨à¤ĺ":7704,"ĠÂ£":7705,"Ġà¤¤à¤¯à¤ªà¤°":7706,"à¤ļà¤¬à¤ļ":7707,"Ġà¥¬à¥ª":7708,"Ġà¤ľà¤ªà¤¬":7709,"Ġ/,":7710,"Ġà¤Ĺà¤®à¤ķà¤¯":7711,"Ġà¤¯à¤®à¤ĺà¤°":7712,"à¥Ģ'),":7713,"âĢĿ:":7714,"à¤Ĩà¤¯à¤ķà¤°":7715,"Ġà¤Ĩà¤ĩà¤²à¤ķ":7716,"Ġà¤®à¤¨à¤¨à¤¶":7717,"à¤ļà¤°à¤£à¤®":7718,"Ġà¤¨à¤¯à¤¨à¤¨":7719,"à¥§à¥Ńà¥Ń":7720,"Ġà¥¨à¥¦à¥¬à¥®":7721,"Ġà¥¨à¥¦à¥¬à¥§":7722,"Ġà¥¨à¥¦à¥Ńà¥ª":7723,"à¤¨à¤²à¤ķà¤¨":7724,"à¥§à¥®à¥Ń":7725,"à¥§à¥®à¥®":7726,"à¥§à¥®à¥¯":7727,"à¤£à¤µà¤ĸà¤£":7728,"à¥§à¥¯à¥©":7729,"à¥§à¥¯à¥«":7730,"à¥§à¥¯à¥¬":7731,"à¥§à¥¯à¥®":7732,"à¥§à¥¯à¥¯":7733,"Ġà¤ļà¤¯à¤¨à¤¸":7734,"à¤¿?'":7735,"à¥¨à¥¦à¥¨":7736,"à¥¨à¥¦à¥©":7737,"à¥¨à¥¦à¥ª":7738,"à¥¨à¥¦à¥¬":7739,"à¥¨à¥¦à¥Ń":7740,"à¥¨à¥¦à¥®":7741,"à¥¨à¥¦à¥§à¥Ń":7742,"Ġ[-];":7743,"à¤®à¤Ńà¤¯à¤¦":7744,"Ġà¤®à¤¹à¤²à¤ķ":7745,"Ġà¤ħà¤Ĺà¤²à¤¬à¤Ĺà¤²":7746,"à¤¾])à¥¤":7747,"à¤Ĺà¤µà¤¤à¤ª":7748,"à¤Ĺà¤µà¤¤à¤ķà¤¥":7749,"à¥¨à¥ªà¥©":7750,"à¥¨à¥¬à¥¯":7751,"Ġà¤¬à¤°à¤¦à¤¬":7752,"Ġà¤ĵà¤µà¤°à¤Ł":7753,"Ġà¤¶à¤®à¤¨à¤ķ":7754,"Ġà¤Ĩà¤«à¤¤":7755,"Ġà¤¸à¤¦à¤°à¤²":7756,"Ġà¤ħà¤Łà¤²à¤ľ":7757,"Ġà¤¨à¤¬à¤ķà¤¨":7758,"Ġà¤¹à¤°à¤·à¤²":7759,"Ġà¤¸à¤¹à¤²à¤ķ":7760,"Ġà¤Ĺà¤Ĺà¤¨à¤ļà¤°":7761,"Ġà¤®à¤¥à¤¬":7762,"Ġà¤®à¤ķà¤°à¤¨":7763,"Ġà¤ļà¤Łà¤ªà¤Ł":7764,"âĢĶ\"":7765,"Ġà¤¨à¤ĸà¤¶":7766,"Ġà¤ļà¤°à¤®à¤¸":7767,"à¤¨à¤ªà¤°à¤ĸ":7768,"à¤·à¤Ńà¤§":7769,"Ġà¤ıà¤«à¤ıà¤«à¤Ī":7770,"Ġà¤ľà¤ĩà¤ķà¤°":7771,"à¤ıà¤²à¤ıà¤ıà¤²à¤¸":7772,"Ġà¤ıà¤¸à¤ıà¤«à¤ıà¤¸":7773,"à¤¤à¤¬à¤²à¤§":7774,"à¤ķà¤ĸà¤¨à¤¹":7775,"Ġà¤Ŀà¤ķà¤Ŀà¤ķ":7776,"Ġà¤°à¤®à¤¨à¤Ĺà¤°":7777,"Ġà¤ľà¤²à¤ĸà¤ĩ":7778,"à¤Ĩà¤°à¤ĵà¤ıà¤®":7779,"à¤¿âĢĿ,":7780,"à¤ķà¤²à¤¯à¤µ":7781,"Ġà¤ıà¤ıà¤ıà¤¡":7782,"Ġà¤¸à¤°à¤°à¤°à¤°":7783,"Ġà¤¬à¤Łà¤Ĺà¤¬à¤¨":7784,"Ġà¤ķà¤£à¤ķà¤£":7785,"à¤¨à¤°à¤¦à¤²":7786,"à¤£à¤ħà¤µà¤Ĺ":7787,"Ġà¤Ĩà¤Īà¤ıà¤ıà¤®à¤Ĺ":7788,"Ġà¤®à¤°à¤ķà¤¤à¤®à¤£":7789,"à¤°à¤¤à¤īà¤ªà¤µ":7790,"Ġà¤ľà¤¨à¤Ĺà¤£à¤®à¤¨":7791,"à¤¸à¤Ĳà¤ª":7792,";'":7793,"¹,":7794,"Ġà¥ĭ":7795,"Ĥ¹,":7796,"Ġà¤£":7797,"Ġà¤ĥ":7798,"Ġà¤Ļ":7799,"à¥°":7800,"à¥Ĩ":7801,"à¥Ķ":7802,"à¤¾à¤¿":7803,"à¤°à¤ĵ":7804,"à¤°à¤¨à¤¨":7805,"à¤°à¤Łà¤¨":7806,"à¤°à¤Ĩà¤¬à¤¯":7807,"à¥ĩ?---":7808,"Ġà¤ķà¤ªà¤°":7809,"Ġà¤ķà¤¸à¤°":7810,"Ġà¤ķà¤µà¤¯":7811,"Ġà¤ķà¤¸à¤®à¤¸":7812,"à¤¨à¤¯à¤ķ":7813,"à¤¨à¤Ĩ":7814,"à¤¨à¤¯à¤®":7815,"à¤¨à¤Ĩà¤°":7816,"à¤¨à¤®à¤ķ":7817,"à¤¨à¤ĩà¤¯":7818,"à¤¨à¤ħà¤ªà¤®":7819,"à¤¤à¤ĩ":7820,"à¤¤à¤²à¤¯":7821,"à¤¤à¤¯à¤¤":7822,"à¤¤à¤ĵ":7823,"à¤¤à¤ªà¤ķ":7824,"à¤¤à¤¸à¤®à¤¯":7825,"à¤¤à¤Ńà¤¯":7826,"à¤¤à¤īà¤Ĺ":7827,"à¤ķà¤ķà¤°à¤£":7828,"à¤ķà¤¬à¤²":7829,"à¤ķà¤ħà¤°":7830,"à¤²à¤µà¤²":7831,"à¤²à¤µà¤ķ":7832,"à¤²à¤ħà¤¨":7833,"à¤²à¤ĩà¤¯":7834,"à¤²à¤ıà¤¬":7835,"à¤¯à¤¯à¤¤":7836,"à¤¯à¤¸à¤°":7837,"à¤¯à¤ªà¤ķ":7838,"Ġà¤¸à¤Łà¤¨":7839,"Ġà¤¸à¤¸à¤®":7840,"Ġà¤¸à¤ªà¤¦":7841,"Ġà¤¸à¤¡à¤ķ":7842,"Ġà¤¸à¤ªà¤¥":7843,"à¤¹à¤ł":7844,"à¤¹à¤Ĩà¤°":7845,"à¤¹à¤ķà¤²":7846,"à¤¹à¤®à¤¨":7847,"à¤¹à¤Łà¤ķ":7848,"à¤®à¤Ľ":7849,"à¤®à¤½":7850,"à¤®à¤µà¤¤":7851,"à¤®à¤ħ":7852,"à¤®à¤¬à¤¦":7853,"à¤®à¤¬à¤¸":7854,"Ġà¤ªà¤¯à¤µ":7855,"Ġà¤ªà¤¯à¤²":7856,"Ġà¤ªà¤¨à¤¬":7857,"Ġà¤ªà¤ĩà¤¡":7858,"Ġà¤ªà¤ĵà¤¤":7859,"Ġà¤ªà¤¯à¤²à¤¹":7860,"à¤µà¤ĩ":7861,"à¤µà¤ĺ":7862,"à¤µà¤µà¤¨":7863,"à¤µà¤ŀ":7864,"à¤µà¤¯à¤¸":7865,"à¤µà¤ĩà¤¨":7866,"à¤µà¤Ĺà¤®":7867,"à¤µà¤¹à¤®":7868,"à¤µà¤ĭà¤£":7869,"à¥ĭà¤ĥà¥¤":7870,"à¥ĭ),":7871,"à¥ĭà¤ĥà¥¥":7872,"à¤¸à¤ı":7873,"à¤¸à¤ĩ":7874,"à¤¸à¤ıà¤²":7875,"à¤¸à¤Ĺà¤¤":7876,"à¤¸à¤µà¤¨":7877,"à¤¸à¤¤à¤µ":7878,"à¤¸à¤¸à¤®":7879,"à¤¸à¤¤à¤ķ":7880,"à¤¸à¤§à¤°":7881,"Ġà¤®à¤¸à¤¨":7882,"Ġà¤®à¤Łà¤°":7883,"Ġà¤®à¤¯à¤ª":7884,"Ġà¤®à¤ķà¤¡":7885,"Ġà¤®à¤ķà¤Ĺ":7886,"Ġà¤ħà¤¯à¤µ":7887,"Ġà¤ħà¤ĵ":7888,"Ġà¤ħà¤¤à¤µ":7889,"Ġà¤ħà¤Łà¤¨":7890,"Ġà¤ħà¤¯à¤¸":7891,"Ġà¤ħà¤ıà¤²à¤¨":7892,"à¥ģ'":7893,"Ġà¤ľà¤½":7894,"Ġà¤ľà¤ªà¤ķ":7895,"Ġà¤ľà¤²à¤¹":7896,"Ġà¤ľà¤ıà¤µ":7897,"Ġà¤ľà¤¯à¤¤à¤¨":7898,"Ġà¤ľà¤ĩà¤¸à¤ķ":7899,"à¤ªà¤¸à¤°":7900,"à¤ªà¤²à¤¤":7901,"à¤ªà¤ļà¤¨":7902,"à¤ªà¤ªà¤¤":7903,"à¤ªà¤ķà¤²":7904,"à¤ªà¤µà¤¸":7905,"à¤ªà¤²à¤®":7906,"à¤ªà¤¹à¤®":7907,"à¤ªà¤ªà¤¦":7908,"à¤¦à¤µà¤¶":7909,"à¤¦à¤¸à¤µ":7910,"à¤¦à¤ªà¤°à¤®":7911,"Ġà¤¨à¤²à¤ķ":7912,"Ġà¤¨à¤ļà¤¨":7913,"Ġà¤¨à¤°à¤²":7914,"Ġà¤¨à¤ĸà¤°":7915,"Ġà¤¨à¤°à¤¹à¤°":7916,"Ġà¤Ĩà¤ľà¤¨":7917,"Ġà¤Ĩà¤ıà¤ķ":7918,"Ġà¤Ĩà¤®à¤¸à¤Ń":7919,"Ġà¤Ĩà¤ĩà¤¸à¤¨à¤°":7920,"Ġà¤¬à¤¯à¤®":7921,"Ġà¤¬à¤Ŀ":7922,"Ġà¤¬à¤®à¤ķ":7923,"Ġà¤¬à¤ĺà¤¨":7924,"Ġà¤¬à¤°à¤ķà¤¨":7925,"Ġà¤¬à¤°à¤®à¤¨":7926,"Ġà¤¬à¤Ľà¤¡":7927,"à¥¤âĢĿ":7928,"Ġà¤¹à¤½":7929,"Ġà¤¹à¤łà¤ķ":7930,"Ġà¤¹à¤¯à¤¹":7931,"Ġà¤¹à¤°à¤¹à¤°":7932,"à¤Łà¤ļà¤¨":7933,"à¤Ĺà¤®à¤£":7934,"à¤Ĺà¤®à¤¸":7935,"à¤Ĺà¤µà¤¸":7936,"à¤Ĺà¤µà¤¦":7937,"à¤Ĺà¤ļà¤ķ":7938,"à¤Ĺà¤ħà¤¬":7939,"Ġà¤µà¤²à¤®":7940,"Ġà¤µà¤¦à¤¤":7941,"Ġà¤¦à¤ĩ":7942,"Ġà¤¦à¤«":7943,"à¤¬à¤¯à¤®":7944,"à¤¬à¤²à¤¸":7945,"à¤¬à¤ħà¤ľ":7946,"à¤§à¤Ĺ":7947,"à¤§à¤°à¤¸":7948,"à¤§à¤ªà¤°":7949,"à¤§à¤²à¤ķ":7950,"à¤§à¤®à¤¨":7951,"à¤§à¤ľà¤²":7952,"Ġà¤ıà¤ĩ":7953,"Ġà¤ıà¤¡à¤ķ":7954,"à¤·à¤·":7955,"à¤·à¤¡":7956,"à¤·à¤ļà¤¨":7957,"à¤·à¤°à¤¶":7958,"à¤·à¤®à¤¨":7959,"à¤£à¤µà¤°":7960,"à¤£à¤ľà¤¨":7961,"à¤£à¤°à¤¹":7962,"à¤£à¤¸à¤Ń":7963,"Ġà¤°à¤£à¤ķ":7964,"Ġà¤°à¤¥à¤®":7965,"Ġà¤°à¤®à¤¯":7966,"Ġà¤°à¤Łà¤¯":7967,"à¤ģà¥į":7968,"à¤ģà¥¥à¥¥":7969,"à¤ģ);":7970,"Ġà¤²à¤¨":7971,"Ġà¤²à¤£":7972,"Ġà¤²à¤°à¤¤":7973,"Ġà¤²à¤°à¤ķ":7974,"Ġà¤²à¤¦à¤¨":7975,"Ġà¤²à¤µà¤¯":7976,"Ġà¤²à¤¯à¤µà¤²":7977,"Ġà¤²à¤ľà¤ķ":7978,"Ġà¤²à¤Ńà¤¨":7979,"Ġà¤²à¤«à¤¡":7980,"à¤¥à¤µà¤¤":7981,"à¤¥à¤°à¤¹":7982,"à¤¥à¤ľà¤²":7983,"à¤¥à¤ªà¤°à¤ķ":7984,"à¤ľà¤½":7985,"à¤ľà¤ķà¤¯":7986,"à¤ľà¤ªà¤¤":7987,"à¤ľà¤¹à¤¨":7988,"à¤ľà¤Ĺà¤¨":7989,"à¤ľà¤¬à¤¨":7990,"à¤ľà¤¯à¤ª":7991,"à¤ľà¤ĩà¤ķ":7992,"Ġà¤Ľà¤¨à¤¨":7993,"à¤Ľà¤¨à¤ķ":7994,"à¤Ľà¤²à¤¤":7995,"à¤Ľà¤¤à¤®":7996,"à¤¶à¤²à¤¨":7997,"à¤¶à¤ªà¤°":7998,"à¤¶à¤¯à¤¸":7999}